#version: 0.2 - Trained by `huggingface/tokenizers`
Ġ a
d e
Ġ t
e n
o n
Ġ de
e s
i n
Ġ p
e r
l a
t i
Ġ c
o r
o s
Ġ s
c i
Ġt h
m p
Ġ 1
r e
a r
Ġ ,
Ġth e
Ġ ;
Ġ o
t a
Ġ la
Ġ e
a mp
a l
Ġ .
i s
Ġ &
r o
a n
Ġ #
Ġ in
en t
a s
Ġ m
Ġ1 2
Ã ³
i c
Ġo f
Ġ12 4
Ġ f
Ġ )
u n
e d
Ã³ n
Ġ C
i t
q u
Ġ l
ti on
o m
Ġ b
Ġ 2
Ġ en
Ġc on
Ġa n
d o
Ġ re
0 0
Ġe l
Ġ n
ci Ã³n
Ġ E
d a
r a
Ġ qu
e c
in g
Ġt o
Ġp ro
t e
m ent
l e
r es
Ġ y
Ġ (
Ġ /
Ġan d
Ã ¡
Ġ A
Ã Ń
Ġ w
s i
Ġde l
Ġ d
Ġl os
u l
Ġs e
Ġqu e
Ġa p
ti v
Ġla s
ic a
ĠC om
Ġs u
Ġp ar
t er
m b
Ġ un
Ġ h
Ġf or
Ġ es
Ġ2 00
Ġ 9
r i
ti c
Ġc o
Ġb e
t o
ci on
c e
e g
Ġ S
Ġ D
l i
Ġ R
d os
d u
u r
a t
Ġ 3
Ġ v
o t
e mb
Ġ :
Ġ T
Ġs h
d i
Ġe x
Ġ or
Ġa c
u t
Ġ g
al l
Ġ i
a tion
Ġ %
l o
u la
a ciÃ³n
Ġa l
p e
u s
Ġ P
e t
Ġ I
c t
i da
i r
Ã ©
Ġa r
cion es
i m
Ġp or
or m
Ġ on
si on
ĠR eg
Ġpar a
ĠCom m
d as
Ġc om
Ġ M
ar i
Ġsh all
s ta
Ġn o
i re
de r
Ġa s
o l
c h
i g
it h
is i
Ġ 4
t u
b l
Ġ L
s e
Ġco mp
Ġ N
b le
Ġp er
Ġb y
c ul
Ġw ith
h e
f orm
v i
Ġ res
ent e
t es
it y
Ġpro du
er e
t ÃŃ
Ġm a
v e
Ġi mp
Ġqu ot
Ġw h
ec t
r an
Ġs o
tÃŃ cul
Ġ1 9
u ro
ĠA r
Ġ is
Ġp res
Ġ 5
f ica
Ġc u
i l
Ã¡ n
Ġar tÃŃcul
Ġcon t
p or
ĠAr tic
ci al
Ġes ta
ic h
ment o
is t
ĠC E
en ta
Ġ 6
o d
e x
emb er
ire c
f er
p er
l y
ĠartÃŃcul o
Ġa ut
uro pe
Ġap p
t r
ĠArtic le
m in
i ent
f i
Ġh a
tiv e
ci a
i z
Ġp re
Ġ 8
v er
ida d
Ġ 7
ĠS ta
ta do
ĠE sta
Ġre g
ula tion
Ġun a
â Ģ
la mento
Ġth at
g ra
ĠE urope
Ġm i
ed i
al es
isi Ã³n
is sion
ĠD irec
c o
Ġ âĢ
Ġd is
de s
Ã º
p os
Ġmi emb
ĠT he
Ġ 0
m a
Ġo b
t ed
l u
c ed
t h
ĠC on
Ġin ter
l ica
t s
ĠN o
a do
c es
Ġm e
Ġ9 3
Ġ F
Ġ9 1
de n
Ġs er
ĠReg ulation
Ġin form
tiv a
u e
Ġprodu ct
r os
ĠM ember
Ġf in
Ġcon s
Ġc a
ĠCom isiÃ³n
Ġa d
Ġ19 9
de d
Ġde s
u m
Ġap ar
b re
ĠReg lamento
ĠComm ission
ti es
tion s
Ġ O
Ġ it
i d
u es
i a
f ic
u re
la n
Ġ do
ĠE C
Ġ B
c lu
ro m
Ġwh ich
ran s
Ġimp or
Ġp a
Ġa re
ĠComm un
ment e
Ġl o
c er
g e
t os
Ġapar tado
ar Ã¡
Ġth is
Ġre la
Ġ r
o un
Ġm ar
i on
Ġt rans
ient o
Ġ ent
j o
c u
a dos
Ġsu b
d ing
Ġm edi
an ce
m en
Ġde b
ment s
i o
v en
t en
Ġm o
E C
Ġ U
Ġ Â
da d
Ġmiemb ros
Ġd i
Ġre fer
ĠD e
ĠCommun ity
ĠEsta dos
ta n
ula r
Ġa g
Ġf rom
Ġ da
Ġt ra
ĠA n
ar y
p on
ĠSta tes
e l
ĠI n
Ġ200 5
ĠâĢ Ķ
ar d
Ġpres ente
Ġp r
an do
Ġn ot
or es
Ġ G
ĠP ar
re d
Ġre qu
Ġc as
ec es
g an
Ã ±
m e
Ġ j
Ġma y
Ġap os
c or
Ġ1 0
2 00
en cia
ti tu
Ġt a
Ġpro ced
Ġa t
Ġn eces
a d
Ġso bre
is h
l es
Ġe f
u p
h or
ti fica
Ġesta bl
lo w
Ġex p
Ġ200 4
ci l
ec h
Ġaut or
a te
b i
ent es
Ġun der
si Ã³n
Ġin s
Ġs ig
isi on
Ġt er
por t
ĠEurope an
Ġpar tic
Ġsu s
ÃŃ a
ul d
m o
Ġ us
Ġaut hor
do p
th er
s t
Ġf a
Ġa dop
Ġap lica
ci p
ta s
ari o
Ġc er
u res
Ġp u
Ġpartic ular
c on
v ision
j e
Ġ Î
Ġb as
Ġs i
p ec
ro l
Ġre p
Ġ J
ida des
p h
ĠDirec tiva
o uld
ĠCom un
Ġcom un
ĠDe ci
ta l
w n
ĠCon se
a das
ĠDirec tive
qu i
Ġcom o
a da
Ġin clu
us t
ĠConse jo
u i
Ġ1 1
Ġp os
oun cil
m iento
an te
Ġp o
or e
ĠL a
er o
Ġc ar
ĠE l
an ti
v es
Ġcomp et
Ġcon si
Ġfin an
Ġac cor
t ing
re e
ĠC ouncil
ar Ã¡n
n ex
Ġcon di
Ġ200 6
Ġpro vi
ol low
ĠE EC
ĠU n
gra ph
Ġm an
tr u
ta ciÃ³n
a c
r it
ĠCE E
ci o
Ġ1 5
Ã¡ s
pos i
Ġor gan
ÃŃ s
r Ã¡
Ġf ollow
ri b
i ties
Ġde ci
Ġl e
sta n
Ġper s
u d
v a
Ġpro vision
v al
Ġme as
k e
g n
en er
ĠAn nex
pe ci
s o
t ra
ar se
Ġe mp
Ġ V
Ġ1 3
tiv o
Ġp od
Ġh as
ta in
Ġ1 4
Ġsh ould
m it
Ġse g
Ġpar ti
Ġo ther
Ġrefer red
c a
ex o
p a
ter min
ĠComun idad
en e
ation al
Ġpers on
Ġf i
Ġ H
Ġp ri
Ġprodu c
ĠE n
00 0
Ġpro gra
Ġ200 3
ĠE U
Ġmo di
Ãº n
y s
v is
Ġaccor d
ĠR e
Ġn a
er s
Ġaccord ance
p ar
Ġit s
Ġo per
Ġde termin
Ġcont ra
Ġent re
W h
Ġmedi das
Ġapp ro
g o
Ġ ra
Ġmar k
li ci
T he
p ues
Ġ u
ĠSta te
Ġc or
ce p
y u
e ar
ter i
Ġd ich
er a
cer n
Ġdis posi
ari os
f in
m i
an t
a ciones
bl ic
i e
Ġmeas ures
Ġ2 0
w e
Ġ1 7
ĠP ro
ation s
Ġc h
Ġapp lica
iz aciÃ³n
Ġcon cern
O N
Ġl eg
ĠI I
Ġproduct os
fi ci
i Ã³n
Ġo ut
Ġa f
Ġth ere
u g
Ġcon form
Ġp la
en ce
Ġfollow ing
l ic
Ï Ħ
Ġm er
Ġs a
ĠEsta do
Ġm en
ari a
r Ã¡n
Î ¿
Ġesta ble
Ġ3 1
u ra
Ġv e
bl es
v o
tiv os
ic e
ist ra
Wh ere
Ġ1 6
u al
d ica
ĠA g
or k
Ġa b
t in
Î ¹
Ġan y
Ġaplica ciÃ³n
Ġsu p
m enta
Ġ -
Ġestable ci
Ġha ve
li g
Ġmark et
Ġ3 0
Ġ z
ari as
Ġmer c
Ġn e
E N
Ġa yu
Ġcomun it
Ġthe ir
Ġpara graph
n o
Ġproduct s
Ġf un
Ġp ur
Ġdeb er
Î ±
Ġ200 2
Ġl i
Ġes t
il l
Ġfor m
Ġso lici
r ic
Ġmiemb ro
er do
v ing
Ġn orm
un t
b a
Ġs ta
ci os
Ġdisposi ciones
Ġor ig
Ġac tiv
O M
Ġestabl ish
Ġ1 8
t y
t ro
Ġinform ation
Ġdo wn
Ġa men
Ġwh ere
m an
ĠÂ °
re g
a ch
o per
Ġcas o
Ġrequ ire
Ġt en
in a
Ġv al
li z
Ġde fin
la s
E S
Ġcer tifica
t ec
Ġcont rol
1 0
Ġan exo
ĠL os
i p
m on
r as
es s
Ġp lan
Ġproced im
Ġ200 1
es t
ve l
p ri
Ġin to
tiv as
der ando
os e
ci as
Ġs ec
Ġmodi fica
ri es
Ġs peci
Ġsu ch
Ġ k
Ġestabl ec
Ġin ves
Ġprogra m
Ã© s
n a
Ġ199 9
y a
du c
te m
min istra
ic al
Ġprovi ded
Ġ2 2
ur al
Ġo p
Ġres ul
Ġp ol
j ec
Ġ200 0
u ciÃ³n
Ġal l
Ġpa ÃŃs
Ġy ear
Ġreg ard
o ur
Ġwith in
Ġa Ã±
bi li
Ġbe en
c la
Ġan im
T I
d s
si derando
bl ica
at ed
Î ½
Ġinform aciÃ³n
or y
Ġm Ã¡s
te g
fi ed
Ġper i
Ġprovision s
ĠEU R
in e
cion al
ta dos
i en
Ġg ener
z o
mp li
Ġcon te
i os
Ġbe t
Ġob je
C on
a ge
Ġa id
Ġ2 3
Ġ2 5
Ġd ur
ui ente
Ġg o
Ġre c
k ing
Ġ2 1
as e
ĠDeci siÃ³n
ĠDeci sion
x im
ect or
Ġorgan is
ti g
qu e
Ġu ti
ÃŃ as
Ġconform idad
re ch
t ar
ces s
Ġin dica
es e
Where as
Ġrep res
j ect
Ġe qui
Ġc os
Ġex por
Ġimp le
Ġemp res
s u
a y
Ġse t
Ġpos i
Ġneces s
te e
h er
in t
ĠEurope a
Ġl et
ree ment
Ġen s
b er
it Ã©
ic o
ment os
we en
tu d
Ġ K
si gn
v ed
E R
in cip
it os
Ġpro tec
Ġperi od
Ġnecess ary
Ġdo cu
ĠE N
Ġbet ween
Ġad ministra
Ġac co
Ġco oper
de ra
ic es
Ġc i
Ġm on
Î µ
emb re
p i
Ġdes tin
Ġfinan ci
p ect
Ġw as
Ġas s
Ï ģ
Ġorig in
Ġ2 4
Ã© n
Ġg ar
Ġpre vis
pe cial
Ġres pon
cion ales
Ġayu da
h t
c y
mp la
Ġde rech
o f
g a
Ġe con
Ġef ec
Ġapp ly
1 2
Ġar reg
tic a
Ġme an
f ore
Ġarreg lo
Ġ *
all y
Ġuti liz
Ġpr incip
Ġf ir
Ġcondi ciones
Ï ĥ
Ġob lig
tr y
it o
ĠS e
it u
Ġser vi
z a
Ġg ran
Ġcu al
ĠComm it
Ġc al
Ġde n
i do
ĠT h
Ġ2 9
Ġser v
Ġres pec
Ġ2 7
en s
Ġre al
ĠCom itÃ©
k s
Ġo tr
b or
Ġ W
Ġth an
Ġm is
Ġsig uiente
Ġn ational
Ġauthor ities
e mp
Ġreg ion
Ġcom er
r en
ĠRe p
ĠCommit tee
00 00
Ġ2 8
i la
b il
tru ct
is la
ĠL as
od s
re at
Î ·
ÃŃ o
Ġs ector
es ti
ech a
un to
ul es
Ġappro pri
ve lo
mb i
Ġs in
Ġter rit
Ï Ģ
ĠÂ »
a ble
Ġm ust
E l
velo p
Ġpres ent
Ġt ex
val u
Ġapplica tion
r u
Ġla id
m os
Ġh e
Ġparti cip
i es
I S
Ġef f
Ġ2 6
e ti
Con siderando
Ġconcern ed
Ġconte mpla
Ġ up
Ġpar te
al s
Ġdeci sion
Ġautor idades
Ġap lic
l l
Ġac u
Ġl im
f f
mb er
lo g
Ġn i
le v
Ġprocedim iento
li a
Ġin du
Ġcu enta
o ut
1 9
Ġleg isla
Ġin c
ti s
Ġinves tig
p en
rib u
Ġcondi tions
res pon
Ġd ist
Ġproced ure
Ġpri m
Ġsu per
Ġb ene
Ġth ose
Ġr ules
ĠA cu
ys tem
Ġcor respon
Ġde cla
ĠD E
Ġa m
Ġs itu
Ġor der
m s
Ġin i
Ġpod rÃ¡
pues to
u ri
bili dad
Ġrepres enta
A L
Ġus e
ĠT ra
Ġpro ce
Ġper ÃŃo
Ġin di
Ġca da
Ġe valu
ÃŃ n
ĠAcu erdo
Ġc an
ta ciones
ĠAg reement
r y
Ġt Ã©
is ta
at ing
ed a
Ï Ĥ
esti Ã³n
tic as
Ġmerc ado
L a
ĠC h
ri g
Ġon e
1 1
Ġens ure
Ġm ed
Ġap ro
ar rol
Ġc la
Ġcons titu
Ġv er
Ġcon clu
Ġcompet ent
Ġg as
en ti
da des
Ġ6 0
Ġv ig
Ġpod rÃ¡n
er v
Ġfin al
Ġw ill
Ġs al
Ġthe y
Ġcu ando
Ġp es
Ġcomp le
im en
Ġnorm as
Ġw ork
Ġinter es
at or
2 0
bil ity
Ġde velop
m ission
ĠpaÃŃs es
Ġe ach
tion al
m un
Ġpro pos
Ã³ m
Ġma de
Ġcons ul
ĠEurope o
g es
Ġappropri ate
Ġs is
g et
ect os
ĠperÃŃo do
ra f
Ġre f
Ġn ue
Ġd u
Ã© g
im e
si ble
ient os
or d
Ġmen cion
Ġamen ded
ĠC o
Ġfinan cial
Ġl ist
Ġda tos
Ġs ystem
Ġam oun
ire ct
Ġn u
Ġin f
C I
Ġsus titu
fi cial
Ġpu blic
Ġde sign
Ġcomer cial
k en
Ġpres enta
tiv es
Ġrequire ments
ĠC OM
Ġgener al
Ġ Ã
Ġes te
Ġlet ra
i den
Ġdis puesto
f a
Ġcer tain
Ġc re
Ġfi j
Ġ1 00
Ġdes arrol
Ġre fi
z ar
Ġma teri
ient es
Ġdefin i
a p
Ġbas is
I n
ĠD ec
res s
er g
t or
ĠE s
f y
Ġb o
Ġrep la
Ġto tal
j er
Ġex ist
Ġter cer
ic os
Ġco unt
I N
Ġex cep
Ġservi cios
en cias
Ġn om
Ġno tifica
Ġcount ries
ir d
y e
Ï ħ
om ic
Ġco ver
Ġh an
Ġa de
Ġf ig
on es
Ġpur pos
Ġp ue
Ġi f
en d
Ġas ÃŃ
Ġparti r
Ġal so
Ġle vel
Ġre co
Ġc anti
Ġtra ba
Ġla w
Ġt ime
Ġpar t
Ġth ese
l os
Ġsig u
mi ti
Ġin ten
ir Ã¡
A r
Ġpla zo
Ġadop t
Ġac tu
an to
A N
um an
o us
ĠÂ «
o ci
ter s
Ġconsi dera
Ġm ore
Ġd irec
Ġb u
Ġta ke
ic as
Ġmean s
it ed
it or
uri dad
Ġdeb e
Ġbas e
Ġda te
Ġt ech
c ar
n e
Ġth ird
A R
Ġqu anti
menta tion
Ġauthor ity
Ġve h
en cy
Ġdur ante
Ġautor iz
i dos
Ġcas e
Ã©g imen
1 3
Ġtrans por
Ġf e
on e
Ġsigu ientes
Ġpro cess
ĠCon ven
ĠT H
Ġn at
on g
Ġne w
Ġf echa
Ġcual qui
Ġ ÏĦ
Ġel ect
Ġg ro
Ġex a
ta tion
Ġdecla ra
ÃŃ fic
Ġ19 8
ir c
Ġi den
w ork
Ġfir st
ul t
Ġthere of
b r
Ãº blica
Ġen ti
5 0
j or
Ġinter n
200 5
ur os
Ġ9 2
an c
m edi
Ġgar anti
Ġpro pues
Ġno ti
Ġins tru
teri or
is ed
la r
Ġm in
Ġ Ã¡
st ri
vi du
1 4
Ġfor ma
ust om
Ġconsi der
reat y
ch e
ĠTra tado
Ġins titu
Ġes pecial
Ġrepla ced
rit er
Ġm il
i fica
c ri
Ġimple mentation
Ġr Ã©gimen
Ġse a
ĠT reaty
Ġv ir
i or
ĠP or
lan d
om e
Ġda ta
Ġlo c
r on
un d
Ġex per
Ġus ed
Ġrefi ere
c n
Ġso cial
Ġcont ribu
Ġres pect
Ġdeber Ã¡
Ġsub ject
ta d
ĠII I
Ġ9 0
Ġc riter
Ġsig n
mp ing
Ġen v
Ġcualqui er
v ent
Ġimpor tan
Ġindi vidu
Ã¡ r
Ġcon c
Ġha ya
m es
Ġes pec
a ving
Ġl ic
a miento
Ġm et
Ġserv ices
ĠT o
g en
Ġcontra ct
Ġunder ta
Ġm es
Ġcar ri
Ġser Ã¡
Ġh ere
Ġe jec
Ġconcern ing
I I
Ġmar co
Ġn eg
Ġcont in
Ġpa y
m Ã¡s
Ġterrit or
r al
ĠtÃ© cn
ug h
Ġg i
Ġcu mpli
Ġempres as
v ol
to c
Ġproduc tion
g u
Ġfor ce
is itos
te ma
ĠâĢ ĵ
Ġpol ÃŃ
ĠDec ember
Ġb a
Ġc irc
Ġta ken
Ġadop ted
et y
Ġ rig
3 0
Ġcons um
es tion
Ġmedi ante
Ġj ur
Ġdesarrol lo
Ġproduc ciÃ³n
ci embre
y an
Ġacu erdo
Ġdi ciembre
Ġsup p
Ġnu mber
ul o
Ġex port
Ġamoun t
Ã ¤
Ġdich o
Ġes peci
Ġotr os
Ġin tro
Ãº m
du an
se l
L os
Ġp as
Ġon ly
ĠUn iÃ³n
Ġan tes
Ġefec tu
1 5
Ġsub mit
el l
on d
ĠM ar
Ġdi f
Ġ ro
Ġreal iz
ĠTH E
ra c
Ġ9 6
Ġcon ta
Ġv ol
ues to
3 5
on a
Ġdeber Ã¡n
a Ã±
Ġ3 2
i das
I C
Ġa u
it s
Ġna cionales
E n
Ġco un
al th
Ġre ci
Ġindu stri
Ġautor idad
ta das
ta mente
Ġg ra
Ġprotec ciÃ³n
Ġs tan
Ġf ish
Ġacco unt
H aving
Ġm Ã¡
ter n
Ġdeb en
is e
Ġ5 0
ÃŃ t
Ġa duan
Ġderech os
Ġca pa
Ġ4 0
o g
Ġspeci fic
Ġpur su
ustom s
6 0
Ġc r
ĠA s
Ġaf ter
Ġsolici tud
le g
Ġprogra ma
Ġtex to
ing s
Ġgo ods
Ġestablec er
lia ment
ĠTh is
Ġn Ãºm
200 6
om in
Ġestablish ed
O R
ec u
tu ra
Ġrela tiva
Ġto dos
v os
R eg
Ġ Ãº
Ġh uman
b o
C om
age ment
Ġan ti
ĠUn ion
6 8
Ġa li
Ġbene fici
Ġad di
Ġinclu ding
ĠArtic les
as t
da p
Ġo ver
Ġg estiÃ³n
Ġin de
in ion
Ġcom mon
ĠPar liament
la bor
O S
Ġ3 8
Ġseg uridad
Ġ9 5
Ġqu al
Ġd os
ĠPar lamento
Ġneces ario
ica ciÃ³n
ĠartÃŃcul os
Ġc ent
Ġobje to
s a
ver n
Ġd irect
A S
ĠAn exo
i ble
2 5
Ġcom Ãºn
Ġdis pon
Ġex clu
Ġpu blica
Ġorgan iz
in o
TI ON
Ġimpor taciÃ³n
n ical
Ġf u
ĠS ec
ro g
ĠÃ¡ mb
Ġ3 7
Ġproduc to
Ġmedi o
Ġef ectos
4 0
p ro
is ation
ĠnÃºm ero
Ġre ce
Ġsub stan
Ġf o
Ġre lev
Ġapro b
Ġa dap
ord in
a in
Ġactiv idades
Ġs on
Ġprodu cer
Ġcomunit aria
Ġ9 7
Ġe jer
Ġinter ven
ig h
li ed
Ġc e
Ġrespec to
l ti
ter ia
b ra
m as
ur s
ĠE con
sion es
Ġcorrespon di
Ġcon tain
9 9
it e
Ġcon f
Ġre port
c tion
en ces
Ġrela ting
EN T
Ã¡r raf
Ġmon th
Ġins pec
Ġinc re
Ġp Ã¡rraf
Ġp unto
Ġt anto
Ġma teria
Ġimpor te
h i
Ġag ric
Ġca teg
Ġ8 7
ces o
Ġimple ment
Ġsis tema
Ġindividu al
Ġrefer encia
ĠI t
Ġ9 8
Ġp e
Ġprogram me
Ġpursu ant
ĠJ un
w o
Ġj un
Ġinvestig aciÃ³n
m is
Ġw ere
Ġderech o
Ġel e
a g
Ġ3 4
b e
Ġdevelop ment
Ã ĵ
ed ad
r up
ĠmÃ¡ xim
E D
Ġcomp an
ad ores
ud get
Ġexa min
Ġha yan
f es
Ġvig or
ard s
a ti
Ġpre vi
Ġcompet entes
Ġe urope
an u
Ġ3 5
b y
Ġob jec
Ġn on
Ġprotec tion
it ar
ĠÃº lti
Ġ3 3
Ġecon Ã³m
Ġanim al
Ġdich a
mbi Ã©n
er os
Ġpro y
ip o
va ila
Ġob s
Ġ19 7
Ġactiv ities
Ġcapa ci
Ġneces arias
un g
Ġop inion
u blic
Ġna cional
Ġstan d
Ġestablec e
ta il
Ġgas tos
1 8
Ġreg ula
Ġvir tud
ĠpÃ¡rraf o
9 8
Ġt y
e w
Ġper j
ul y
Ġunderta king
ic ta
Ġhe alth
Ġm od
Ġprovi de
Ġent er
Ġthere fore
Ġleg al
Ãĵ N
Ġbe fore
ĠaÃ± o
E G
1 7
200 4
9 0
tic o
Ġpo int
om ent
ect ed
tic al
ĠJun e
Ġdur ing
Î ¼
du ci
Ġrela ciÃ³n
Ġm u
C OM
Ġjun io
a graph
1 6
ci li
C EN
Ġt al
T h
Ãº blic
Ġestableci do
Ġa vaila
Ġf ra
Ġtranspor te
Ġf ul
tr ic
Ġad d
Ġsa me
g os
ult ural
Ġs che
Ġsi do
ir on
Ġgaranti zar
Ġt ipo
Ġpri or
Ġapplica ble
Ã¡ c
Ġ X
Ġtech nical
Ġaf ec
Ġp Ãºblic
Ġtra de
ug ar
Ġw e
Ġejec uciÃ³n
Ġcoun try
c ula
Ġ9 4
o p
ĠE x
ti l
Ã© d
ta da
Î º
ÃŃt ulo
Ġs an
Ġre con
ĠRep Ãºblica
Ġ199 8
Ġsub par
p u
Ġespec ÃŃfic
Ġrequ isitos
du ct
ĠI V
Ġempres a
Ġpropues ta
Ġinter na
Ġrelev ant
Ġc ustoms
Ġsup port
Ġwith out
Ġpre par
Î ¯
in es
Ġm ember
bi er
Ġcont en
ig ht
Ġregion al
Ġrela tivo
an tes
Ġcarri ed
Ġt i
Ġc ur
icta men
c en
Ġme jor
tÃŃcul o
L A
Ġni vel
y o
ĠO F
Ġimpor ts
Ġsu stan
Ġto das
Ġb ien
Ġl ugar
2 4
Ġcom mun
ic y
9 3
Ġcooper aciÃ³n
Ġt om
Ġ3 6
m ar
os i
Ġin sta
Ġpro por
o w
Ġcomunit ario
an tÃŃ
ĠS o
Ï Į
ÃŃn im
i i
Ġdeci siÃ³n
Ġm ÃŃnim
c to
Ġequi p
Ġprevis to
Ġad j
ĠaÃ± os
ĠRep ublic
re a
Ġme et
Ġseg Ãºn
Ġjur ÃŃ
Ġ8 8
us ti
Ġexpor taciÃ³n
Ġprovision al
Ġmis mo
duc ciÃ³n
Ġproced ures
Ġyear s
Ġayu das
Ġthe m
ĠJ anu
fa ct
fic ar
Ġhas ta
Ġprocedim ientos
Ġgran ted
Ġma in
ter in
Ġ199 7
Ġcompet ente
Ġavaila ble
ĠC u
Ġen ero
Ġne ed
ĠJanu ary
Ġin te
Ġg u
Ġca p
A T
Ġtercer os
Ġprevis tas
Ġwh o
tic le
Ġis su
ĠâĢ Ļ
Ġactu al
Ġrela tivas
Ġcont ro
Ġ Ã©
Ġta mbiÃ©n
Ġ8 9
Ġtrans fer
Ġeff ect
an ge
l en
un a
Î »
Ġrequ est
2 3
Ġa j
ran ge
Ġexp edi
Ġmet h
Ġ7 0
Ġco ordin
Ġequi val
Ġcomp eti
tic os
menta l
Ġimpor taciones
tan ce
Ġmerc anc
Ġfa ct
Ġotr as
Ġade cu
stan te
Ġf ar
Ġanim ales
Ġwh en
Ġin ver
ĠI N
me work
Ġt wo
Ġcontin u
ui cio
j a
Ġmen os
Ġrece i
Ġnat ural
Ġmed ida
tic e
ĠF in
Ġtrans port
6 6
Ã¡ l
a re
5 8
is to
U N
h ol
Ġcom b
ie w
Ġres i
el d
2 7
f ety
Ġten der
Ġpro mo
Ġj ul
Ġpurpos es
c as
Ġrefer ence
Ġini ti
ur ity
Ġautor izaciÃ³n
Ġp en
Ġ4 3
tu re
Ġcertifica do
Ġ ries
ac ter
tra teg
Ġpres up
Ġch ar
Î¿ Ïħ
Ġso ci
ĠÃ¡mb ito
Ġcateg or
Ġsubpar agraph
Ġevalu aciÃ³n
Ġperson as
Ġv iew
o we
ist ro
Ġman agement
Ġv enta
Ġass ess
Ġen erg
Ġjul io
qu es
d ic
2 8
Ġw ould
ĠS u
4 7
ĠP R
Ġch ec
Ġval or
Ġal g
Ġen d
ĠJ uly
n ual
I T
Ġan al
Ġh ol
Ġexp lo
en da
ĠA C
Ġcor re
Ġcos ts
Ġt e
ur ther
Ġterritor io
us e
Ġre as
Ġinform e
ĠF or
r ing
Ġob stante
2 6
ur ing
m er
Ġproduct ores
owe ver
Ġperj uicio
Ġb udget
Ġpro fes
Ġser Ã¡n
Ġpr Ã¡c
ĠPar t
i de
Ġe labor
I ON
ĠP res
Ġr is
c an
Ġmay or
ĠD O
is ter
Ġcooper ation
Ġsu r
Ġdist in
ĠU E
i ver
Ï ī
4 8
ro ugh
ĠA l
ÃŃ co
Ġimpor t
Ġca pi
Ġenv iron
en do
Ġamen d
ĠE uro
Ġpro hi
ĠO f
Ġag r
ar a
Ġex ce
b an
Ġejer ci
Ġresi du
Ġde rog
Ġcon ven
Ġpropos al
Ġtrans form
Ġmercanc ÃŃas
l ed
or a
Ġt emp
Ġcommun ica
Ġ3 9
Ġecon omic
Ġab o
Ġ7 5
Ġle ast
Ġth rough
ra da
er as
vi l
Ġiden ti
Ġal low
Ġv is
Ġse an
2 9
it ure
Ġac tion
di o
Ġcanti dades
c k
ed an
Ġcons ecu
de l
Ġb ut
di es
Ġconsi de
Ġsec ond
cial es
Ġrec om
Ġaplica bles
Th is
Ġobje tivos
h es
Ġl ÃŃ
Ġpos sible
Ġpue de
ĠA c
Ġtraba jo
le ment
Ġfun cion
Ġper man
Ġ8 0
Ġ199 5
ener al
Ġdif fer
Ġ Y
Ġ200 7
in ing
Ġsa tis
Ġseg un
lo y
Ġrequire d
Ġsche me
Ã ¶
Ġcom mit
Ġdich as
ĠF e
Ġs Ã³
Ġ8 5
Ġex ten
Ã³ g
Ġadministra tive
7 7
Ġperson al
ĠO J
Ġ Ãºn
Ġinten ded
g res
ĠÎ µ
or s
L as
Ġse l
Ġm at
en ci
Ġpol icy
S E
ĠT O
Ġl ista
Ġus o
Ġt ras
Ã© to
Ġaccor ding
Ġlist ed
4 3
Ġve terin
le ar
as ed
Ġ199 6
ĠG o
li on
Ġterrit ory
Ġhere by
so ci
Ġfig ur
Ġfi x
h ts
fic e
Reg lamento
Ġabo ve
et her
Ar ticle
Ġa ir
y ing
Ġy a
si fica
la ciÃ³n
Ã± a
Î ¬
ĠPar te
Ġag ain
Ġgro up
Ġorig en
Ġintern ational
Ġob ten
xim um
is is
Ġcover ed
g ed
4 5
Ġp rac
di a
Ġprogram as
6 7
ec tive
Ġs im
Ġcomercial izaciÃ³n
Ġd ictamen
Ġde tail
Ġpar tes
Ġe mb
ĠR es
g ar
Ġcal idad
Ġmodifica ciÃ³n
Ġloc al
Ġex ig
Ġv ari
Ġsubmit ted
Ġn et
Ġaplica ble
ÃŃ an
Ġma ke
6 5
Ġa di
Ġmateri al
Ġexp end
V isto
Ġinte gra
Ġveh ic
ÃŃ cul
Ġes ti
Ġo tra
Ġpue den
Ġfa cili
Ġlegisla ciÃ³n
Ġgi ven
Ġmin im
Ġof ficial
ch a
ĠaÃ± a
ent s
Ġe uros
Ġar range
Ġ4 5
Ġcas os
Ġres tric
Ġapar tados
Ġimp ro
Ġexpend iture
Ġnom bre
cri p
Ġserv ice
Ġcu ya
Ġman ten
Ġto da
ir Ã¡n
h ip
Ġpla ce
Ġcas es
Ġdetermin ados
Ġqu estion
Ġ ÏĢ
Ġpro ject
Com mission
ech o
Ġmarket ing
Ġveh ÃŃcul
D e
Ġpre v
Ġpre ci
toc ol
Ġneg o
ta les
Ġcanti dad
Ġtraba j
Ġm ill
Ġden omin
Ġmes es
Ġo tro
im iento
N o
c ing
Ġapp lied
4 2
Ġ4 8
f e
Ã³ di
Ġw a
A P
Å Ĥ
Ġla n
m ed
Ġcomp ly
Ġcr Ã©d
Ġanim als
ĠC ent
Ġquanti ties
7 5
Ġcomp rom
Ġvol um
Ġa mp
ĠÎ ±
Ġg e
Ġwhere as
lo c
Ġare as
Ġs p
Ġpr ice
ĠâĢ ¦
en g
Ġcon ce
Ġpre cios
Ġfa cil
Ġagain st
Ġcomp ens
Ġestablish ing
Ġare a
er va
Ġproce den
Ġseg u
ĠA N
. .
Ġposi ble
s try
ĠlÃŃ mit
Ġde mÃ¡s
no log
ĠpolÃŃ tica
Ġdes de
ĠsÃ³ lo
Ġo wn
Ġreas on
ura ciÃ³n
Ġfra mework
Ġperson s
den t
Ġm Ã©to
Ġdi fer
Ġrepresenta n
Ġs ol
7 0
n ing
Ġutiliz aciÃ³n
Ġe m
Ġl lev
Ġd ra
Ġdocu ment
Ġgar antÃŃ
ĠPres iden
Ġs pecial
Ġconf ir
ĠA d
Ġejerci cio
I D
Ġdich os
Ġcon j
E L
rib un
Ġappro ved
t ment
Ġ Where
6 9
un tos
r gan
A D
M ENT
Ġv i
u di
Ġh ar
Ġissu ed
ar ante
Ġper tin
Ġta x
Ġlas t
Ġ7 7
lan ce
Ġcapi tal
Ġf urther
Ġval ue
oment o
Ġgo vern
Ġce le
Ġpurpos e
ct u
Ġma ximum
ec to
Ġth ree
2 2
Ġap o
tu des
3 8
ÃŃs ticas
Ġes tos
Ġden tro
du mping
t ur
c om
Ġsec urity
Ġmember s
Ġan terior
Ġprogram mes
Ġtemp or
Ã ¼
Ġcu mp
Ġ er
Ġrig hts
ard ar
m ientos
ad or
Ġmonth s
duc tion
Ġmil lion
Ġpr ue
Ġacco un
Ġv es
Ġpre j
o mp
ec tion
b s
is tance
Ġac ciones
Ġt res
vi ew
Ġequip ment
Ġun o
Ġsolici tudes
Ġpar ties
Ġn ing
Ġman u
ĠConven tion
Ġpay ment
Ġd ÃŃas
urs os
di do
Ġaj us
Ġcertifica dos
ĠI ta
Ġof i
Ġconside red
emp re
Ġdo es
Ġreg ulation
om o
4 9
ut y
port un
Î ®
v an
Ġqual ity
ĠSo cial
Ġr en
Ġfollow s
Ġnorm al
Ġmill ones
tem as
Ġin cor
Ġ6 8
Ġorganis mos
Ġsu f
Ġla bor
n es
ion al
Ġha b
Ġreg istra
Ġpa go
Ġagric ultural
ol Ã³g
Ġsi empre
der Ã¡
Ġty pe
ĠE E
Ġpro p
Ġin vol
tan te
Ġc l
ta ble
Ġac cep
Ġinter ca
ĠC ON
enti al
ul ti
Ġindu stry
ribun al
Ġpu edan
Ġdetermin adas
Ġapp lic
ĠM ay
ion es
bl ish
Ġp ues
Ġmanu fact
Ġorganis mo
Ġel lo
Ġmon itor
rib uciÃ³n
Ġpes ca
ĠCu ando
Ġbe ing
Ġsitu aciÃ³n
der s
ĠComun idades
Ġ199 4
Ġlim it
pu Ã©s
ent ly
c rib
Ġad ded
Ġt ardar
Ġtra te
ĠCon siderando
ues t
Ġarrange ments
v isiÃ³n
g ual
ĠCommun ities
Ġper mit
os t
Ġf ree
Ï ĩ
Ġan ual
Ġoper aciones
Ġestableci das
C E
ĠÎ º
ri l
Ġha ving
Ġg ui
Î Ń
Ġlegisla tion
Ġv o
Ġves sel
Ġc amp
Ġv ac
Ġfinanci era
Ġt ener
Ġto do
Ar tÃŃculo
Ġemp le
Ġi r
9 6
Ġci vil
Ġi m
ĠF ran
Ġadd ress
a ct
ĠN or
Ġsustitu irÃ¡
cto ber
Ġ199 3
3 3
v as
tic s
ĠO ctober
ot h
Ġresul tados
Ġcriter ios
Ġtra ta
Ġent ry
Ġdu mping
Ġcumpli miento
Ġproducer s
Ġcar ry
Ġcorrespondi entes
ctu bre
medi a
ar on
b al
Ġv an
Ġrespon sible
Ġrequ es
it le
Ġcomun ic
Ġac cess
Ġregard s
Ġis s
Ġinde pen
Ġagr ÃŃco
Ġesta s
p r
Ġo ctubre
ĠPro gra
in s
ĠPro tocol
si ve
ĠPar a
mb io
Ġde ri
ĠL A
Ġprocess ing
Ġpri v
Î ³
Ġ ke
Ġw ell
Ġd uty
to co
Ġes tu
Ġperson a
O P
Ġcriter ia
ĠM a
ĠI EC
Ġsta te
c enta
Ġmar zo
ĠP ol
ĠConven io
Ġ7 8
Ġaplic arÃ¡
pe al
p ti
Ġwh ether
Ġaf f
Ġdi e
ĠMar ch
Ġreg la
o ta
Ġa cep
Ġp ot
Ġ5 5
Ġcontro les
Ġsim ila
Ã© r
Ġminim um
ĠNo v
Ġestableci dos
Ġest Ã¡
ĠS a
Ġ Z
Ġ6 5
Ġa mbi
9 2
T U
ding s
Ġc las
Ġ4 6
9 7
Ġac ceso
Ġorgan izaciÃ³n
Ġcomunit arias
Ġobjec tives
Ġi gual
Ġinter est
Ġapplica tions
Ġcu estiÃ³n
Ġpre cio
Ġrespon sa
Ġmay o
0 8
h a
T R
Ġra z
9 5
Ġpro ble
Ġspeci fied
Ġquanti ty
toco lo
Ġli ci
Ġd ÃŃa
ĠUn ited
Ġe fica
v or
Ġl ong
ula ciÃ³n
Ġ +
Ġaddi tional
Ġl u
hes iÃ³n
e a
Ġrec ursos
Ġalg un
w ard
Ġb an
ĠmÃ¡xim o
Ġh is
Ġcompan y
Ġdefin ed
3 7
Ġdis e
o int
Ġconsecu encia
Ġs ome
Ġreco gn
Ġform aciÃ³n
ĠEurope as
0 2
IN G
d om
t om
Ġd om
Ġ7 6
Ġe t
Ġe qu
c al
Ġp on
Ġbas ed
Ġcontempla dos
Ġimplement ing
Ġfish ing
Ġgu arante
Ġeff ective
Ġsegun do
Ġsystem s
Ä ħ
Ġprej ud
Ġca bo
Ġe uro
Ġiden tifica
Ġf ut
Ġindustri a
Ġdocu ments
00 000
Ġbas ic
ĠT ribunal
Ġincor por
Ġinclu de
Ġexce ed
c ciÃ³n
ĠG eneral
I R
our ces
b ri
tra ct
Ġ4 4
ĠS i
Ġve z
Ġsustan cias
Ġorigin ating
Ġ199 2
Ġsus pen
Ġna me
Ġcomunit arios
Ġconstitu ye
0 1
Ġe vent
Ġre view
Ã į
ĠPar tes
Ġpr ices
ear ch
Ġservi cio
ĠC our
r ar
Ġa si
Ġass istance
tan tes
200 3
d or
Ġdes puÃ©s
Ġestablec en
li es
Ġdocu mentos
Ġprejud ice
Ġ jo
Ġrela cion
2 1
Ġsis temas
z ion
Ġt as
ĠmÃŃnim o
Ġcon ces
ro b
Ġnoti fied
la das
ĠTo tal
Ġa qu
Ġten d
Ġin media
Ġa mpli
Ġcons erv
Ġw ay
in ts
Ġsa fety
Ġprim er
i an
Ġla r
Ġ Ïĥ
eda des
Ġg lo
Ġm omento
Ġag reement
Ġ Q
Ġa ud
er dos
re t
f ter
re ed
ĠPro tocolo
ien do
Ġcertifica te
rup o
Ġman era
pri l
3 4
Ġent rada
Ġc Ã³di
ĠCour t
b as
Ġf on
Ġres ol
Ġesta d
Ġauthor iz
ĠÏĦ Î·
Ġstand ards
Ġco ll
Ġorganiz aciones
ve ment
f or
Ġse par
ĠA pril
Ġa z
Ġt ari
ĠEcon omic
5 4
in ess
Ġcompet encia
Ġris k
Ġparticip aciÃ³n
Ġsub ven
Ġoblig aciones
ron ter
Î ¸
ĠD i
Ġs ent
on as
Ġresidu os
o li
Ġv ia
ĠpÃºblic o
k a
an d
Ġtra ining
Ġal ma
vi ene
m il
Ġres ources
ĠIn ter
Ġsubstan ces
l ing
Ġconte x
te mber
mp an
ver s
Ġproy ectos
ĠIn form
Ï į
Ġh igh
is ing
se qu
Ġcomp on
Ġmeas ure
Ġab ril
Ġconc ent
Ġ5 8
Ġpu blish
tad ores
Ġb us
Ġresul ts
E T
c ter
ch ange
sion s
Ġb ro
ist encia
arÃ¡ cter
Ġ4 7
Ġp h
Ġfix ed
Ġobje tivo
Ġt on
Ġb or
0 5
Ġas pect
Ġob tain
3 9
Ġc arÃ¡cter
ith er
Ġag u
i vo
3 1
Ġra te
un ds
p p
Ġres iden
Îµ Î¹
Ġ 00
Ġcomp ar
ĠIn tern
raf t
Ġdeclara ciÃ³n
p tember
Ġag ree
Ġefec to
Ġemp loy
Ġpresenta ciÃ³n
Ġ6 6
Ġpo w
Ġreg ister
Ġcos tes
ĠD irect
Ġries go
Ġapplic ant
Ġan nual
Ġa Ã©
Ġassess ment
Ġfun da
Ġdocu mento
i as
ĠB o
ĠE ura
oun d
Ġsuper ior
Ġper miti
ĠjurÃŃ d
ri a
Ġz ona
an is
Ġh or
ie mp
Ġbu ques
A n
A M
Ġca us
Ġ Ã³
Ġco l
Ġsupp ly
ĠSe ptember
Ġsub si
ĠtÃ© r
Ġda y
Ġor den
Ġda ys
ĠEura tom
la ciones
ĠÃºlti ma
Ġmo de
Ġin vi
ĠC O
Ġ7 2
Ġcur r
Ġfigur an
fici ent
8 2
ĠV II
Ġsal ud
Ã¡l isis
t ut
c rit
mb ios
Ġrecon oci
Ġre du
Ġnorm a
Ġde man
Ġres titu
ĠA ut
Ġl ess
Ġlaw s
Ġac ciÃ³n
Ġexper i
Ġt ales
Ġ8 6
ĠPar ties
Ġm ot
pti embre
ti z
Ġj usti
Ġestablish ment
tion ed
ur ance
CI ÃĵN
Ġse ptiembre
Ġfig ura
Ġop en
Ġrepres ent
an ia
ĠS in
U R
por ts
Ġdu ties
tu g
Ġsitu ation
Ġla ter
Ġ6 7
Ġproceden tes
Ġpu eda
Ġdetail ed
Ġcon ver
TI V
3 6
ĠD er
Ġcon fi
Ġwork ing
i fic
Ġcele bra
Ġo c
Ġdel iver
Ġm ulti
Ġl es
as es
li an
Ġlim i
ci enti
Ġpre ven
ed ings
Ġreg istro
Ġcomp ren
ex os
S e
Ġoper ations
Ïĥ Î·
Ïģ Î¿
cienti fic
Ġundertaking s
Ġconform e
Ġadop tar
Ġoblig ations
9 1
Ġfinanci aciÃ³n
tiva mente
Ġc ient
den ce
Ġcontempla das
re ad
ir se
Ġnue vos
at ch
Ġac h
L E
Ġbo dies
Ġun til
Ġnotifica ciÃ³n
ĠNov ember
ap ter
er on
vi embre
ĠI mp
Ġoper ation
od y
Ġinves tment
9 4
5 5
ĠAN D
Ġsan it
Ġre d
ĠR EG
ĠO n
Ġcomb in
on ia
Ġfa vor
Ġ5 7
Ġsta tis
ec om
Ġ ur
Ġno viembre
ĠEcon Ã³m
ĠvehÃŃcul os
les s
osi ciÃ³n
M ember
di da
Ġan Ã¡lisis
ica mente
Ġcomp rob
ist os
Ġre duci
Ġacu erdos
Ġ Whereas
Ġglo bal
Ġe c
Ġmeth ods
Ġchec ks
Ġter ms
Ġexist ing
Ġde r
Ġbene f
Ġreg ar
men es
Ġta king
Ġb is
Ġre un
Ġv in
Ġoper ator
al f
ate ly
Ġar ance
ĠAC P
Ġcont ing
Ġach ie
Ġprevi a
Ġprim era
Ġt iemp
6 4
Ġexp res
Ġnue vo
Ġcomp ati
Ġac omp
T A
Ġauthor ised
Ġinterna cional
Ġz onas
E s
n i
Ġrec ur
Ġf all
Ġprohi b
Ġestableci miento
Ġdestin ados
T ER
Ġsh ip
Ġpa id
ĠespecÃŃfic as
Ġmodi fic
Ġmencion ados
Ġest Ã¡n
Ġre cor
ra ciÃ³n
Ġw or
ire d
Ġacomp aÃ±
Ġactiv idad
Ġcomprom is
Ġs tor
r Ã³n
Ġla b
Ġconsul ta
ĠM in
I ÃĵN
an g
Ġt one
Ġrig ht
j os
b ru
Ġinterven ciÃ³n
Ġcal cula
Ġintern al
Ġres earch
Ġmis ma
Ġtiemp o
Ġcapaci dad
ver y
Ġac ces
Ġe duc
Â «
Ġs te
Ġcons ist
ri m
ĠT a
Ġc ul
a tive
li ance
L O
Ġfi eld
Ġcomple ment
Ġinstitu tions
ĠK ing
Ġperman ente
Î¹ Îº
Ġ0 5
ĠF on
Ġs om
Ġfuncion amiento
Ġambi ente
Ġpublica ciÃ³n
4 4
0 7
Ġcompan ies
Ġmonitor ing
Ġcontra to
Ġaplic arÃ¡n
ES C
Ġexplo taciÃ³n
Ġab s
Ġmedi os
ĠR E
Ġsi mpli
er man
ĠDE L
Ġ7 1
e p
Ġcorrespondi ente
Ġmodifica do
Ġf ran
ĠKing dom
Ġbo v
Ġlici taciÃ³n
Ġa sign
Ġcar acter
Ġinter Ã©s
re as
8 8
Ġc li
ĠP a
Ġres pe
en cla
Ġreg ular
si bility
Ġproy ecto
t re
um er
ci miento
Ġnotifica tion
Ġproject s
Ġre vis
Î± Î¹
Ġag entes
Ïī Î½
ot her
Ġdiffer ent
Ġofi cial
ĠAg ency
ĠtÃ©r min
dos e
T o
p o
si a
ĠCh ina
fici ente
Ġlic ences
Ġt es
Ġaplic ar
Ġanal ys
ros s
Ġin fer
Ġrela ted
Ġrela tivos
Ġcar ne
Ġfun ciÃ³n
u b
T AL
Ġbus iness
ĠF R
Ï Ĩ
Ġorganis ations
w a
i lan
s titu
Ġper form
Ġla ying
a ding
Ġcons tru
z e
z os
Ġe ither
ĠFe bru
Ä į
Ġof er
Ġco uld
Ġparagraph s
ĠgarantÃŃ a
Ġi i
br ero
Ġ Ã©s
Ġde se
Ġdetermin ed
Ġk no
le x
Ġcontribu tion
Ġcontra tos
k ed
Ġappro val
5 7
Ġb oth
ĠM an
Ġfe brero
Ġgener ales
Ġs en
Ġs tr
Ġconsi gn
Ġimp act
ula res
yu da
Ġprevis ta
ĠC N
Ġfish er
e f
Ġel ig
ĠI S
tad or
Ġacco mpan
ĠFebru ary
Ġb ody
3 2
s ito
ĠaÃ±a di
im in
Ġrecei ved
Ġin no
Ġm ut
Ġmerc ados
Ġsimila r
Ġinvestig ation
Ġdisposi ciÃ³n
p s
l us
ÃŃ fica
4 6
Ġha cer
Ġalma cen
f ul
Ġlic ence
Ġimp os
Ġadop ciÃ³n
d is
Ġpro per
ue l
at ory
es truct
Ġes truct
Ġrespec ta
A TION
Ġcomp liance
Ġcamp aÃ±
teri ores
Ġini cia
Ġplan t
Ġpropos ed
Ġ0 4
ula ri
Ġpresup uesto
in as
Ġre ti
udi cial
la tion
Ġresul t
Ġinver siÃ³n
S ION
Ġi l
Ġinmedia tamente
Ġan te
Ġcumpli r
ĠI f
i form
i ente
Ġc he
or t
gres os
Ġter min
Ġco p
Ġmean ing
Ġnet work
ĠS eg
d ores
Ġcontempla do
Ġes e
ĠtÃ©cn icas
0 4
m n
Ġcapaci ty
ĠD es
Ġan other
Ġf res
Ġpublica tion
Ġorganis ation
Ġspeci es
Ġpropor cion
Ġs os
zion e
Ġpes qu
Ġal loc
Ġ199 1
Ġsta ff
ĠâĢ Ŀ
Ġ7 9
ĠRe ino
n ers
ĠmÃ©to dos
eg e
Ġal ter
Ġac tions
u er
Ġrequ i
Ġagree ments
Ġqu ed
Ġ8 3
Ġcla im
ing le
i le
Ġcomer cio
d ra
Ġ4 2
Ġtrans par
u le
Ġt ran
Ġcon oci
in al
Ġ8 1
Ġvehic les
0 6
Ġemb ar
an a
Ġme at
Ġo li
Ġmo do
Ġobs erv
ĠN C
Ġest Ã©n
ur ales
Ġdeci di
an ts
Ġen fer
Ġregulation s
ĠV I
Ġstand ard
Ġpo der
P ro
Ġtrans ac
fy ing
ĠcrÃ©d ito
c re
qu en
Ġe vi
Ġest Ã©
Ġtari ff
t t
Ġsu gar
Ġauthor isation
Ġent r
200 0
Ġadopt arÃ¡n
Ġrecom men
Ġenviron ment
ect ores
Ġel imin
Ġf er
Ġba jo
ig n
Ġs truct
Ġwas te
Ãº car
Ġpo ints
l er
Ġc all
et s
Ġinterna cionales
Ġecon om
Ã± o
Ġas soci
cri min
ci dad
Ġindustri al
ec a
Ġapo yo
ĠS ch
Ġsign ific
is es
A C
Ġdecision es
Ġmodifica ciones
u ales
ĠL t
ĠB an
a ir
tr as
eg o
ĠprÃ¡c ticas
n al
Ġ9 9
Ġcu ales
Ġcontract s
tu ff
ĠAg encia
ĠE S
Ġsig ue
Ġre ma
5 9
Ġpresent ar
r ÃŃa
7 1
ĠL i
ci den
ĠÃ© sta
Ġa im
p re
Ġs amp
Ġreco g
Ġmot or
Ġenfer m
en ess
Ġest arÃ¡
ĠjurÃŃ dica
V ista
Ġtransform aciÃ³n
c ur
Ġinclu idos
ĠFin an
ĠLt d
ĠDer echo
Ġar mon
mis mo
ĠOf ficial
Ġex emp
Ġj us
Ġp Ãºblica
Ġcon viene
Ġsu je
Ġ199 0
at es
Ġe je
Ġprincip ios
Ġex change
Ġsu ces
Ġcap ÃŃtulo
Ġintro du
Ġre peal
la do
Ġinter ior
Ġin dic
Ġt reat
Ġman da
Ġdetermin ar
Ġconta min
Ġsustitu ye
Ġconsum id
ĠPor tug
al idades
Ġamen ding
Ġcontempla da
Ġdirec ciÃ³n
mp tion
al ta
enta l
ec ciÃ³n
Ġobs erva
Ġconten ido
Ġaz Ãºcar
Ġiss ue
Ġcu yo
O L
i bles
Ġes s
Ġprodu ci
Ġins er
Ġrepresenta tive
Ġpro pi
Ġelect rÃ³n
6 2
5 1
Ġaccoun ts
la ri
Ġof fice
Ġreason s
Ġadop tion
Ġprim ero
Ġval id
Ġprincip io
Ġma jor
Ġful f
Ġinteres es
Ġinterven tion
Ġamend ments
Ġfa br
ĠA t
Ġas istencia
Ġenviron mental
w ar
g uiente
Ġli ber
Ġc lear
Ġd ue
Ġprincip al
ĠpolÃŃ ticas
Ġcu estion
6 1
Ġinstru mentos
ti que
Ġpresup uest
Ġemple o
ĠJ our
p es
Ġpro ceso
ĠW ith
Ġinspec tion
Ġtex t
Ġsignific ant
Ġti pos
h o
Ġt ÃŃtulo
Ġvessel s
ĠJour nal
ĠagrÃŃco las
ĠI s
Ġpas s
ĠH owever
IS IÃĵN
7 8
Ġdis p
Ġprincip les
ĠP L
ĠDirect or
Ġdeclara tion
un da
ul g
Ġposi tion
Ġp at
Ġli bre
ti al
Ġpertin entes
an ges
Ġconsum o
Î± ÏĦ
om a
Ġen umer
Ġele mentos
ĠprÃ¡c tica
u x
Ġprev istos
Ġfacil itar
Ġdestin o
Ġcon duct
ĠM o
Ġha d
ĠThe y
Ġneces aria
Ġconclu ded
Ġnom encla
u tion
Ġeurope a
6 3
Ġmodi ficar
Ġba lance
Ġse e
Ġnat ure
Ġprovi des
menta ciÃ³n
Ġbe h
co pe
Ġ60 3
ĠCOM P
ĠB e
R e
Ġt it
Ġm un
Ġsoci edad
m isiÃ³n
Ġco de
Ġpropues tas
ĠPR O
Ġmencion adas
ch o
Ġs trateg
Ġconsi guiente
Ġestu di
ĠG erman
Ġ5 4
Ġconces iÃ³n
eg u
Ġcomun icaciÃ³n
g ress
8 0
Ġsur ve
ur as
Ġamoun ts
Ġcent ral
ica tion
Ġo portun
ul tura
Ġper o
ator io
ĠV er
Ġ. ..
Ġsu min
Ġinstru ments
Ġelig ible
ĠC an
ĠO ficial
Ġimportan te
M IS
Ġcom mer
pues ta
Ġt ec
er ci
Ġadop tadas
read y
ĠAnnex es
crit o
il la
eng th
Ġ6 4
O b
Å Ľ
re la
Ġequival ent
Ġa vi
Ġnue vas
Ġper mi
Ġtrata miento
Ġal ready
Ġ4 9
Ġdecision s
Ġs ingle
y en
Ġ _
an s
Ġcient ÃŃfic
Ġof re
Ġh u
Ġp eti
Ġcla sifica
Ġre ducciÃ³n
Ġg rupo
Ġb i
ĠCh apter
Ġfinanci ero
rÃ¡ fic
g g
Ġ5 3
Ġincre ase
Ġp untos
Ġde f
Ġ8 2
ĠProgra m
Ġorigin al
Ġun iform
Ġas eg
Ġprevi ous
Ġm ues
u mption
Ġver ifica
Ġprue bas
Ġs toc
Ġl ia
ĠTO TAL
C H
Ġmencion ado
n er
Ġfo od
le man
Ġfin es
ĠÎ ¼
ĠÃºlti mo
Ġinfer ior
Ġpa ck
ĠC a
ues tos
Ġti ene
I B
Ġex tra
ĠlÃŃmit e
Ġf la
c os
Ġchar acter
Ġim medi
is ti
f t
Ġha ber
vol uciÃ³n
a mente
ĠCo mp
ug ht
ĠM e
Ġad hesiÃ³n
Ġf is
Ġl en
Ġevalu ation
m all
Ġa ce
al e
Ġal co
Ġpos terior
A id
Ġt ar
Ġprodu ced
tuff s
8 5
l d
o tas
Ġlim its
Ġbeh alf
Ġcirc um
Ġover all
Ġenerg y
Ġ =
Ġadministra tivas
Ġaddi tion
Ġli ke
di fica
Ġespecial mente
Ġprincip le
Ġaduan ero
Ġs cientific
ra tion
Ġra dio
is tas
Ġcompeti tion
Ġe tique
Ġg en
T S
Ġt ri
Ġ0 1
Ġtreat ment
ĠM on
ch ed
ura tion
Ġregar ding
8 1
C O
Ġpre fer
g i
ter al
Ġcomercial es
U S
Ġconven iente
Ġd on
Ġen car
Ġinno v
Ġse ed
Ġmain tain
Ġgran t
Ġhar mon
Ġf ru
Ġco ur
pos al
Ġf ronter
g in
w ith
200 2
ÃŃ ti
Ġv ege
Ġpublish ed
Ġcurr ent
er en
Ġd ar
men d
ron ic
Ġten iendo
Ġgaranti z
Ġl ight
Ä Ļ
Ġre form
il d
ar es
Ġlet ras
E M
ĠL e
s es
Ġf re
Ã± os
Â º
Ġver i
Ġderi v
crib ed
Ġlevel s
Ġfinanci eros
F or
Ġp len
Ġde m
ĠRe qu
ĠJ oint
tract ing
ĠDi ario
Å ¼
I A
Ġcomun ica
Ġful l
ous e
in os
Ġcos t
ĠBo ard
Ġvolum en
iz a
Ġpre vent
Ġc ere
tive ly
tes t
Ġinclu ded
Ġp i
Ġenti dades
8 7
Ġen vi
eg a
Ġespeci es
Ġaccording ly
Ġregister ed
Ġcaracter ÃŃsticas
Ġconj unto
Ġproce edings
Ġac qu
Ġsom eti
er se
ĠGo vern
Ġinclu idas
da tion
Ġtone ladas
ver age
Ġci er
Ġespecial es
Ġ 000
Ġreal izaciÃ³n
Ġpro t
en cial
del ines
Ġproce de
Ġconc re
ĠEuro pa
Ġespeci fica
ĠSec ret
Ġmejor ar
Ġdes crip
stan ces
l or
cia ciones
Ġs cope
Ġequi pos
j es
Ġregion es
ĠcampaÃ± a
Ġreques ted
A yuda
ĠG re
0 3
Ã §
Î ´
Ġh omo
Ġton nes
Ġo il
l in
Ġfacili ta
MIS SION
Ġanti dumping
Ġf ÃŃs
Ġtrabaj adores
Ã¡n dose
Ġsolici tante
i al
de mÃ¡s
Ġus u
Ġstor age
Ġpes o
Ġ7 3
Ġcons umption
Ġequ al
Ġexcep ciÃ³n
Ġex erci
m ing
Ġs ti
Ġjur is
k es
k o
op le
z y
v Ã©s
Ġ ?
Ġes ca
Ġad v
tor s
T H
Ġsu m
ĠOf fice
Ġobserva ciones
ĠComm on
C u
ce ment
Ġmateri ales
Ġest ar
pe l
Ġries gos
7 4
Ġconc edi
Ġc ri
Ġ6 2
Ġlan gu
Ġneces idad
Ġloc ales
ĠB E
Ġtech nolog
Ġm ec
Ġsuces ivo
ĠâĢ ľ
U LA
Ġwith dra
Ġtra vÃ©s
osi tion
Ġrepresentan tes
Ġpro gress
la y
Ġh er
Ġex tern
ĠÎ ´
Ġprohi bi
Ġre mo
Ġdeber ÃŃa
enci es
Ġfon dos
ĠT ur
ĠU N
Ġt ur
Ġac t
Ġexa men
w ay
Ġf our
Ġmode lo
Ġ4 1
Ġposi bilidad
Ġpay ments
fic ul
Ġpa g
Ġaff ect
Ġ603 35
c um
Ġde v
iz ar
Ġ7 4
Ġeurope o
Ġmod alidades
Ġin tra
Ġhomo log
t ory
7 6
Ġevi dence
Ġnego ti
Ġdist ribu
Ġdra wn
ĠlÃŃmit es
Ġcont ent
at os
ĠcÃ³di go
8 4
Ġs t
Ġcal c
si de
Ġex t
Ġimpor tes
Ġpa gos
Ġa ves
Ġneces arios
get her
Ġde p
Ġc red
n ed
Ġ8 4
li dad
Ġc in
ĠA p
Ġexp ress
Ġd Ã©
Ġinvi tation
Ġcommer cial
U E
Ġanalys is
Ġs ales
Ġe v
vis ory
Ġdistin tos
8 3
la da
ric es
Ġemploy ment
7 2
Ġin co
Ġleg ales
Ġdirect ly
ĠPar ty
Ġobjec tive
Ġindi re
Ġinstitu ciones
Ġlo g
Ġpo li
ĠtÃ©cn ica
ĠGo bier
Ġl od
oci aciÃ³n
- -
Ġdra w
Ġexpedi ciÃ³n
Ġning una
ĠH e
Ġform al
Ġconfi den
Ġmeet ing
r se
ĠA ust
Ġde pen
Ġof fer
Ġoblig aciÃ³n
ina fter
0 9
i ed
n ot
c lear
Ġwa ter
Ġal can
8 6
Ġguarante e
re o
Ġin j
log ical
Ġpeti ciÃ³n
j et
Ġconce der
Ġes trateg
R EG
Ġrela tion
Ġinspec ciÃ³n
b ric
lici es
5 2
Ġref und
Ġcons oli
ĠFon do
Ġir reg
Ġm ost
Ġhol ding
ĠÃºn icamente
Ġb io
Ġw rit
Ġregla ment
r or
Ġto gether
Ġactiv ity
Ġan exos
Ï İ
Ġs mall
Ġ6 1
Ġun d
posi ciÃ³n
ĠO rgan
Ġinsta laciones
Ġde tal
ĠF und
si dad
Ġnue va
ĠÃ³ rgan
Ġess ential
ta t
z as
Ġregion s
Ġmencion ada
Ġpe lig
ĠO fic
Ġfo ods
Ġcon fer
Ġdis crimin
Ġfun ds
Ġderog ation
Ã¶ r
ULA TION
at s
ilan cia
I M
Ġse mil
Ġimpro ve
Ġin cu
a ges
Ġoper a
Ġembar go
Ġl in
Ã© l
ision es
Ġnoti fy
7 3
Ġre des
Ġlim ited
Ġs tar
enta ciÃ³n
Ġproduct or
7 9
Ġobtain ed
Ġreci bi
Ġ0 3
Ġindica ted
Ġhere inafter
5 6
ĠAr tÃŃculo
ĠCon tracting
Ġesti m
Ġs ectores
Ġcar go
l ine
Ġconform ity
Ġsign ifica
Ġtra di
Ġla test
Ġlo w
Ġcomun es
Ġenti t
Ġpo licies
Ġagu as
Ġelect ronic
Ġk g
S P
ad ro
s k
Ġen co
Ġent en
a m
Ġapply ing
Ġ6 9
ĠOfic ina
d ar
Ġac tive
Ġcre aciÃ³n
Ġcon cep
Ġdetermin e
Ġa verage
tiv eness
Ġsh ow
Ġlen gu
Ġcircum stances
Ġfir ma
Ġu pon
Ġsegu imiento
Ġwh ose
Ġgi ve
ĠS er
Ġrestitu ciÃ³n
Ġ5 1
Ġca mbio
Ġrep ro
as s
ĠPortug al
Ġde par
Ġmo tivos
Ġcu anto
Ġus ing
Ġexport ing
5 3
e u
io us
w led
c ado
z can
Ġpor centa
Ġval ores
Ġjuris dic
ĠeconÃ³m ica
mp le
Ġinterca mbios
Ġsemil las
ĠA ct
Ġinf lu
Ġbu en
Ġqu ota
ĠH a
Ġre cep
Ġinteres ts
Ġj udicial
z ca
it er
Ġci u
Ġv arios
Ġes a
Ġco her
Ġcer ti
Ġencar g
Ġ0 2
Ġvin cula
Ġbien es
c in
Ġv enci
Ġresponsa bilidad
EL EC
Ġcertifica tes
Ġfu era
Ġtran si
Ġalco hol
A CIÃĵN
ida mente
h en
Ġ0 6
Ġespec ÃŃfica
Ġregistra tion
s able
Ġimpor ted
Ġpues ta
Ġconclu siones
Ġch ange
iz e
Ġinform arÃ¡
Ġfinan cing
Ġadministra ciÃ³n
Ġmed ic
Ġvehic le
mo c
Ġfinanci eras
UN CI
Ġau ment
Ġimportan t
Ġfun ciones
Ġcirc un
ĠT rans
Ġre le
Ġcategor ÃŃas
Ġsuper fici
Ġre duction
Ġqual i
ĠespecÃŃfic os
Ġag ency
Ġning Ãºn
MENT O
c us
Ġ5 6
ÏĢ Î¿
ĠIntern ational
Ġinform es
Ġp ut
a bles
ulg aria
Ġpro pon
Ġneed s
Ġrepeal ed
Ġre ports
ĠNo te
Ġcan dida
Ġafec tado
Ġjus tifica
Ġcirc ulaciÃ³n
ĠFran ce
Ġl ine
Ġparticip ation
ĠI P
Ġsi x
Ġjo int
T O
b en
Ġaprob ado
Ġtrans miti
Ġconclu sion
Ġcu bri
Ġdise ase
Ġcuenta s
Ġmateri als
ĠAust ria
8 9
Ġb ring
Ġpo b
is tics
ĠG ro
Ġmodifica da
EC TIV
en omin
Ġas o
Ġcontin ue
men ti
Ġtend rÃ¡
ti tut
Ġpar ty
Ġgran ting
4 1
Ġten ga
Ġdesign ated
Ġn Âº
Ġadj ud
ĠtÃ©rmin os
cul o
R E
ĠRegulation s
Ġvig ilancia
a men
Ġ6 3
lan ds
ĠB a
Ġh ig
leman ia
an it
Ġfi ve
y ch
ro z
Ġcoordin aciÃ³n
i er
Ġcin co
ure d
ario us
Ġconstitu tivo
t he
Ġadj ust
Ġd raft
Ġten gan
t ments
LA MENTO
Ġ Wh
ÃŃ m
ĠREG ULATION
Ġpresenta do
w ards
Ġgro w
ĠGerman y
Ġha ce
ĠCo oper
Ġexist entes
Ġenter ed
Ġ3 00
Ġcon n
ter a
Ġpartic ulares
Ġinvol ved
Ġdifer entes
fi cio
Ġgui Ã³n
Ġesta do
Ġintro duci
Ġcontex t
o wn
Ġcon ced
Ġexp ed
Ġaspect os
P L
Ġsh are
ĠB ulgaria
Ġvac un
Ġmed ica
ur y
ru pos
200 1
ĠComun icaciÃ³n
Ġaseg ur
ul os
Ġor i
Ġoperator s
Ġqu eda
Ġdirec tamente
Ġcontain ing
Ġde le
Ġaduan eras
t us
Ġpro ve
Ġdestin adas
Ġcomp aÃ±
Ġutiliz ados
Ġfabr icaciÃ³n
Ġh eld
Ġsa id
Ġnoti fic
la dos
Ġen mi
Ġsec ciÃ³n
Ïģ Î¹
CEN ELEC
Ġin dent
Ġrespon sable
Ġrepresentan te
Ġestad ÃŃs
Ġmil k
Ġpromo te
Ġprofes ional
re di
Ġconj un
Ġpen al
Ã ¥
ol s
ĠSec tion
Ã© tica
stan cias
UNCI L
os to
f o
Ġsu ficiente
a k
Ġev itar
ĠEs pa
Ġaduan a
ĠProgram me
Ġdeci de
ĠTh ese
Ġcommunica tion
b on
i tion
Ġpermiti r
Ġb ila
Ġcategor ÃŃa
Ġprue ba
ĠE st
ĠÃ ł
Ġarance lari
tiv idad
Ġinf ring
ĠFinan cial
u te
Ġesca la
enta s
Ġem erg
Ġindepen di
z ado
Ġn or
Ġv arious
fi es
Ġv en
ĠIS O
Ġp ros
Ġf ound
Ġpriv ate
Ġd uraciÃ³n
Ġsu sta
Ġimpos ed
g er
Ġsu c
ĠCon s
Ġre cu
ĠD ich
Ġdeman d
ĠRequ isitos
an za
Ġpropos als
Ġpor c
Ġmis mas
Ġsin ce
ĠeconÃ³m icos
Ġelabor aciÃ³n
Ġaccompan ied
Ġalmacen amiento
eg al
Ġens ay
ĠcrÃ©d itos
Ġb ar
Ġmeth od
enomin aciÃ³n
e ded
Ġe ar
ĠP lan
Ġneces idades
Ġprofes sion
Ã ¨
Ġhan d
Ġcont ribuciÃ³n
ĠL is
Ġap pe
ĠNo ta
Ġfa bric
Ġincre ased
Ġprovi ding
Ġab on
Ġasi mismo
Ġsos ten
jet os
v in
Ġimmedi ately
Ġch anges
Ã £
mun ity
Ġins urance
Ġpur ch
Ġadopt arÃ¡
tu to
Ġaprob aciÃ³n
Ġafec tados
Ġveterin ary
Ġalgun os
Ġpro gres
Ġsubstan ce
Ġ4 14
ĠCOM ISIÃĵN
Ġsal e
Ġof f
ĠA lemania
ĠUn ido
Ġso ur
Ġmen tioned
ĠÏĦÎ· ÏĤ
T E
T itle
er an
ci ty
n ia
ĠS lo
Ġh echo
ĠK om
Ġdestin ation
ĠIta lia
Ġf r
ĠF echa
bili dades
ag ing
Ġr ural
ĠtÃ©cn ico
ĠGobier no
ĠÎ ķ
Ġpart ners
Ġajus tan
Ġe voluciÃ³n
ĠG u
Ġfall ing
Ġ5 2
ĠAg ric
Ġoper aciÃ³n
Ġdel la
Ġdes p
Ġpe que
Ġalter na
Ġfor ward
ĠÃºn ico
Ġbe ar
ĠD ate
Ġsub s
Ġeffect s
Ġinter medi
Ġter m
Ġconsul tation
Ġexamin ation
Ġaud itor
M E
Ġmarket s
tic es
Ġreg ist
Ġcorrespon ding
Ġregion ales
Ġrecom enda
D irec
Ġ200 8
iz ada
Ġapro xim
TU LO
Ġper centa
ĠÂ º
ĠEn erg
Ġappro ach
bili ties
Ġentr arÃ¡
Ġde e
vo c
Ġparticular ly
Ġgroup s
To tal
Ġta ble
Ġass ist
Ã ł
un cia
ĠP r
IR ECTIV
Ġli qu
Ġnu clear
ĠmÃ©to do
ĠEconÃ³m ico
ĠMan agement
Ġcump lan
Ġa ten
Ġfut ure
Ġreglament arias
wled ge
Ġciu dad
Ġl ec
Ġar tic
Ġpresent arÃ¡
ĠAd ministra
Ġadecu ada
dera ciÃ³n
t arÃ¡
Ġman i
Ġcla ri
ĠjurÃŃd ico
Ġsubsi di
Ġstr ength
ech os
Ġdi vers
Ġcompet encias
Ã ½
Ġs k
Ġexp ired
Ġconsumid ores
Ġz o
Ġgui delines
Ġhomolog aciÃ³n
Ġinter pre
e za
Ġd imen
Ġmar ÃŃti
stan ding
Ġvolum e
i ta
an os
Ġinter no
Ġex en
Ġorigin arios
ĠS A
Î¹ Î±
Ġexcep t
Ġsh e
rib ut
Ġh tt
ĠH ung
mend ment
Ġcontain ed
ĠPresiden te
Ġpar cial
Ġg rupos
Ġcan not
Ġmat ters
Ġcomunic arÃ¡n
Ġdefini ciÃ³n
Ġgovern ing
Ġaqu el
Ġoper ational
ĠaÃ±adi rÃ¡
Ġoblig ation
Ġelect ri
Ġade qu
Ġhtt p
m ical
in er
Ġinver siones
Ġcont r
D enominaciÃ³n
o c
Ġre ach
Ġre tur
Ġop portun
Ġcontinu aciÃ³n
Ġinf rac
Ġof fic
Ġsal vo
Ġbenef it
Ġf ue
Ġmec anis
liz aciÃ³n
Ġl ÃŃn
Ġexp ir
Ġre cip
ĠP AR
Ġdeci ded
Ġaccep ted
ĠRes ol
Ġinclu ir
Ãį TULO
amen ding
Ġamend ment
Ġstatis tical
Ġrema in
Ġ10 4
Ġredu ced
lo go
ĠSeg uridad
Ġinform ed
Ġimplement ed
Ġeduc ation
ul try
Ġas unto
Ġur g
Ġnorma tiva
ux emb
Ġextern al
Ġm ech
Ġpre ver
Ġenco ura
Ġ5 9
Ġpresent ed
ĠDe velop
Ġin gresos
Ġpro teg
Ġrequ er
Î ²
Ġsh own
Ġrealiz ar
Ġrelacion ados
Ġde pos
bl y
Ġpertin ente
Ġin teg
Ġco lu
Ġc ross
Ġpri ma
ac to
Ġllev ar
Ġw ine
Ġde t
Ġap li
Ġsta tus
Ġe miti
Ġra di
Ġeje mp
Ġcharacter istics
p t
Ġres erv
ĠB r
Ġdo cum
ĠmÃ¡xim a
Ġper io
E x
Ġser ious
Ġnatural eza
ĠE uros
P R
Ġwe ight
Ġinteres adas
Ġsuf ficient
ĠReg ion
Ġad qui
Ġexclu si
Ġvis tas
rÃ¡n sito
Ġexper tos
Ġm ic
Ġv ista
Ġac ting
Ġsub sequ
c tions
Ġt ien
Ġcom ments
ĠS pa
mi um
f r
Ġappe ar
ĠI T
Ġcommit tee
ĠEE A
Ġestad ÃŃsticas
Ġfa cul
Ġoper ating
Ġan uales
B P
ĠB y
ĠSu b
ĠC ar
Ġporcenta je
Ġf oment
Ġ â
is te
ch ar
Ġpreci so
Ġpos t
Ġa vo
A G
Ġes crito
ĠÃ¡mb itos
o k
ĠSa fety
Ġplan te
Ġresul ting
Ġt rÃ¡nsito
Ġk i
j i
Îµ Î¯
Ġtempor al
Ġit e
Ġsusta ina
es tic
Ġinterca mbio
Ġefica z
Ġautoriz ados
Ġprac tice
ĠA demÃ¡s
Ġma king
ro ma
Ġdist ribuciÃ³n
Ġali mentos
Ġun less
olÃ³g ica
Ġfunda mental
ot ing
Ġcual ifica
Ġl le
Ġag osto
Ġap or
Ġmo vement
Ġpo ultry
Ġab out
Ġty pes
Ġsustan cia
Cu ando
ĠA ug
ĠM edi
menta les
mar k
Ġre visiÃ³n
ec e
te l
Ġf lu
Ġraz ones
Ġcircun stancias
Ġf ase
iz ado
Ġimportan cia
j as
Ġes pa
ĠÏĦ Î¿Ïħ
Ġt re
Ġinc ur
ven ue
ĠeconÃ³m ico
Ġmejor a
Ġve la
Ġfor es
Ġcuestion es
Ġindica ciÃ³n
ec cion
Ġinstitu tion
Com munity
Ġali ment
AN D
Ġestrateg ia
b u
Ġd ri
Ġexpor tadores
Ġwork ers
a me
Ġcred it
Ã¡ logo
Ġmayor ÃŃa
r ue
Ġindica ciones
en ciales
Ġna v
Ã£ o
o graph
Ġin g
k i
den cia
Ġconsider s
Ġcon sequ
at ro
Ġefica cia
s ity
ĠÃ©s te
u eda
Ġfacilita te
TI C
Ġfor th
por te
ac k
out h
a mbi
ĠS w
Ġpas a
Ã ª
ĠT itle
Ġsuper visiÃ³n
Ġa mon
Ġac er
ĠP o
Ġlar go
Ġh owever
Ġ29 6
Ġcompromis o
ĠAug ust
ĠgarantÃŃ as
I V
ĠE ESC
y n
Ġreci tal
Ġali menti
Ġcur so
Ġcategor ies
sifica tion
b ia
Ġenti dad
ĠCent re
Ġadi cionales
Ġconsoli da
Ġen cu
Ġsocial es
Ġpro m
ĠSta n
Ġexerci se
Ġaplic arse
Ġdispon ibles
Ġcoordin ation
Ġs enti
ĠB el
Ġfij ado
Ġcomp ra
Ġconsum er
Ġma ch
ĠCE SE
Ġdeb ido
ĠE D
Ġdele ted
Ġenferm edad
l ong
ve les
E sta
Ġs es
Ġpla cing
Ġqued arÃ¡
vi a
Ġtrans mit
Ġt est
ĠCom Ãºn
an o
ĠF OR
lan dia
Ġventa s
i ores
Ġt el
Ġprincip ales
Ġbu que
ĠPresiden t
ĠR a
ĠCommun ication
ĠTh ere
Ġsector s
is mo
ma te
ĠE ach
ĠN ew
Ġefectu ar
Ġpercenta ge
Ġse Ã±a
ĠA D
Ġas ociaciÃ³n
Ġgo od
Ġbe low
ÏĢ ÏĮ
Ġinteres ados
Ġsupp lement
Ġpass eng
Ġac og
Ġade mÃ¡s
Ġidentifica ciÃ³n
Ġestableci da
Ġadi cional
Ġse ver
Ġtempor ary
Ġperform ance
Å ¾
ul ture
Ġun it
ĠA G
ÏĢ Î¹
ra te
Ġtrans it
ĠIn du
Ġre miti
Ġmis mos
ĠIn s
Ġde leg
Ġsimpli fica
Ġcar ga
Ġrepresenta tives
Ã© ct
I t
f uer
Ã³ s
Ġdi ver
Ġfun ction
Ġlod ged
d ice
Ġse is
cu p
Ġens uring
rÃ¡fic o
Ġj u
Ġa i
t arse
Ġidenti fied
Ġext ent
or ts
Ġno tice
Ġ4 68
ĠL uxemb
Ġen g
Ġno ta
jer os
Ġd ia
Ġ5 00
ĠDevelop ment
Ġmi x
Ġposi ciÃ³n
Ġcorre ct
Ġmut u
Ġinf ra
cul os
Ġtien en
ens es
Ġreconoci miento
Ġrecur so
ÃŃ menes
Ġcop y
Ġinser ted
ĠR ec
Ġproble mas
Ġdom estic
Ġqu otas
Ġ15 6
Ġass ets
Ġbudget ary
ĠvehÃŃcul o
Ġejemp lo
ot es
a la
Ġcomp ara
REG LAMENTO
Ġin v
p ia
Ġfa il
ĠCent ral
war ded
Ġimp lica
Ġconta ct
ro ga
Ġpla ced
Ġcontex to
Ġsumin istro
n ess
J O
Ġcu adro
Ġele v
Ġcommunica te
Ġanti cip
Ġutiliz ar
Ġenter pr
Ġadqui ri
g as
Ġmar ca
Ġni veles
Ġinsta l
in ted
Ġan n
Ġad ver
ap pro
o v
Ġes per
Ġl leg
Ġes fuer
Ġrela tions
Ġmanten er
ĠC ase
COM MISSION
Ġsenti do
Ġini cial
Ġout side
Ġenerg ÃŃa
ĠIn dia
Ġel los
Ġmo del
Ġdi rig
Ġdes cribed
ator ia
Ġcompren dido
200 7
di al
Ġperi Ã³
Ġi ii
Ġcubri r
ac ciÃ³n
Ã¡ tico
Ġen able
5 000
Ġen for
Ġmanufact ur
el s
Ġmu y
g ing
Ġusu arios
w al
Ġau mento
OP E
Ġtit ular
Ġdetermin ado
ĠS EC
Ġci f
Ġwho le
Ġequival ente
ĠC F
ore a
hol d
Ġrepresent ed
Ġc Ã¡l
is s
Ġhu bi
Ġfis cal
ĠP re
Ġfa mi
a to
qu isi
ĠA ction
Ġra p
p l
Ã³ r
Ġcal end
ĠtÃ©cn icos
Ġro ad
Ġmedic inal
Ġpla zos
Ġidentifica tion
Ġofer tas
Ġrespon sibility
Ġs la
Ġe gg
Ġirreg ulari
Ġprove ed
Ġa v
ĠEspa Ã±a
Ġres er
Ġreci b
Ġoper adores
n os
Ġcelebra ciÃ³n
Ġful ly
Ġpow ers
Ġre duc
Ã© ase
Ġro le
Ġmanten imiento
Ġsubven cion
Ġcump len
ari es
ĠSpa in
ras truct
b ras
ĠC ustoms
Ġautoriz ado
Ġt u
CI ON
Ġ198 9
og ue
Ġcorre c
U B
di das
AP TER
Ġes os
Ġat ta
ĠpÃºblic os
Ġexpress ed
va mente
Ġmateri as
Ġar ti
Ġz one
Ġinfring e
w ise
iz ados
Ġdistribu tion
Ġcr isis
Ġmat ter
Ġkno wledge
on o
Ġprac tices
Ġv a
Ġplan ts
ĠDirec tives
Ġpu b
Ġpre mium
Ġtrans itor
ĠCON SE
Ġpar ts
Ġresul tado
ugh ter
Ġtas ks
Ġup da
Ġge og
Ġlong er
t Ã³
Ġres truct
Ġef ect
Ġadv ance
Ġs w
antÃŃ a
Ġra tes
Ġaf ect
Ġfar m
Ġinicia tiva
d an
iz ed
ill ed
P ara
Ġla y
Ġan teriores
Ġefect Ãº
mun er
Ġcompromis os
Ġnomencla tura
Ã¡ li
Ġgro unds
Ġcarry ing
lan da
ĠIn ves
Ġestudi os
Ġs tu
Ġco labor
ĠagrÃŃco la
Ġmedio ambi
ĠProgra ma
ĠCONSE JO
Ġa us
ĠGovern ment
L egal
Ġge ograph
ĠÎº Î±Î¹
Ġa bier
Ġan nex
Ġconcent ra
Ġavo id
ĠA R
Ġtercer o
ĠÏĥ ÏĦ
k et
Ġa mb
ut s
Ġinstru ment
Ġp ig
ĠM ed
Ġali mentaciÃ³n
ĠFran cia
Ġinj ury
fici entes
Ġcertifica ciÃ³n
z i
Ġf lex
Ġb ru
Ġlec he
fin an
Ġform s
Ġauthoriz ation
Ġapro pia
ĠSch en
Ġb Ã¡s
Î± Î½
Ġpa pel
Ġexpor tador
Ġref or
Ġinstru mento
ĠIta ly
Ġris ks
I F
ĠE G
Ġcl ose
u ter
Ġsign ed
Ġtar get
Ġamon g
un ci
ue vos
i bilidad
Ġv arias
fer ence
Ġtec nolog
Ġvenci miento
Ġexperi ence
ĠO N
Ġreduci r
Ġcu atro
bs erv
Ġsla ughter
Ġexper ts
Ġest arÃ¡n
IS ION
Ġauthoriz ed
ĠSchen gen
b res
Ġset ting
Ġnotifica da
Ã¼ r
Ġfulf il
as ing
Ġorigin arias
Ġdefini tion
Ġacces sion
Ġe mission
Ġcalcula ted
ĠT ex
Ġlu cha
Ġtrans f
Ġstatis tics
Ġencu ent
Ġlegisla ciones
Ġadecu adas
ues tas
Ġrecu per
Ġexperi encia
Ġrece ip
ĠEs te
ÃŃ z
ĠR om
Ġmedi a
ĠÏĦ Î¿
Ġimp uesto
Ġinclu ida
Ġra w
ĠC ada
u da
Ġprop ia
Ġin ci
Ġfa vo
Ġdee med
tec tion
Ġstrength en
Ġcor ral
ide z
Ġag encies
Ġexp enses
ĠAut or
ĠM i
P or
ĠS E
Ġinteres ado
Ġinfra estruct
Ġv ida
Ġexp i
Ġf alta
Ġci tiz
Ġbov ine
Ġs ac
Ġexen ciÃ³n
Ġde moc
Ġf itos
Ġiss ues
ĠcÃ³di gos
Ġlike ly
r Ã³
Ġdeber ÃŃan
Ġsustaina ble
d y
Å ¡
ti me
Ġb eca
tr os
AP ÃįTULO
ĠEE E
U D
ĠA S
Ġun its
Ġr Ã¡
Ġh el
Ġplan es
ĠAut hor
ĠE X
Ġdirect rices
ag ed
Ġ6 00
Ġconfir med
u ega
Ġcontribu te
Ġforth with
Ġpr or
Ġentre ga
ĠEUR OPE
Ġb re
Ġprofession al
Ġdistin tas
e k
ĠS p
men tioned
Ġcateg ory
Ġpelig ros
Ġ10 3
Ġfisher ies
ta des
Ġobten er
Ġclasifica ciÃ³n
Ġ ri
Reg ulation
Ġa ble
ĠpÃºblic as
r ug
Ġexcep ciones
Ġm as
ĠA ll
Ġpr Ã©
Ġcomple ted
Ġalimenti cios
Ġet c
in d
Ġimp acto
Ġ198 7
Ġpot ential
Ġdeliver ed
Ġsec tion
u siÃ³n
ĠN L
ĠGro up
b ar
Ġrecogn ition
Ġconserv aciÃ³n
Ġadequ ate
Ġmic ro
Ġdestin at
stan cia
o od
ĠA id
ces sion
200 8
Ġbu il
f fic
ta ge
ĠÎ ¿
Ġdefin e
ĠR us
Ġe very
Ġrep ar
ras e
Ġinteres ted
Ġdefini tive
Ġaccoun ting
enta les
Ġplan s
Ġsuper vision
Ġprev Ã©
ter m
ĠF ra
Ġper ten
Ġoli ve
Ġso on
Ġcondi ciÃ³n
Ġexpor ted
G eneral
Ġc ultural
li min
ion ales
Ġpreci s
Ġconstru cciÃ³n
Ġmajor ity
C T
Ġfisher y
Ġsever al
Ġn r
Ġlan d
ĠÏĦÎ· Î½
Ġpres iden
0000 00
Ġrecei ving
Ġfres h
C A
Ġpro f
Ġr ene
Ġaspect s
Ġstrateg y
t rol
Ġtrans misiÃ³n
Ġ10 6
Ġmech anis
il lance
Ġ0 9
Ġsup rim
i j
ĠI M
Ġdenomin ado
Ġautoriz ar
F echa
o ugh
la mentos
Ġun iver
ell ing
Ġrequi res
Ġori enta
Ġde lay
Ġag reed
Ġinf rastruct
Ġpe ople
Ġtend rÃ¡n
Ġh uevos
t ter
Ġproce der
Ġexten ded
Ġser ie
ĠO R
Ġne eded
Ġconting entes
Ġfoods tuffs
ĠS up
Ġpr on
Ġspeci fica
Ïĥ ÏĦ
Ġto wards
Ġz a
Ġperio do
Ġre muner
Ġexplo taciones
Ġv Ã¡li
Ġproced a
ĠSu ch
Ġdev ices
Ġ ÃŃn
der n
Ġcomple te
Ġde mos
Ġun idades
Ġabs ence
z ed
re land
tr al
Ġr u
Ġfij ar
ĠAn y
Ġb lan
Ġac ciden
Ġappro xim
ĠReg ional
Ġbro ught
Ġanterior mente
Ġv isi
Ġespeci e
Ġinde mn
Ġrecogn ised
M o
Ġcu bier
Ġintro ducciÃ³n
Ġintro duction
Ġsub mission
ta lidad
ĠE F
Ġpers pec
el ec
Ġsolici tar
ator ios
ĠVII I
Ġcontrol s
Ġindepen dent
ĠPro duct
Ġfer ro
Ġexpor ts
om bre
Ġejec u
Ġh y
Ġprocess ed
Ġki lo
D ate
Ġbenefici ario
Ġconced ida
p ula
ĠG i
Ġke ep
Ġretur n
Ġfoment ar
ĠC ro
Ġsosten ible
Ġsoci ety
Ġadop tado
Ġexpor taciones
Ġofer ta
Ġf il
Ġo v
Ġfuncion arios
ul s
H owever
Î¿ Ïį
S A
Ġresul ta
sel s
CO UNCIL
Ġtrabaj os
Ġs il
De ci
ĠC or
Ġother wise
Ġadecu ado
Ġre venue
I L
v y
Ġpre pa
Ġmedica mentos
R es
en das
ĠI r
Ġfe ed
Ġre estruct
Ġes as
Ïģ Î±
ĠEconÃ³m ica
Ġco des
Ġparti da
Ġcirc ulation
Ġaud it
ĠN aciones
jec tive
ĠT R
Ġat ten
Ġinclu siÃ³n
difica ciÃ³n
Ġpu er
k t
un que
Ġimp on
Ġbenefici arios
Ã¡ tica
Ġcla ra
Ġel Ã©ct
Ġhig her
por ted
Ġlar ge
Ġus ers
ĠÎ ³
rea ter
is on
Ġre in
Ġexcep tion
Ġtransac tions
Ġing redi
ĠIn stitu
Ġfir m
Ġappropri ations
Ġstoc ks
Ġreceip t
ĠUn idas
Ġbenef its
Ġimp res
Ġsepar ate
ĠBan k
CION ES
Ġdon de
ĠDirec tivas
Ġmar gen
ric al
Ġrela ciones
Ġtrans mission
c z
ar o
ari an
Ġconf lic
Ġmeet ings
Ġenten derÃ¡
Ġkilo gra
Ġestablish ments
Ġvig entes
Ġa ward
Ġplan ned
Ġcompati ble
Ġm ig
Ġtender s
Ġp l
Ġinc en
Ġconsider arÃ¡
Ġfitos anit
Ġproble ms
Ġval ues
Ġegg s
Ġcu ar
Ġad quisi
Ġfacil it
Ġapo y
b ur
Ġtes ts
us ted
Ġutiliz arse
ec er
Ġfin dings
Ġgra do
li er
C en
Ġas isti
en za
Ġsu jetos
Ġconsi derando
ĠCo de
Ġconsidera tion
Ġp uesto
ĠC H
Ġresol uciÃ³n
Ġsu pon
Ġdeb idamente
Ġsurve illance
Ġo cas
ĠJ usti
Ġden eg
Ġintrodu ced
Ġpoli tical
Ġapp lies
Ġcos te
Ġreg ÃŃmenes
Ġcontribu ir
ti les
Ġla tter
it es
Ġinform aciones
Ġdo l
Ġte le
Ġresponsa bles
Ġenumer ados
S C
a red
Ġex pos
Ġcu y
Ġtra ffic
Ġseg uros
Ġdevelop ing
Ġsatis f
Ġpermi ta
Ġre emb
cu encia
Ġke pt
Ġparticip antes
ar ter
Ġaut om
Ġfu er
Ġad van
Ġman ner
IC A
Ġsche mes
Ġper mis
Ġpropor tion
ĠEuros tat
Cen elec
Ġlet ter
al le
ĠA us
Ġimportan ce
Ġmut ual
ens a
Ġimportan tes
Ġmanda to
Ġcitiz ens
tan do
Ġconting ente
Ġciudad anos
f egu
Ġb ec
Ġconfir m
Ġapp o
ta tions
Ġpor t
ĠF a
Ġincur red
ĠJusti cia
Ġadop ten
Ġbeca use
Ġreg iÃ³n
Ġderiv ados
Ġcompens ation
Ġsupp lied
Ġrecep ciÃ³n
P res
Ġj e
ĠcÃ¡l culo
Ġbenefici ary
ri do
Ġg reater
Ġsen si
Ġindire ct
Ġsan ciones
Ġw el
at ure
Ġbo ard
Ġdenomin aciÃ³n
Ġachie ve
Ġhuman os
Ġcomb usti
k u
ĠN a
Ġter ror
Ġan un
ĠAr t
Ã¡ ticos
min al
Ġiniti ative
Ġ12 0
Ġch ild
Ġalcan zar
Ġsuperfici e
o ver
ĠI F
Ġimp uestos
Ġsegun da
ĠP osiciÃ³n
iz o
Ġestableci mientos
Ġstate ment
Ġcoun ter
Ġth us
na m
ĠI reland
Ġpow er
Ġentit led
S i
Ġpol lu
Ġmulti p
Ïİ Î½
p ol
Ġc ru
Ġinclu ido
Ġval idez
u ciones
Ġdetermin aciÃ³n
Ġexemp tion
h r
Ġd Ã³
ĠP op
Ġres puesta
ĠG mb
t Ã©
Ġgeograph ical
e as
Ġprop ios
Ġmanufact ure
Ġestruct ura
Ġconoci miento
res enta
Ġw ar
Ġal c
Ġcre cimiento
Ġsatis fact
ĠÎ¼ Îµ
Ġde fici
a i
ced ing
sel f
ĠH U
Ġofi ciales
ĠaÃ© reo
Ġqu ÃŃm
Ġpresenta das
tic ally
Ġp Ã©r
Ġf rase
Ġresiden cia
ĠÎ ½
Ġconsidera do
ic k
Ġpres taciÃ³n
uri ties
Ġveterin ario
Ġdie z
Ġsi endo
Ġdirec ta
ĠespecÃŃfic o
Ġde cre
Ġpromo ver
Ġtransi tional
it Ã©s
ĠR ecom
Ġclaim s
Ġmues tras
Ġse x
Ġra il
u ch
Ġ ul
ĠGmb H
Ġwh ile
Ġca mbios
Ġaument ar
la tions
Ġfr ente
Ġla ys
ĠÎ± ÏĢÏĮ
Ġ x
Ġrelacion adas
Ġeconom ÃŃa
Ġar gu
ĠAs soci
P E
n el
ĠAs s
is m
Ġda do
Ġbet ter
A s
Ġfa x
Ġdeclara ciones
Ġestablecer Ã¡n
Ġprepar ation
Ġhel p
ĠPop ular
Ġsegu ir
iz adas
Ġcomunic arÃ¡
Ġwor ds
Ġvela rÃ¡n
anc ing
Ġdi pl
Ġprior ity
Ġhol dings
Ġar ising
Ġreco very
Ġwa ters
Ġgrow th
Ġconstitu te
ÃŃt ulos
Ġpro of
Ġpro ba
ĠT ech
Ġcar re
Ġpermi tan
do log
Ġag ente
ĠUn a
Ġrealiz adas
Ġsome ter
Ã³ sito
Ġrestruct uring
Ġdisp atch
ti o
A mendment
da tions
Ġreques ts
Ġexist encia
Ġvol unt
Ġs ÃŃ
Ġrequire ment
Ġposi bles
Ġadap taciÃ³n
Ġclas sification
I E
Ġ20 10
Ġcoll ection
ĠAutor idad
mp e
Ġapar atos
ĠO r
Ġag rup
p as
Ġinsta laciÃ³n
ĠS M
II I
Ġreun iones
Ġg ene
Ġdeb a
Ġaj ust
Ġofficial s
d ones
ven ia
Ġactual mente
ĠS al
Ġ17 82
Ġintegra ciÃ³n
Ġagu a
Ġrecog ida
Ġm ol
ĠCent ro
Ġsa fegu
Ġcertifica tion
Ġalgun as
Ġdes pa
Es te
Ġiniti al
Ġredu ce
Ġnetwork s
U L
Î ¾
Ġres erva
ĠUn idos
Ġbila teral
y l
Ã Ł
an ces
Ġpob laciÃ³n
Ġre per
ĠS T
Ġconsidera ciÃ³n
Ġbec ome
Ġda ma
Ġpos sibility
Ġdol lar
at h
Ġseg uro
Ġcontra tantes
Ġtom ar
Ġsti ll
Ġcre ar
ĠFra mework
us sels
Ġdi ficul
Ġj a
Ġtransf ronter
Ġreestruct uraciÃ³n
Ġa ero
ĠA m
ĠO M
ten ance
ĠG BP
Ġadministra tiva
Ġref l
Ġta reas
Ġlengu as
I G
Ġe ven
an as
Ġcu ota
Ġdis min
tar ÃŃa
ĠdÃ³ lar
Ġ13 6
Ġform ula
Ġdetail s
Ġ10 5
Ġetique tado
Ġinfrastruct ure
I f
s os
Ġpro c
ĠmÃ¡xim os
Ġhol der
ta bles
Ġun os
Ġpre limin
Ġdis posal
use las
k el
Ġd ig
Ġcent ros
ĠÃ³rgan o
Î¿ Î½
Ġsta ge
Ġalloc ated
O n
Ġj ud
Ġre ca
ĠE mp
Ġtra to
Ġele ments
Ġincorpor ated
Ġdecla red
Ġdesign ed
Ġobs er
Ã± as
Ġpod rÃŃa
Ġpresenta da
ĠEs lo
Ġd ic
E urope
Ġimpor tation
je tivo
Ġdesarrol lar
Ġnego ciaciones
Ġdese mpe
in ed
li e
ci das
ut ri
appro val
m ig
Ġde ad
ĠD IRECTIV
Ġwe igh
Ġes enciales
AL L
Ġexcep to
Ġse ll
Ġmodific arse
ĠP e
Ġr ice
Ġem isiones
Ġc ro
ung s
Ġexpir y
Ġtransfer encia
Ġcontamin aciÃ³n
ĠStan ding
b ro
ĠM r
Ġcompon entes
s te
Ġle y
Ġlangu ages
Ġrefer ente
ĠWh en
Ġliqu ida
a tives
ĠO b
Ġkno wn
C N
Ġperiod s
Ġorganiz ation
Ġstu dies
ĠL o
Ġevalu ar
Ġconoci mientos
ĠP er
Ġr enta
Ġfun ding
Ġ198 8
Ġconsum ers
Ã©r ica
ĠD EC
Ġac tiva
Ġmar gin
Ġinclu irÃ¡
Ġdeci r
Ġle ad
Ġmu ta
de ro
w w
na cional
com un
Ġenterpr ises
Ġparticular s
ecu tive
ĠD is
Ġac tivos
Ġexpedi do
Ġde g
Ġto talidad
Ġensay o
ech as
Ġhuman a
Ĥ ¬
ta tive
ĠP ESC
Ġp ien
Ġc ustom
un ta
ec on
Ġaff ected
m et
Ġc los
ĠC Z
Ġsal va
Ġsoci edades
Ġchec k
Ġreti rada
ĠG e
Ġt rÃ¡fico
ĠD en
ĠF ED
Ġdevelop ments
Ġde al
Ġp omo
Ġqu in
Ġprofes ionales
Ġb est
Ġregula tory
Ġac tos
ren ch
Ġresiden ce
ĠÃ©sta s
Ġenfor cement
Ġposi bilidades
Ġconsider an
Ġdeliver y
Ġmues tra
Ġalloc ation
Ġpre ceding
ĠB as
Ġequip o
Ġthrough out
Ġpro ces
ĠR o
Ġcolabor aciÃ³n
al ogue
u ti
ÅĽ ci
Ġcere ales
ro und
ĠReg lamentos
Ġvir us
Ġsent ence
il ing
Ġâ Ĥ¬
Ġdestin ado
Ġconn ection
Ġd id
is tan
Ġalg una
A F
er ing
Ã³ w
Ġfij ados
Ġso la
pa g
Ġfij aciÃ³n
U C
Ġp ond
Ġ0 7
Ġinform arÃ¡n
Ġinves tments
ĠCOM M
Ġrefi eren
Ġ11 5
Ã¡ menes
Ġse man
ĠD o
ĠCF SP
Ġimpor tadores
tec ciÃ³n
Ġwrit ten
Ġexclusi vamente
e ties
Ġof ic
r ales
x i
en de
Ġqu es
Ġdeb an
Ġpu di
Ġverifica tion
Ġnegoti ations
a ta
Ġin vo
Ġbene ficio
ii i
Ġdeman da
i ti
ti da
ĠS H
Ġhuman o
cia dos
Ġdis char
ĠF rench
TI N
Îµ ÏĤ
Ġprim as
Å Ħ
Ġadministra tion
Ġprot ect
Ġindependi ente
Ġsour ces
âĢ Ķ
Ġren di
ĠE L
Ġfacili ties
Ġrestric tions
ce de
Ġa leg
Ġso le
Ġcalc ular
ci do
Ġen h
reed om
Ġdispon e
Ġdispon ible
ĠlÃŃn ea
Ġdepos it
ui do
Ġinspec tions
S I
Ġcommit ments
Ġw ww
ĠP Y
Ġver y
ĠcientÃŃfic os
Ġ11 8
Ġexclu sive
ĠHe alth
Ġa van
Ġsh ort
Ġcop ia
Ġad miti
Ġdefini tivo
Ġbor der
Ġplen amente
Ġaproxim aciÃ³n
D P
vision es
Ġlangu age
u f
Ġb lo
Ġno w
Ġcomprob ar
A d
Ġ15 0
Ġconsider arse
Ġhor as
ĠAssoci ation
ce l
Ġini ci
Ġneg a
Ġsubsequ ent
Ġchar ges
ĠCooper ation
Ġpub lici
Ġadquisi ciÃ³n
qu illa
i vos
Ġreg lamento
Ġmodi fied
Ã³di go
Ġproper ty
G as
Ġar roz
Ġmu tan
Ġquali fied
ĠAuthor ity
Ġpror rog
m ary
an e
as ta
Ġutiliz ado
Ġconten gan
ĠWith out
mon st
Ġpack aging
ĠIr landa
Ġ10 8
Ġtel ecom
z er
itor s
c ent
ĠU K
re tarÃŃa
Ã¤ r
Ġmutan dis
Ġf uel
Ġhab ÃŃa
Ġste ps
rela tiva
ĠPY ME
Ġpres taciones
Ġpreven ciÃ³n
Ġlab elling
Ġclear ly
Ġmuta tis
A B
W ith
ta to
Ġest rech
Ġsal ida
Ġnat urales
A l
Ġs ize
an cia
um en
Ïģ Î¬
Ġin vent
ante quilla
Ġstruct ure
Ġcomp la
Ġefec tiva
Ġke y
Ġexceed ing
z ech
Ġt an
om en
tru k
arrol lo
Ġeurope as
Ġbut ter
Ġf Ã¼r
ĠEC U
loy ment
Ġsubven ciÃ³n
Ġdescrip tion
os ta
Ġca re
ĠED F
Ġappo inted
ifica ciÃ³n
ĠEx p
h ouse
Ġo d
ĠJ us
ĠPro posal
Ġlic encia
Ã¤ n
Ġaqu a
Ġinfrac ciÃ³n
Ġsup lement
ĠPa ÃŃs
ĠUn der
Ġgar an
Ġpresiden te
A pp
Ġtra vel
up uesto
Ġchar ge
ĠÏĢ ÏģÎ¿
Q ueda
i bility
ĠF unda
Ġefectu adas
ĠResol uciÃ³n
Ġen c
Ġafec tadas
Ġsac ri
ĠprÃ© sta
ta lian
Ġthere to
Ġrealiz ados
Ġwor ld
ĠcientÃŃfic o
ĠE M
leg al
Ġpromo ciÃ³n
Ġassoci ated
it Ãł
Ġdel l
Ġ38 8
Ġconce de
Ġi talian
lus o
Ġcover ing
ĠC Ã³digo
Ġparticip ating
ĠT er
Ġde monst
ĠR uman
Ġcomp r
Ġpres encia
Ġemp lo
Ġform ulari
Ġsol d
Ġsanit aria
Ġasegur ar
Ġenti ties
Ġequival entes
Ġmed ical
Ġinspec ciones
Ġadministra tivos
ĠRep resenta
Ġefectu ados
Ġfu entes
Ġesti ma
Ġdispon er
Ġeduc aciÃ³n
Ġche mical
Ġd ang
ĠL et
Ġcontribu tions
Ïĥ ÎµÎ¹
Ġfru it
Ġdemoc ra
Ġanun cio
Ġguarante es
Ġenmi enda
ĠR u
Ġcons titut
Ġpo p
ĠeconÃ³m icas
Ġrecomenda ciones
ĠI ce
Ġli ve
Ġcalc ulation
Ġreper cu
ic ultura
Ġdis c
Ġconclu sions
Ġmain tenance
comun it
es or
Ġcon se
ĠA ud
Ġcor ona
Ġissu ing
Ġconfiden tial
ĠRe port
udi ciales
a b
Ġeff orts
soci aciÃ³n
ĠN O
Ġcar ta
Ġcondi tion
ĠW ork
Ġconclu siÃ³n
ÃŃco la
ĠImp or
Ġrecommen dations
o cer
Ġ1 0000
ĠA P
lica ciÃ³n
Ġejer cer
Ġre i
Ġcour se
ĠO bserv
Ġrespec tively
m isi
ĠS outh
Ġtrans cur
Ġj unto
Ġpos e
Ġsupport ing
Ġdia gn
Ġmin or
Ġsimila res
Ġban k
Ġtes ting
ĠRom ania
Ġcon ti
ur so
ari time
Ġprovision ales
ĠelÃ©ct ric
Ġdem ora
da y
Ġap er
Ġas sign
Ġper f
Ġsup ri
Ġsec urities
Ġnom bra
Ġdifer encia
Ġenferm edades
Ġprom oting
ra do
ĠA sociaciÃ³n
Ġd uration
Ġmedi um
fici ency
Ġdif ficul
Ġb anc
ec tiveness
Ġrecibi do
Ġacer ca
Ġfunction ing
ĠO ther
ĠF ir
Ã§ Ã£o
Ġadjud ica
ĠIce land
s p
ut es
ĠN ational
Ġpresupuest aria
Ġfabric ante
Ġm antequilla
Ġf al
Ġexamin e
ÎŃ ÏĤ
C omp
Ġplan tas
ĠInform ation
ĠDIRECTIV E
E X
d rÃ¡
Ġrespec tivamente
Ġelimin aciÃ³n
ly ing
Ġuti lic
ĠÏĦ ÏīÎ½
Ġcri minal
-- --
g ment
Ġdi Ã¡logo
Ġindustri ales
Ob jetivo
Ġencoura ge
Ġon ce
ĠtÃ©rmin o
Ġvalid ity
Ġp et
ti r
Ġn utri
il y
Ġconta cto
ĠIta lian
w are
Ġ11 0
19 99
Ġelect rical
ĠjurÃŃd icas
Ġ ran
Ġfon do
hes ion
Ġe co
Ġit self
Ġpromo tion
posi ciones
Ġinc luso
Ġcre ado
Ġadap tar
Ġmanufactur er
Ġex ces
Ġ14 93
Ġinten sity
ĠBan co
ĠJus tice
ĠS K
w er
Å Ļ
Ġec us
Ġtec n
roma gn
r in
ri r
ĠP od
. `
a bility
l it
Ġs y
Ġpa la
Ġigual dad
Ġnomencla ture
Ġhe ad
Ġcarre tera
Ġta kes
Ġre ad
Ġun as
Ġimpor ters
Ġatta ched
Ġo m
Ġindica tion
Ġoc cur
ÏĥÎ· ÏĤ
Ġintegra ted
air man
Ġperten e
ĠEC B
Ġcur ren
Ġph ys
Ġde j
Ġpro pag
Ġintra comunit
Ġinco mp
Ġaccep tance
ci aciÃ³n
Ġsuper vis
Ġconsidera ble
Ġcomunica ciones
Ġsu i
ĠS r
Ġv on
Ġdom i
Ġreun iÃ³n
Ġspecifica tions
g l
Ġco pi
ĠG rupo
Ġstoc k
Ġrene w
Ġa lia
Ġsh ares
ÏĦ Î±Î¹
Ġadecu ados
Ġcommunica ted
ether lands
Ġcump le
Ġbas Ã¡ndose
Ġcurr ently
Ġvari ety
ĠMin ist
Ġpropi edad
Ġparticip ar
Ġactu ally
Ġes encial
ĠAn exos
Ġcar nes
Ġsin o
Ġimpro ving
Ġcompon ents
Europe an
D uraciÃ³n
S in
mb ur
Ġmo dern
ĠV e
Ġalc ance
olÃ³g icos
Ġ13 0
Ġautoriz aciones
ĠDes arrollo
w i
Ġefectu arÃ¡
f ric
ĠE qui
Ġac um
Ġinflu enza
D uration
Ġcom e
Îµ Î½
v iron
Ġmulti la
ĠÃ©s tos
Ġre da
Ġref unds
Ġexpedi ente
ĠEnerg y
Ġeurope os
Ġvari edades
ic en
Ġh et
ĠÎ³ Î¹Î±
ĠC er
Ġha cia
Ġterritor ial
Ġrestric ciones
Ġfut uro
u to
ich t
Ġconcern s
mar ca
va k
Ġprohib ited
Ġa Ãºn
Ġc es
si an
Ġch o
Ġrecon si
Ġintegra tion
Ġfronter as
ĠTra de
ĠF ish
Ġestablecer se
ĠÎµ ÏĢÎ¹
C ouncil
ti le
Ġo tor
ĠA L
EN D
ĠÎµ Î½
De man
Ġcele br
Ġincu mpli
Ġg estion
Ġdi alogue
Ġautoriz a
Ġcommit ment
Ġfunda mentales
Ġrele ase
Ġfin ales
ĠB CE
ĠC zech
Ġes p
Ġcu anti
Ġ10 9
la za
ter ales
Ġrespon se
Ġconsul tas
Ġestablecer Ã¡
Ġprepar aciÃ³n
Ġacep taciÃ³n
Ġpon er
Ġrefor zar
tu al
Ġindica te
Ġpurch ase
Ġcalend ar
c le
ari ly
Ġdecidi r
Ġ10 1
ĠJ ap
our g
Ġace ite
ari at
ĠÃ ķ
In ten
ow er
Ġrestitu ciones
en en
Ġus es
Ġenti re
Ġprogres o
ĠC i
stan ce
ĠPro ced
Ġnational s
Ġinicia tivas
ĠBel gi
ĠÃ© l
Ġinnov aciÃ³n
Ġwrit ing
ĠS trateg
Ġpa re
Ġindica dos
Ġar ticle
Ġdetermin ing
ĠÃ ĸ
Ġclas si
Ġcall s
ĠE R
Ġesta tales
Ġh ora
fr ica
Ġaper tura
P A
Ã ´
Ġde si
Ġv ue
vi les
Ġcre a
19 98
sel ves
Ġqu Ã©
Ġgra ve
ina marca
hol ders
Ġachie ved
ĠC D
Ġinter oper
Ġ10 7
ĠPro puesta
Ġpresenta tion
Ġthem selves
R ec
Ġwork s
Ġcarri er
Ġadap ted
Ġconce derÃ¡
Ġabove mentioned
Ġsuc cess
Ġpop ulation
ĠAd visory
ĠelectrÃ³n ico
lan des
Ġm ul
ĠA mer
Î· Î½
Ġob st
ke y
mis es
crip ciÃ³n
Ġgovern ment
ĠestadÃŃs tica
Ġaten ciÃ³n
Ã ¯
Ġadop tada
O D
ĠD ictamen
Ġci tado
Ġcontract ing
ĠÃ³rgan os
Ġincomp ati
Ġefectu ado
Ob jective
Ġ198 6
or ia
Ġ0 20
Ġdestin ada
Ġhere to
Ġa er
on s
ta liz
Ġg t
ĠDe be
ish ed
Ġdetermin arÃ¡
Ġsitu ated
Ġconsul tivo
ĠSec urity
Ġprot ected
ĠcompaÃ± ÃŃas
Ġwh at
Ġha y
Ġm m
Ġel las
cor ding
Ġopportun ities
ĠperiÃ³ dica
Ġun idad
Ġar t
Ġtranspor tes
pu er
ĠAc cession
a u
ĠMin ister
Ġmun dial
qu inas
ÃŃ ci
Ġconcep to
ĠCon clu
ĠG ran
Ġfre qu
ĠBa jos
Ġs end
al la
Ġtra ct
Ġappropri ation
Ġinc ome
Ġsubven ciones
C ON
g ica
Ġel la
ĠM alta
ĠâĢ ĺ
Ġ0 8
Ġdes emb
el ds
Ġpeque Ã±as
Ġ era
IT Y
Ġfla g
we den
Ġli fe
Ġamp aro
Ġlog rar
Î¯ Î±
tur as
ĠNor way
Ġampli aciÃ³n
Ġter ren
ĠV i
Ġ13 3
Ġfir ms
crip ciones
Ġcombin ed
Ġmodific arÃ¡
ĠFir st
re to
tifica tion
Ġbenefici os
Ġcol ec
Ġh Ã¡
Ġpues tos
U n
ÏĮ ÏĦ
Ġjurisdic tion
ĠcompaÃ± ÃŃa
Ġcom isiÃ³n
Ġdestin a
Ġinvestig aciones
Ġcomple tion
Ġadopt arse
Ġrecei ve
Ġeconom y
Ġopen ed
Ġsumin ist
Ġmecanis mos
Ġa unque
Ġform as
Ġpot encial
mil y
Ġdificul tades
Ġemplo ye
l ot
ĠO per
ĠU S
Ġfulf illed
Ġaso ciaciones
ĠF E
truk tur
j ust
Ġentre g
ĠCu entas
Ġdemand ante
Ġfij a
Ġpesqu eros
m ore
Ġc at
Ġat t
rÃ¡ fica
Ġspeci fy
Ġpresent arse
ĠÏĢ Î¿Ïħ
Ġel eg
Ġex posiciÃ³n
Ġdis cus
den te
Ġelabor ar
Ġexig encias
Ġem isiÃ³n
ĠQ u
ĠG ar
Ġlegisla tive
Ġfact ors
Ġmode los
Ġesfuer zos
Ġsubvencion ables
Ġannex ed
O ther
ĠN etherlands
Ġth res
ĠÃ ģ
Ġur ban
qu ÃŃa
ĠN ations
Ġrespec tive
min ation
ue cia
Ġcas illa
ĠÎ ·
Ġdirect or
Ġiniti atives
Ġcerti fied
si bilities
ĠX S
ĠEst onia
Ġapproxim ation
w ing
Ġinclu ye
Ġ11 2
Ġle a
Ġrefer encias
Ġrealiz ado
ĠrÃ¡ p
bo a
ĠSlo vak
ĠPaÃŃs es
Ġen fo
Ġh o
Ġaduan era
Ġmun i
Ġac ts
Ġ10 2
ĠH er
ĠÏĢ Î±
Ġmani fies
Ġcolu mn
B udget
er ies
Ġeff ectiveness
Ġpropon e
Ġclara mente
B r
ero us
Ġna mes
Ġf lo
tra t
Ġbor do
ĠLis boa
is tema
Ïĥ Ïĩ
Ġlist s
Ġpreven tion
ĠfÃŃs icas
ĠN e
Ġ60 9
ic ally
Ġs ched
Ġfact or
Ġtechnolog y
Ä Ľ
Ġf reedom
Ġdevelop ed
Ġasign aciÃ³n
or gan
Ġallow ed
Ġconstru ction
ĠfÃŃs ica
Ġapli quen
a z
or g
oun g
ĠV AT
Ġobten idos
Ġite ms
de m
Ġf lig
ĠS h
Ġimp u
ĠF ood
Ġconsul t
A c
tifica ciÃ³n
Ġenv ÃŃo
a bl
Ġso li
Ġbro ad
Ġrecor ded
t ly
ĠperÃŃo dos
Ġfo ot
ĠX X
ĠÃºn ica
Ġsel ecciÃ³n
Ġinvol ving
Ġ11 7
Ġexten sion
Ġpien sos
Ġ Ïħ
Ġa le
ci entes
ĠO p
Ġunderta ken
Ġreport ing
Ġconside re
ĠInter nacional
An nex
Ġrele ased
it ary
Ġimp osiciÃ³n
Ġindica do
ĠL OS
per s
on al
er Ã¡
Ġtranspar encia
Ġuniform e
os la
Ġ100 000
Ġinfringe ment
Ġaero puer
Ġdep Ã³sito
C ES
F OR
Ġco e
Ġ11 6
Ġvig ente
Ġvari eties
Ġcli entes
Ġsuje to
Ġassist ed
Ġdist or
ĠS an
ĠDec la
Ġautoriz ada
Ġcall ed
fer encia
ĠaÃ±a de
Ġporc ina
Pres upuesto
ic ÃŃa
ĠI X
Ġren ov
Ġconserv ation
ĠIndu stri
Ã¡ g
Ġpartners hip
Ġre ten
Ġajus te
ĠÏĥ Ïħ
ĠSM Es
Ġdesempe Ã±
M O
co un
Ġ11 3
Ġdise ases
G O
j Äħ
n ÃŃ
Ġdeb t
Ġprohib it
en o
Ġso und
Ġconfiden cial
ĠLis bon
I P
as te
Ġper ci
Ġexist encias
ĠInform e
on om
Ġsustitu irÃ¡n
Ġlab our
Ġobst Ã¡
Ã ¸
Ġref le
ĠÎķ Î
ĠCon fe
Ġhe ading
Ġassoci ation
Ġdis cip
Ġfinan ced
Ġexamin ed
ĠL im
Ġpre mises
Ġcomple ta
Ġveterin arios
Ġcon sta
ĠD inamarca
Ġac on
Ġcontra taciÃ³n
Ġcoll ected
ĠIntern et
Ġa warded
Ġt ren
Ġlin ked
Ġincre asing
Î» Î»
Ġbe long
Ġdeb ate
Ġfij arÃ¡
Ã ī
Ä ĩ
ĠW H
ator ias
Ġelectri city
Ġrecib ir
Ġan tig
ĠP osition
Ġdetermin ation
bor der
G R
der al
Ġespeci ally
iz ation
ĠCommission e
dera tion
Ġgas es
Ġcap r
Ġvege tales
Ġ2 200
ĠS erv
Ġob sta
me at
Ġadjust ment
ĠA B
fi que
M A
Ġini cio
Ġship s
Ġproteg er
ĠDen mark
b it
Ġm uest
Ġ22 0
ID AD
Ġclas s
Ġraz Ã³n
Ġre ject
Ãº s
b ida
Ġc ance
ĠS weden
Ġal to
Ġcu antÃŃa
Ġn ie
ĠSu iza
Ġadi tivos
Ġraz on
Ġb ack
ĠA pp
Ġexcep tional
Ġsatis fy
Ġpriv ado
EM B
i ales
Ġrecor ds
tic ular
Ġprodu ce
ug osla
wa ys
y z
ay an
Ġparticip ate
Ġexamin ar
Ġoportun o
N ame
Ġh om
Ġv ÃŃa
Ġfa ir
In form
Ġefectu arse
Ġa ge
Ġconsumid or
ti sta
Ġap rue
Ġfe edings
Ġpenal ties
ĠS uecia
Ġdes tru
Ġsamp ling
Ġ4 93
Ġautoriz adas
Ġ198 0
Î® ÏĤ
Ġlabor atorio
Ġresol ution
N ombre
Ġh im
Ġex amp
Ġmon et
Ġprior ities
Ġperman ent
Ġphys ical
Ġen vis
Ġdi vi
Ġlow er
our s
ĠFin land
Ġexig ir
ult ores
ĠmÃŃnim a
ĠY ugosla
ĠaÃ© rea
b ased
Ġz ones
Ġaddi tives
Ġarancelari os
Ġas esor
Ġaddress ed
Ġconver sion
Ġsuje tas
Ġpasa jeros
in ding
Ġvac cin
Ġmen ciÃ³n
cul ture
posi tion
Ġprior idades
Ã ģ
ĠPart ners
Ġl ig
Ġb il
Ġd uly
Ġfa mily
Ġdisposi tivos
Ġfij an
Ġtras lado
trat Ã©g
ĠAc ta
Ġconcent raciÃ³n
ĠRegion s
Ġas untos
Ġestu dio
Ġjusti fied
Ġsamp les
Ġoffer ed
iner y
ĠRu sia
Ġrefer entes
ura ble
Ġconstitu yen
Ġprac tical
ĠCO D
Ġcuanti ta
te es
tr ar
ĠF orm
Ġproce ed
Ġelectri cidad
Ġatten tion
Ġdomi cili
m or
di tional
Ġeuro pa
Ġarmon izaciÃ³n
ĠPe ople
b ac
Ġh arÃ¡
ĠAn nual
Ġconsign ment
Ġexpi raciÃ³n
Ġl istas
Ġef ficiency
Ġcompeti tividad
Ġreserv as
h as
Ġn it
Ġpres ence
Ġref us
Ġcontract ual
Ġaquel los
ĠIn dones
irc raft
Ġsel eccion
Ġproceden te
P C
mp ed
Ġex iste
IT H
Ġimpro vement
Ġprelimin ary
Ġbov ina
titu d
Î¹ ÏĤ
ĠNor uega
ure ment
Ġmo vi
Ġ12 8
Ġeffective ly
Ġespa cio
Ġt r
Ġb ir
us o
br ica
ecu tion
Ġprohibi ciÃ³n
Ġenmi endas
ra ble
S ub
all en
Ġso lo
ĠB ar
Ġauthor ise
Ġdesign ate
Ġcre ation
Ġreco ver
Ġw y
ol es
Ġp lu
Ġbe gin
Ġequi li
Ġcompar able
Ġc atch
Ġf ron
ed ir
ĠPar ticular
Ġefec tivo
Ġconta bilidad
Ġcaus ed
Ġdescrip ciÃ³n
ĠÎ½ Î±
u an
Ġs ul
Ġh ow
Ġrespe to
N O
Ġy oung
Ġinclu sion
ĠIV A
Ġpropor cional
TIN G
os o
Ġw ish
ĠSe e
ĠAs unto
ĠPR C
ĠEsta s
ven es
pues tas
Ġdos si
Ġcent ro
E A
Ġa hor
ĠS cientific
tiz aciÃ³n
Ġharmon ised
c ales
Ġmar cado
Ġab ar
Ġintrodu ce
Ġcour t
om as
Ġconten idos
Ġhar ves
Ġinnov ation
Ġveri fy
al i
ĠA ir
Ġes tratÃ©g
Ã©s ticos
Ġtre ated
Ġnav eg
TIC LE
Ġsw ine
ĠAus tral
fi x
ada mente
Ġinclu des
Ġferro vi
Ġdama ge
Ġf Ã¶r
Ġl Ã¡c
te gra
ĠT ari
20 13
Ġdeclara tions
Ġadopt Ã³
Ġdig i
k ra
ĠConven ciÃ³n
Ġm Ã³
ĠO ri
Ġprincipal mente
Ġv Ã©ase
Ġset t
Ġqual ifica
Ġsubstan ti
ĠA T
ch en
Ġloc ated
Ġvo or
ĠTa i
et h
Ġvia je
m na
Ġ200 9
Ġj Ã³
Ġfollow ed
Ġexten d
lian ces
Ġtranspar ency
Mo dificaciÃ³n
Ġactu ales
Ġsum mary
Ġpasseng er
Ġdifficul ties
ĠEx ecutive
ĠAmer ica
P OR
m ula
Ġm or
ĠS ystem
Ġcombin ada
Ġ12 60
tiv ity
Ġcom eti
Ġexpedi dos
Ġpresupuest ario
K K
Ġlos s
ĠT A
Ġr ule
ĠG ui
g un
Ġv ayan
Ġtex tos
ĠRuman ÃŃa
Ġm ission
tud y
Ġmu ch
Ġcompon ent
Ġenumer adas
ĠlÃ¡c te
Ġb on
Ġlengu a
Ġdisc los
d rÃ¡n
e an
s al
Ġl it
ĠL an
ĠEsta tuto
Ġme z
Ġefectu ada
with standing
b ell
Ġv ino
Ġesta tuto
Ġfact ores
Ġfarm ers
pi tal
hen tic
ĠjÃ³ venes
Ġm ight
den a
Ġrequ is
ĠV al
Ġconsulta tions
Ġemerg ency
Ġcurren cy
ĠStrateg y
Ġconsider arÃ¡n
Ġfix ing
Ġpollu tion
ĠQ ue
rela ted
Ġac tivo
Ġreason able
ĠLuxemb ourg
r ÃŃan
ĠReg iones
ient ras
Ġetique ta
Ġliquida ciÃ³n
is ations
Ġcon ge
Ġgran des
Ġ Äį
Ġf Ã¡
Ġcomp osiciÃ³n
Ġfi li
Ġmu jer
Ġlabor atory
Ġexpos ure
i h
Ġh id
se ment
Ġperson ales
ĠSec retarÃŃa
.. ..
ĠC orea
Ġg a
Ġinclu irÃ¡n
Ġpermit e
Ġalgun o
Ġfami li
k y
ĠR ES
ur go
Ġcompens aciÃ³n
Ã©l gica
Ġemission s
ĠAud itors
Q U
ĠSta ff
ĠAc ciÃ³n
ĠAc cording
ĠÎ± Î½
Ġenfo que
ĠPro cede
Ġ197 5
Ġigual mente
s en
ues ta
Ġconta ble
Ġi d
Ġlu z
Ġdocum entaciÃ³n
A V
F unda
Ġg ras
Inten sidad
Ġfeedings tuffs
Ġin ciden
ĠFin landia
Ġrazon able
w an
Ġf low
peci fic
Ġtex ts
Ġhar m
Ġdestinat ario
e te
Ġe dad
ĠA li
ĠCon viene
Ġterritor ies
Ġconsecu encias
cal e
or da
a za
ĠG DP
ĠÎº Î±ÏĦ
Ġcelebra do
Ġaer ona
Ġre cha
Ġac ce
Ġindividu ales
Ġstruct ural
i f
Î· Î¼
Ġpublic arÃ¡
Ġ198 5
Ġtradi tional
Ġcandida tos
Ġus os
Ġcompet ence
olÃ³g ico
Ġespecifica ciones
Ġindire c
ĠCon trol
Ġsamp le
Ġmecanis mo
Ġmach inery
Ġsu ficientes
Ġco lo
ur ante
ĠL at
Ġregar ded
Ġsi mple
com es
Ġapplic ants
ĠSH ALL
Ġsui table
Ġy et
Ġha ga
Ġu mb
Ġprop io
Ġreconsi deraciÃ³n
ĠR ules
Ã© ticos
Ġapp liances
Ġdetermin ada
Å¼ e
ĠPartners hip
z en
Ġ5 0000
Ġaut hentic
i k
u de
Ġdis se
i ve
ĠT en
Ġcomp uter
ĠF IN
Ġmo tivo
Ġtom a
Ġemb ala
ĠMe as
Ġapli que
Ġa ircraft
Ġre pe
ĠPol icy
Ġgran ts
toc k
Ġlia bility
Ġaliment aria
I mp
ĠCon stitu
Ġef ficient
Ġprepar ados
Ġprepa red
Ġapp oint
Ġfun ctions
Ġexist ence
Ġaim ed
is teri
ĠC y
ĠF urther
Ġvi vos
Ġproduci do
Ġclassi fied
ed as
ĠEuro pol
Ġtas a
Ġlia ble
Ġex ha
cia do
Ġag ents
Ġton ne
Ġcolu mna
E E
i v
Ġe di
ĠTari ff
y Ã³
Ġex ac
r arse
Ġsupp lies
Ġeje mpla
c ome
Ġ Ïĩ
ĠPro tection
ĠK ong
ĠmÃŃnim as
Ġgovern ed
Ġproporcion ar
ĠPr incip
Ġun an
Ġsalva gu
Ġf ia
ĠT ras
ĠL AS
Ġrefer ences
Ïģ Î¯
Ġdefini tions
porte ur
n te
y endo
ĠP ers
Ġpa bell
Ġunderta ke
Ġele mento
Ġcient ÃŃfica
Ġconsist ent
c ran
Ġposi tive
Ġconver g
Ġre tain
Ġ12 5
Ġex terior
ĠF unds
L ex
u tions
Ġlic encias
Ġfirma do
Ġoffic er
Ġinfraestruct uras
Ġpres s
Ġhab ida
ĠFon dos
Ġ12 2
Ġrequ ir
Ġquestion na
zion i
P ar
an ish
Ġorganiz ations
Ġofic ina
Ġrendi miento
C o
I TI
ĠG as
pro duct
Ġpermit ted
Ġex ch
ĠN ot
Ġnot es
ĠEl ect
Ġemp ren
ĠFe deral
Ġc ir
Ġdo ce
Ġperson nel
Ġmen or
Ġbuen a
si mismo
Ġac to
ĠPar agraph
ER S
Ġstar t
Ġindependi entes
ĠBelgi um
U M
ti m
Ġprepar ations
Ġti er
ĠPol onia
CH APTER
ouse hold
Ġmo ve
ĠH ong
ĠEn viron
Ġmark ing
Ġindica tions
Ġvis ado
Ġoli va
Ġgi ving
Ġprior it
Ġt w
Ġsuspen siÃ³n
Ġwithdra wn
ĠPo land
Ġpabell Ã³n
Ġpla y
ous ly
Ġconcedi do
ĠTur key
ĠThere fore
Ġpala bras
ĠC he
ol so
Ġform er
ĠProduct s
Ġfor e
Ġpr Ã³
Ġexp ected
Ġopen ing
A p
ot s
Ġliber tad
ĠGre ece
la ma
Ġre fin
Ġh ome
ĠS te
der Ã¡n
ĠMar ket
Ġmin er
Ġau dio
Ġsanit arios
egu ir
yz ac
t arÃ¡n
Ġqu arter
ĠP rim
Ġesta tal
Ġejec ut
ĠÃºlti mos
Ġopportun ity
de x
Ġdefin ir
Ïĥ Îµ
Ġar mas
Ġ13 7
Ġver siÃ³n
ci de
Ġcon voc
ĠD G
Ġ4 00
ĠmÃŃnim os
Ġf ur
ch es
de res
Ġcontra tante
Ġdifer encias
Ġbru to
Ġf omento
Ġb ur
le t
Ã¡ log
Ġcont ribut
Ġtransfer red
ĠTur quÃŃa
Ġparcial mente
Ġproveed or
Ġincumpli miento
Ġcon cer
Ġres tr
id ance
ĠÂ ¿
ya ble
Ġenti ty
Ġdimen siÃ³n
Ġs pe
Ġparti al
Ġcompeti tiveness
Funda mento
Ġ25 1
Ġefec tivamente
Ġaqua culture
ent os
Ġser ies
Ġfi elds
Ġwe b
Ġcol or
u a
Ġinform ar
ER V
Ġmuni cip
j an
Ġ @
Ġl ing
bi lizaciÃ³n
Ġinvestig ations
oma tic
Ġdiscrimin aciÃ³n
l ines
ĠU kra
Ġpresent en
Ġterritor ios
Ġba lan
Ġ197 6
Ġcorre o
landes a
rib ui
Ġten ido
Ġpasseng ers
b es
Ġth reat
Ġdes crib
Ġbo x
Ġderog ations
ĠpÃ©r didas
ĠAm Ã©rica
an ged
Ġtra ding
Ġoper ador
Ġagric ultura
Ġsuperfici es
Ġinci so
iz on
bi le
Ġinstitu ciÃ³n
Ġneg ative
Ġtemp er
os is
Ġpr zy
ÏĦ Î±
Ġcualqui era
Ġpermis o
se Ã±
Ïĥ Î¼
Ġauditor ÃŃa
Ġinform a
Ġr un
ÏĦ Î¹Îº
Ġrecuper aciÃ³n
Ġc le
Ġar tico
Ġ11 4
Ġmon eda
Ġestim ated
Ġite m
Ġrefl ect
in ese
Ġto ler
Ġ30 8
Ġindica dores
Ġsometi dos
ĠCom o
ĠB os
Ġexcep cionales
Ġidenti dad
Ġfavor able
Ġste el
Ġregistra dos
Ġartic les
Ġes tric
Ġ16 0
ll ed
OP ER
Ġm Ã©d
Ġw he
Ġsustitu ciÃ³n
Ġade lan
Ġforma to
Ġcoher encia
Ġregist ros
Ġtransmit ted
Ġacog ida
z ego
Ġsolici tado
ĠCh inese
Ġconduct ed
Ġadv ice
Ġwithdra wal
Ġs pa
Ġacu icultura
Ġstan ding
Ġcere als
Ġ26 58
ĠGre cia
z n
ar ma
Ġaut Ã©n
Ġob ras
Ġquanti tative
60 1
Ġt ÃŃtulos
Ġdel i
Ġesta n
iz aciones
Ġ23 77
Ġ3 0000
ĠReg ula
Ġcompati bility
Ġreach ed
Ġre li
Ġcent res
ĠInform arÃ¡n
Ġpro vin
ĠP TU
vision s
ĠTh ai
U T
Ġs tudy
Ã¡ ticas
Ġun e
Ġg ri
Ġ60 7
Ġfo cus
Ġassoci ations
Ġ1 000
Ġm aritime
est re
ector s
Ġidenti fy
Ġvacun o
Ġf it
Ġso cio
Ġcualifica da
ĠL eg
Ġpre ce
ĠÎ Ń
Ġ13 5
Ġesper a
Ġre ve
ate g
ĠDEC ISION
Ġ5 000
ĠOrgan izaciÃ³n
Ġdang erous
ĠA fric
Ġsta ted
Ġprogram aciÃ³n
Ġgra ves
Ġsubstan tial
Ġarance l
ĠelectrÃ³n ica
it en
Ġw are
Ġpres er
Ġmar cas
Ġcor ri
Ġtone lada
Ġ12 7
Ġinten ciÃ³n
Ġelev ado
ĠS pecial
cern ing
AR D
Ġcommunica tions
Ġassign ed
Ġb reed
Ġen seÃ±
Ġfor ese
Ġv io
all s
ĠSe a
Ġrevis ed
Ġconse jo
Ġdel le
Ġh ours
ĠN r
ĠB Ã©lgica
ĠSecret ary
ĠBr ussels
Ġtecnolog ÃŃas
Ġunan im
Ġm isiÃ³n
ĠB Y
Ġprotec tive
Ġutiliz adas
Ġenv ases
Ġprevi o
Ġmanufact uring
a ter
ĠD u
Ġ25 0
An nual
Ġdef ensa
v ina
Ġ2 10
Ġdefini dos
Ġfig ure
Ġ197 7
Ġreser ve
truktur yzac
ĠS P
ĠCon tra
Ġ24 54
ĠaÃ© reas
Ġconcedi das
Ġremo val
Ġrepro ducciÃ³n
z an
qui dos
Ġmarket ed
Ġindica tors
ĠW ITH
ĠLuxemb urgo
ĠprÃ³ xim
in f
ĠC P
Ġlo te
Ġcommit ted
ÏĥÎµÎ¹ ÏĤ
taliz as
y ond
Ġmo v
Ġapoy ar
ci ente
un di
duc ing
Ġmedioambi ental
g ui
Ġen ca
ĠEs tos
i ra
Ġdefini ciones
Ġfru tas
Ġintroduci r
C APÃįTULO
Ġ range
Ġ12 3
ĠEuro just
Ġobten ido
b el
Ġv ul
Ġ14 3
Ġh echos
fici ally
Î¿ ÏĤ
Ġref use
ĠaÃ±a dido
ĠhÃ¡ bil
B L
D EC
Ġpres entes
Ġaccompan ying
Ġproveed ores
Ġdischar ge
Ġm ientras
un ica
Ġb es
Ġapro pi
Ġpresenta dos
Ġartic ulo
ĠST AT
en a
re hen
der os
th ough
ca pa
Ġmedioambi entales
Ġenvis aged
F a
go ing
Ġhe a
Ġdesign ado
Ġcul tivo
App lic
Ġda Ã±os
ÏĦ ÏģÎ¿
Ġ197 0
Ġprevia mente
Ġurg encia
mb ers
bi das
ĠPrim era
i um
Ġap ren
ĠSecret ariat
Ġsti pula
Ġeng ine
Ġexamp le
Ġca use
Ġgas to
ÅĤ a
Ġconfir ma
Ġrestr ing
Ġn um
Ġ0 40
Ġne to
Ġsitu aciones
Ġcontro lar
Ġdiffer ences
ĠC C
Ġshe et
Ġn el
Ġespeci fic
Ġmaintain ed
ĠN orm
Ġallow ances
Ġal ta
Ġle ar
va ble
Ġcarri ers
Ġagric ultores
ÏĨ Î±
Ġrecommen dation
Ġliber al
Ġorienta ciones
Ġconsideran dos
Ġdirec tive
Ġposterior mente
Ġsafegu ard
Ġdomicili o
B S
D es
ĠS O
Ġfu eron
Ġdead line
w eg
Ġman y
Ġprocess es
Ġpelig ro
Ġgeog rÃ¡fica
enta tion
Ġad misi
Ġcooper ate
Ġbenefici aries
olÃ³g icas
Ġproba ble
Ġimpor tados
Ġadministra tivo
Ġ38 4
Ġadministra ciones
crit os
Ġo g
Ġbe yond
Ġvis a
Ġexig e
ĠCH APTER
Ã µ
Ġus er
Ġk on
Ġhor talizas
ĠlÃ¡cte os
Ġf at
Ġfij adas
Ġth en
Ġe en
Ġd an
ollow ing
Ġer r
Ġcoll ective
Ġensay os
ĠCOMM UN
Ġpublici dad
Ġo le
Ġcons ent
Ġrela te
ac tive
Ġarancelari o
ĠmarÃŃti mo
Ġrecip ient
n ie
Ã ¦
Ġa ire
di dos
ĠH ar
ĠBr uselas
Ġt im
Ġ17 8
Ġverifica ciÃ³n
Deci sion
Ġjud gment
ĠBos nia
ĠT el
fi quen
Ġproce derÃ¡
pr us
Ġ12 9
19 97
Ġofre cer
ĠCro ati
cran ia
S ID
or o
Ġins p
Ġdesign ation
Ġsour ce
d in
Å ĳ
Ġg ain
Ġpresent arÃ¡n
Ġdif usiÃ³n
Ġsuf fer
Ġupda ted
r Ã©d
Ġco hesiÃ³n
Ġcomp lied
Ġfin ance
Ġpa yable
Ġ14 0
Ġlim itar
Ġfra ud
Ġmechanis ms
Ġindemn izaciÃ³n
Ġh ost
ĠL and
Ġcomp uls
ĠAn im
Ġsupplement ary
ĠEUROPE AN
bac co
S ta
ĠMember s
ĠX I
ĠTa mbiÃ©n
Ġadjud icaciÃ³n
Ġchild ren
Ġapropi ado
F R
e tic
p ing
Ġprohib ir
Ġfres cas
Ġsuje ta
Ġreform a
Ġalterna tive
Ġmujer es
C h
fici encia
Ġsta ke
Ġconsul ted
Ġdirec tivas
Ġwe ek
ĠHung ary
Ġpig s
Ġempres ari
Î· ÏĥÎ·
ĠImpor te
5 00
Ġv ot
ut h
Ġ13 8
cri ta
Ġhubi ere
M a
Ġ os
re os
Ġbas es
Ġconform es
bs ite
E AS
Ġen ga
ĠP h
Ġcu otas
Ġ15 7
Ġab og
Ġrequi ere
ĠSecret ario
Ġapropia das
ĠFish eries
Î ĳ
Ġre cla
Ġw omen
ma il
Ġexp los
ĠCooper aciÃ³n
ĠC as
Ġan Ã¡log
Ġbe ef
ĠB er
ill s
Ġfe es
ĠMi x
ĠT AR
Ġmodifica dos
dor as
ĠGre en
Ġe pi
Ġcap turas
Ġfran ces
ĠenseÃ± anza
res iÃ³n
at her
Ġ11 9
dica ciÃ³n
ator ies
Ġadj usted
Ġar ch
ĠG R
Ġpob laciones
Ġterren o
O G
Ġha bi
Ġdetermin arÃ¡n
Ġdispon ga
Ġregula do
Ġdenomin aciones
Ġfabr ica
Ġrecital s
Ġaudio vis
fici ently
Ġvo te
ĠPRO V
Ġtechnolog ical
Ġcontr ario
r ity
y ear
mp s
Ġinstal lations
A Y
Ġ12 1
Ġen lar
di fied
ded or
ba co
Ġexist en
Ġhor izon
Ġdivers as
Ġfitosanit arios
ĠIF B
Ġnaveg aciÃ³n
ri an
Ġpo deres
Ġremuner ation
Ġh ect
ĠL ith
ĠSin ce
ĠKom mission
Ġasisti da
Ġ16 9
Ġtex tiles
Ġdivers os
Ġex tract
st ries
Ġcontrol led
Ġindica das
pect ed
Ġsel ected
ĠEnerg ÃŃa
z ada
Ġla un
Ġob ject
Ġdu mped
Ġacqu isi
Ġartico lo
ti ble
Ġpro te
Ġdefin en
Ġdist ing
Ġpond rÃ¡n
Ġa round
Ġapp ar
Ġpod rÃŃan
Ġpas ivo
Ġer ror
Ġde uda
ĠA rea
Ġso cios
ĠSa la
Ġtecnolog ÃŃa
Ġsola mente
Ġe as
Ġcom itÃ©
Ġme j
Ġnot ed
ĠRecom enda
ĠC APÃįTULO
Ġre ac
ec tual
Ġsub he
Ġauthor isations
ĠS IS
MENT S
Ġfour th
Ġconfer red
or no
Ġwh om
Ġconsul tar
Ġsel ection
zego vina
ĠAfric an
Ġcomp rehen
ĠNo tas
Ġutiliz ando
Ġresidu es
Ġsatis fa
Ġstor ed
Ġinfrac ciones
f as
Ġimpor tador
Ġexist ente
Ġ198 2
P OL
Ġer ra
e o
p ed
es a
ica tions
Ġex pon
Ġorgan ic
ĠmÃ¡ quinas
Ġer ad
Ġestruct uras
Ġcustom ers
ĠCOM MISSION
Ġdefini das
Ġre ex
ran t
ĠU crania
Ġmeth o
Ġrecor d
ĠLe y
iter ran
Ġadver se
Ġma kes
ĠCon si
Ġad misiÃ³n
Ġj udiciales
Ġcontribu ciones
Ġcent re
Ġvaccin ation
T rans
Ġconceder se
Ġaus encia
ĠCon di
Ġexclu ded
Ġrap porteur
Ġbuil ding
Ġmar ine
ap ÃŃtulo
Ġrap id
ĠE valu
Ġtech ni
Ġderi ved
O V
Ġre tras
Ġelect romagn
Ġtax able
Ġpesqu ero
ĠCy prus
D A
I CI
ĠM er
ador as
Ġfis cales
ĠHung rÃŃa
p al
Ġre v
Ġdis pos
so bre
ĠCh eca
Ġfinal idad
d ante
Ġreg ime
ge ment
ac a
Ġpol icÃŃa
za je
Ġdecidi rÃ¡
Ġtransac tion
Ġva ya
b ase
Ġp ide
it ud
truct ural
Ġcontain s
Ġconven ios
Ġdiffer ence
Ġair port
ĠSw iss
Ġmultila teral
Ġregula ted
Ġidenti ty
Ġopera tivo
Ġcorrec ta
Ġbe lie
ari edad
Ġsuper visory
Ġbenefici arse
Ġcompar aciÃ³n
Ġperf eccion
Ġde sta
Ã© ric
Ġdis tan
Ġ11 1
Ġ13 4
Î¿ Î¹
AL ES
Ġrestric ted
rÃ¡fic as
ĠAdministra tive
Ġestrech a
Ġformulari o
Ġp Ã¡g
Ġfun d
Ġval ida
Ġdesign aciÃ³n
Ġmil itary
Ġmechanis m
ĠUkra ine
C C
Ġfe e
Ġoc cas
Ġcier re
ri d
Ġad vis
Ġcover s
ĠAl ban
Ġcomprob aciÃ³n
Ġdespa cho
Ġemploye es
Ġbir ds
den cias
ĠZ ea
ĠSer vi
Ġblan co
P re
Ġap peal
Ġ13 2
Ġ14 4
Ġexper ien
Ġcr ÃŃa
ĠRus sian
Ã¡ m
ĠS ur
Ġma ÃŃz
Ġreg las
pec to
ĠH asta
ĠDecision s
Ġmil itar
Ġvari edad
Ġaffect ing
d ro
Ġr ise
ual mente
Ġec olÃ³gica
Ġgen Ã©tica
Ġdraw ing
c les
i res
s ed
Ġp an
ĠN ing
Ġpres tar
Ġrec ent
Ġcos tas
Ġeff ort
ĠApp lica
Ġbegin ning
Ġfore ign
Ġof ficially
Ġci tada
Ġfact s
Ġvacun aciÃ³n
v ÃŃa
Ġde terior
Ġd omin
Ġfor warded
Ġinter im
Ġemp ower
Ġpresent Ã³
Ġpublic arÃ¡n
ĠÃ ī
Ġgra du
Ġregla mentaciÃ³n
Ġregular ly
v ere
Ġh alf
Ġex teriores
Ġsolici tantes
Ġabs ten
iter rÃ¡n
li j
Ġta baco
Ġaccep t
ĠefectÃº e
iterran ean
I ENT
in ta
ri mon
Ġi v
il er
Ġcompeti tive
Ġcomplement aria
Ġdemos tra
ĠperiÃ³dica mente
Ġdi bu
Ġpo ur
Ġevalu aciones
Ġcre ate
Ġinde x
Ġoficial mente
roz en
Ġadjust ments
Ġ ÅĽ
Ġpres cripciones
EC T
ĠDe ber
Ġcul tiv
Ġtradi cionales
D E
Ã¡ us
Ġcom m
Ġres trukturyzac
Ġda ted
Ġreview ed
Ġsanit ario
Ġemiti do
Ġexclusive ly
ĠJap an
Ġapren di
B ase
Ġs tric
ĠREG ION
Ġdecidi Ã³
ĠCons ul
Ġfavo urable
l ich
Ġa y
et nam
Ġcomp osition
Ġab aste
Ġsta tes
oper ation
Ġpen sion
M ar
o x
Ġra ÃŃz
Ġcuy os
Ġincre ment
Ġstruct ures
Ġopera tivos
z ia
Ġpres cribed
Ġpo tato
Ġop in
ht m
Ġreemb olso
Ġutilic en
e y
Ġp lus
ci d
Ġdis cre
mos t
Ġba ja
ĠlÃŃn eas
Ġaut onom
cia das
Ġauthor ising
Ġ15 1
Ġactu aciÃ³n
Ġvin os
Ġsurve y
Ã¡us ula
Ġwh ite
Ġabier to
bi liz
Ġsolici ta
Ġtom arÃ¡n
D IRECTIV
Ġp ure
Ġal le
Ġexp lica
Ġrealiz arse
Ġopinion s
sp ot
b era
ĠV Ã©ase
Ġacum ula
Ġ30 1
Î· ÏĤ
Ġown ers
ĠAlban ia
Ġcas h
Ġlet ters
Ġaprendi zaje
I Z
ta bility
ĠA yuda
Ġw ild
Ġass urance
Ġhuman it
Ġrelev ance
Ġstrateg ic
Ġfronter a
ĠHer zegovina
Ġdossi er
es ta
ra das
Ġgro und
ĠIN TER
Ġ197 8
Ġd io
Ġ14 9
Ġ60 601
i va
ur r
ĠP ri
den tes
a fter
Ġp ie
at ura
Ġimpro ved
Ġpreci se
Ġsalvagu ar
Ġde c
Ġpro long
Ã© e
Ġas um
Ġbas ado
Direc tive
k er
Ġre tro
Ġma gn
ĠB al
Ġdefin ido
Ġop tion
Ġexpor ter
Ġallow ance
Ġtas as
Ġwithdra w
Ġmuest reo
Ġp s
ar ity
Ġse ts
Wh en
Ġ17 4
Ġexclu siÃ³n
Ġan e
Ġres puestas
ĠK orea
Ġsol uciÃ³n
Ġnotific arÃ¡n
S erÃ¡
ent o
Ġg an
ĠP IB
im ientos
fin ancing
Ġintegra do
ĠLim ited
A t
Ġp esti
Ġfa v
Ġenv as
Ġfar ming
Ġllev arÃ¡
Ġcompar ison
Ġext ran
Ġstrengthen ing
b our
Ġto ur
Ġcu mpla
Ġimpor ter
Ġcarri age
Ġassess ed
Ġinstal lation
iz os
ÃŃs tica
Ġsign ature
Ġmodific an
air s
Ġavi ar
Ġopin iÃ³n
l s
Ġcent rales
Ġobten ciÃ³n
Ġpuer to
ĠD urante
Ġ14 5
Ġfigur ar
sifica ciÃ³n
arante e
Ġjusti fic
ĠS G
Ġex tre
ente mente
Ġma ize
Ġrepla ce
Ġdesemb ar
Ġd ans
Ġcom ent
Ġpa c
Ġ13 9
Ġnotifica do
end ant
Ġpon ente
ĠFR OM
Ġsignificant ly
Ġgarantiz arÃ¡n
ĠRus sia
Ġcuar to
it ing
Ġmanufact ured
C L
Ġt rim
ĠCN S
Ġinterpre taciÃ³n
Ġirregulari dades
M IN
p ra
ti er
Ġin dis
ri o
Ġme to
Ġch airman
Ġz u
Ġresul tantes
Ġmej ores
Ġar ri
Ġinter val
Ġeff ected
ĠSu per
Ġcuy as
ĠVe terin
Ġca bles
Ġ14 8
ual qui
Ġindica da
Ġlugar es
ĠCan je
Ġtransitor io
Ġsuccess ful
U P
Ġ12 6
Ġco hesion
Î¹ Î¿
Ġconsider ar
ĠNor te
ĠA simismo
Ġni Ã±os
Applic ant
Î ¶
Ġh ist
Ġpla gui
Ġampli ar
Ġinfraestruct ura
Ġincompati ble
Ġcompuls ory
Ġd up
Ġpre ten
Ġcla ve
loc ut
Ġconcent ration
Ġpeligros as
Ġg r
Ġgener ally
TION S
Ġhab ÃŃan
Ġal leg
ĠM il
ĠLa w
Ġsolici te
Ġcomplement arias
Ġcif ras
Ġsatisf acciÃ³n
Ġse de
Ġh ear
Ġinter locut
ved ad
Ġpon dera
Ġconcre to
i tation
Ġto bacco
ĠM ED
cha ft
Ġfre cuencia
Ġdismin u
Ġcomprehen sive
Ġe d
ĠA z
Ġch allen
Ġ198 1
ĠpolÃŃ tico
Gas to
Ġl lama
ma king
Ġat ribu
Ġaplic an
Ġsitu ations
ord ning
Ġotor g
D ich
ĠH D
Ġli mp
Ġdistin to
h al
Ġpa ta
Ġaplica do
Ġagric ulture
Ġlle ven
f ra
r um
Ġre Ãºn
ĠCom b
Ġ8 00
ĠTh at
u ble
or as
ĠS ing
ma tic
Ïģ Î¸
Ġlabor atorios
Ġul tra
Ġsole ly
Ġv ar
no ver
Ġspeci men
Ã©n dose
Ġderog ado
ĠAgric ulture
Ġliqu id
R W
S EC
Ġpr ze
Ġau to
Ġcaus a
ĠMo difica
d ora
Ġb inding
Ġco in
Ġdi v
Ġoc cup
Ġques tions
Ġ12 91
Ġcon ocer
Ġco ef
Ġal er
Ġprim ary
Ġexemp t
Ġpropi as
Ġconti ene
ĠobstÃ¡ culos
Ġrequis ito
Ġabaste cimiento
la ce
ĠR T
Ġno te
Ġpen di
Ġsuspen sion
Ġbila terales
Ġsell ing
Ġdigi tal
DEC ISIÃĵN
ÃŃ tica
Ġbas a
Ġcomple to
Ġadap t
tail ed
Ġconsequ ences
Ġsupp lier
Ġ197 9
Ġtax ation
Ġaim s
Ġmanda te
Ġrecip ro
Ġfavo ur
t Ã¡menes
ti cip
Ġb ran
Ġ6 10
Ġappear s
ĠAustral ia
Ġquestionna ire
Ġay ud
f en
Ġpro fi
ect ing
Ġfi e
Ġfigur en
Ġdiscrimin ation
Direc ciÃ³n
Ġrepercu siones
EMB ER
Ġca be
Ġmar cha
200 9
Ġsa la
Ġestable zca
itu ania
ord n
Ġprohibi tion
Ġcopi es
Ġreject ed
Ġfie bre
Ġde dica
tan ts
ĠÎ ¸
Ġcan ales
Ġbre ach
Ġdeg ree
d ices
Ġp ra
Ġorganis ed
Ġconclu ye
cri tas
Ġconta bles
finan ciaciÃ³n
Ġcon ex
Ġpr zed
cent ral
g y
ĠCon ferencia
Ġ18 0
Ġci tados
Ġdirec to
Ġtoda vÃŃa
Ġrepresent ing
Ġavi an
Ġfuer za
mb re
Ġex ecution
Ġoper ate
ER R
ĠÏĦ Î¹ÏĤ
Ġrecon o
Ġsustan cial
Ġguarante ed
ĠAdministra ciÃ³n
al ity
ro d
Ġ5 48
Ġden uncia
Ġfig ures
Ġcontinu ed
Ġtax es
Ġbuen as
C B
in ting
ĠRes earch
C P
ĠCE CA
Ġlo ans
Ġsel f
Ġtechnolog ies
ĠAgric ultural
ĠprÃ©sta mos
A demÃ¡s
t ri
Ġdes car
Ġestablish es
Ġprogram ming
Ġprior idad
ĠPortug ues
Ġsubsequ ently
Ġfail ure
a ce
Ġp un
Ġpro tocol
ĠD R
Ġad min
Ġle vy
Ġsec ret
Ġrepla cement
Ġnom inal
gen es
Ġph ase
Ġcuestion ario
Ġlear ning
Ġempower ed
Ġpri vi
ĠEx change
ĠjurÃŃd icos
Ġmanifies to
a bilidad
u ania
ci dos
ĠE r
den ts
Ġthere in
Ġremiti rÃ¡
Ġkilogra mos
ĠP ide
ĠM AR
Ġpres iÃ³n
lu m
Ġda tes
Ġexpor ters
ĠcampaÃ± as
Ġacqu ired
ĠKom is
ĠVi etnam
D is
Ġpro gresos
Ġd rug
ul ed
Ġform at
Ġoblig atoria
In ter
igh ts
Ġarti kel
Ġharm ful
Ġbreed ing
D I
t res
Ġ200 000
di Ã³
Ġcomp ared
oun dation
Ġli f
Ġaprob ar
Ġview s
TR Y
Ġconver siÃ³n
Ġhubi era
Ġtransitor ias
Ġ }
ĠC ol
ĠA ff
Ġser ÃŃa
con cerning
Ġpes te
Ġinten si
Ġcl Ã¡usula
ĠTech nical
S T
Ġc y
Ġinclu ya
Ġrelations hip
Ġproces os
Ġplagui cidas
G U
e e
Ġqu ien
ec uciÃ³n
Ġcamp o
Ġ65 9
Ġindic arÃ¡
Ġe ficiencia
Ġat tain
Ġesfuer zo
ĠIndones ia
D O
H z
n dice
Ġen abl
ĠO ver
ĠIn stance
Ġpr Ã³r
ON E
tis ing
Ġdesign ados
Ġear ly
Ġajust arse
p ens
Ġt ro
Ġexclu ding
ĠacompaÃ± ado
Ġperform ed
Ġadelan te
Ġe mis
Ġ200 00
Ġg Ã©n
Ġutiliz ada
Ġsp ir
Ġlimi tado
Ġrein for
S a
Ġnotifica tions
AT T
Ġstate ments
ĠDich a
g s
Ġsup ported
Ġhab it
ĠacompaÃ± adas
ĠSeg Ãºn
Ġnotific arÃ¡
Ġdic tÃ¡menes
ĠM un
Ġadop te
Ġbas ada
Ġinterven ciones
Ġirregulari ties
B y
ec ut
ĠCom er
uro pa
Ġag encias
Ġnorm ally
Ġsta tut
Ġsubsi dy
Ġclari dad
ĠAR TICLE
1 000
ul ing
itor ing
Ġiniti ation
Ġchar ged
Ġemerg encia
ĠER M
ĠMix to
Ġerra dicaciÃ³n
t on
t ribu
Ġt itle
er ÃŃa
ti do
Ġres umen
Ġ5 24
ĠO CT
Ġent es
ĠDe termin
g ent
Ġrespec tivas
Ġinf ec
Ġtranspor tista
ĠTo dos
Ġlaw y
AN CE
UN A
ĠCO UNCIL
ĠIns tru
weg ian
ĠR ed
du m
ĠDe moc
Ġat ribui
ĠCh ip
AR I
Ġnego cios
ĠNor wegian
Ġsen o
TH E
Ġconstitut es
ĠanÃ¡log os
Ġmetho dolog
T ED
Ġen con
ri z
Ġac orda
Ġcom ien
Ġ14 7
Ġinten tion
Ġlab el
Ġproceed ing
Î ķ
Ġin t
Ġin val
Ġpro puesto
Ã© tico
Ġ4 25
Th ese
Ġcier tas
ĠperiÃ³ d
Ġproc urement
ih il
Ġs c
at ures
Ġno ci
Ġestable zcan
Ġresul te
ĠPR ES
ĠaÃ© reos
F in
j ero
os a
ĠEC SC
Ġasi lo
Ġerad ication
P OS
re es
Ġca dena
ĠG N
AN CI
Ġau x
Ġpreci sa
Ġcul tivos
Ġsurve ys
Ġenca min
Ġinterlocut ores
ĠChip re
f it
ĠDirec ciÃ³n
Ġinter iores
19 96
Ġexper im
Ġtom arÃ¡
Ġtransform ados
ĠmarÃŃti ma
Ġqualifica tions
Ġla ck
Ġin mig
Ġf echas
Ġpreven ir
Ġclaim ed
ĠGu arantee
ĠSup p
Ġbelong ing
or den
ÃŃ c
Ġconstitu ciÃ³n
Ġelect ro
Ġsatis fied
Ġcelebra dos
Ġprevious ly
Ġacquisi tion
T AD
Ġb rea
Ġmar g
Ġrespon sibilities
Ġparticip ants
Ġref uer
Ġnu mbers
Ġ197 2
Ġmat ric
ĠBe lar
ĠProced ure
Ġe ur
Ġre ported
ĠS N
ĠS tructural
Ġcomp uesto
Ġob jetos
Ġ20 81
Ġro ute
Fa x
Ġin stancia
ĠF ollowing
Ġcorrespon de
ÏģÎ¹ Î¸
A ction
Ġv om
Ġ4 24
ĠB ra
Ġ60 5
Ġindic an
Ġdocum entation
Ġsimplifica ciÃ³n
SID ER
Ġd arÃ¡
ven tion
Ġsi tio
Ġuti l
Ġorigin ario
ĠQ ueda
Ġact Ãº
Ġear lier
Ġsacri ficio
Ġstake holders
y lum
Ġ15 3
Ġbro ken
Ġformal ities
Ġmutu o
Ġpron unci
Ġdisting u
or ios
Ġal la
Ġpre visiones
Ã³m ica
Ġspecific ally
y m
ra teg
Ġta ma
Ġ17 0
Ġlabor atories
Ġtas k
tut os
Ġproduci dos
Ġthres hold
c ciones
o la
la ria
Ġcont ar
ĠSec ciÃ³n
Deman dante
oso vo
h men
k no
Ġs yn
ri dad
Ġmain ly
Ġincorpor arse
ĠHar mon
Ġtim es
O tros
l ina
Ġa isla
Ġh ecto
ĠÃ ¨
Ġfran co
Ġac cu
ĠL ituania
lic o
20 10
Ġefica ces
Ġdepar tments
Ġenh ance
Ġcoe ficiente
ĠFurther more
Ġl ex
Ġaut Ã³n
ĠB u
Ġinclu yen
ĠK osovo
Ġreques ting
Ġimmedi ate
Ġdepar ture
ĠEmp loyment
c ro
Ġe vol
le ments
Ġlos ses
ĠS istema
Ġcomp os
Ġres pal
ĠPa per
Ġperspec tivas
Ġh i
Ġ3 50
ĠCh ile
Ġcomunic ar
O p
Ġh arÃ¡n
ex t
ĠIn stancia
ber n
Ġacep tar
Ġdetal lada
Ġshow s
Ġcombusti ble
ĠLith uania
Ġp il
ci se
Ġf os
Ġl ength
Ġar bit
Ġres t
Ġregistra do
Ġrema ining
ĠHa bida
Rec urso
Ġ Å
Ġs cale
ĠCon ference
Ġregional e
Ġelabor arÃ¡
Ġindepen dencia
Ġalma c
ĠMo dified
Ġbur den
Ġde ten
ĠR Ã©gimen
emb ly
ĠM ission
Ġamb os
ualqui er
qu ia
Ġanal y
Ġa roma
Ġt ub
et z
rig er
Ġdirec tives
Ġprepar ar
Ġ43 2
Ġsanit arias
Ġc ut
Ġqu i
Ġcomp uestos
Ġcar cas
Ġprovi der
ien da
ĠEs pecial
Ġconjun ction
Ġling Ã¼
Ġv otes
Ġg ross
Ġconstitu ir
Ġ198 4
Ġaprob Ã³
Ġinvol ve
ĠInform aciÃ³n
Ġhu bier
Ġirreg ular
h ÃŃ
Ġv uel
di an
Ġnorm ales
Ġactiv as
Ġmovi lidad
u ge
u blica
Ġb ul
ber tura
Ġrespe tar
ĠSlo venia
laza miento
Ġt il
Ġv ÃŃas
ĠF oundation
Ġfij ada
anc tions
Ġvir tu
Ġejempla r
ĠRecomenda ciÃ³n
an nual
Ġpropos e
Ġpay ing
op s
Ġmedica mento
A ll
Ġbe l
ĠM isiÃ³n
Ġ13 1
Ġra ti
Ġindica ting
fa ce
og lu
Ġhecto lit
c ast
e le
Ġre tail
Ġrep ly
bri o
Ġstr ong
ĠChe mical
DIRECTIV A
F IC
ÃŃ os
Ġv aria
ĠP ur
ĠN AF
Ġ17 5
Ġs tra
Ġse Ã±
Ġg ana
Ġdes ti
Ġsus cep
Ġman aging
Ġform ular
ren da
Ġver sion
Ġrecur rir
Ġestruct urales
Ġsuficiente mente
S O
c ue
Ġo posiciÃ³n
ĠM ore
Ġ4 50
Ġimp osition
ĠF er
Ġ15 8
Ġcier tos
ĠRa dio
ste in
In dex
Ġinte l
Ġrei mbur
Ġh ousehold
Ġgaran tice
Ġde i
ol d
Ġinter puesto
Ġmo bility
Ġman ip
Ġoblig atorio
Ġincre mento
Ġvenci da
ĠEslo venia
Ġvot os
rateg ia
Ġf ases
ran te
iz arse
Ġda ily
Ġadop ting
tional ity
ĠÃ Ĺ
Ġpropor ciÃ³n
ĠAd ditional
or ies
ĠC AS
all ed
Ġar as
Ġis oglu
Ġdes g
qui era
land Ã©s
Ġallow ing
ĠÎ± ÏģÎ¹Î¸
ĠIntern al
Ġfran qui
Ġintracomunit arios
1 00
Ġw ide
Ġh al
li o
ĠP en
ĠF rom
Ġsup resiÃ³n
EN ER
Ġorganis ms
Ġsepar ado
Ġsubsi dies
dis crimin
ti se
tes is
Ġavi ation
Ġadquiri da
is ters
Ġconsul ting
Ġevent s
Ġachie ving
Ġsos p
Ġpesqu era
Ġhig i
Ġahor a
Ġdistan cia
en ÃŃ
Ġab and
Ġk m
Ġ23 9
Ġau di
ET SI
ĠÎ¼ ÎŃ
Ġtur nover
Ġsignifica tiva
ĠResol ution
ĠObserv atorio
ĠrÃ¡p ida
Q UE
Ġbe bidas
ĠD ata
Ġv ÃŃn
Ġpor que
Ġpara gra
ÎŃ Î½
Ġregla mentos
Ġpack age
Ġvincula dos
Ġconjun ta
Ġpeligros os
ordn ung
Ġw ines
us es
tu res
Ġajus ten
Ġsuspen ded
Ġelimin ar
ĠIs lands
ĠPRO D
ĠAp pro
ĠÎķ ÏĢÎ¹
ĠGas tos
en z
Ġc ic
Ġpa gar
Ġinclu irse
Ġle u
Ġref riger
Ġloc ation
Ġbenefici aria
Ġwe bsite
Ġindic ar
Ġafect ar
Ġdemonst ra
M edi
V I
Ġapro v
Ġremo ved
ĠEqui pos
ÏĥÏĩ Ïį
Ġfur n
et en
ĠN ue
pec tive
Ġ22 8
que o
Ġalmac Ã©n
Ġde tecciÃ³n
Ġf rozen
ĠC I
Ġthere by
Ġrespon der
Ġcapi tales
ĠIs landia
ĠSer bia
Ġfores try
ĠMinist ry
w ie
Ġw ord
ĠB i
Ġappro ve
Ġ18 5
Ġnotifica ciones
Ġexper t
ĠTo da
Ġefectu arÃ¡n
Ġanual mente
ATION S
Ġpropi et
Ġuniver sal
Ġoccas ion
L ES
T el
e ter
p ut
Ġc Ã¡
ĠO ne
ĠÎ ²
Ġ14 6
Ġutiliz an
ĠelectrÃ³n icos
Ġaudiovis ual
C ED
L B
an n
Ġas ylum
Ġdisposi tivo
Ġrepresenta ciÃ³n
Ġconfir man
Ġren o
Ġdesg los
Ġsu ministra
Ġor din
Ġplan ning
Ġsis tem
Ġacog erse
Ġcompla int
Ġpare ce
ĠAff airs
Ġag enda
ad Ã¡
US T
mend ments
e uropa
Ġf ich
Ġal zado
Ġcom ing
Ġleg iti
Ġnoti fi
Ġrealiz arÃ¡
ĠAs untos
Ġsp read
ÏĥÎµ ÏīÎ½
Ġsu g
ari ciÃ³n
Ġesta bilidad
Ġcor to
ber na
Ġ197 3
UR E
ĠDich o
Ġinterpre tation
Ġamb as
ĠgenÃ©tica mente
Ġindis pens
ĠVeterin ary
Ġa an
ĠAn tes
mit ted
Ġaf ir
Ġprim eros
Ġesti pula
ĠNC B
Ġreduc ing
Ġa war
Ġde roga
ĠC ot
Ġto tales
Ġsu ma
Ġi legal
io logical
Ġli ves
Ïģ Î³
ĠCh a
Ġtranspor ted
No ta
Ġfrequ ency
Ġcle an
s ka
va quia
Ġsuper iores
Ġflex ible
coun try
âĢ ľ
Ġindica tive
Ġneg lig
Ġharmon isation
Ġrenta bilidad
Ġ609 47
Ġtechni ques
ĠNAF O
ar s
Ġsu el
tan t
Ġsolici tada
ĠDec reto
ĠDirect rices
Ġses iÃ³n
Ġse min
ĠB ras
200 00
Ġ18 9
Ġk ind
ĠpolÃŃ ticos
Ġregula ciÃ³n
Ġproper ly
Ġfabric antes
h ous
Ġo u
ta miento
ĠC oun
ĠR EC
ĠP T
ĠM EMBER
ech ten
ĠÎ »
ĠCOM UN
gen o
Ġneg ociaciÃ³n
Ġsan idad
Ġoil s
ĠOrgan isation
ĠR ights
Ġg re
um e
Ġ31 8
mun ications
Ġtransfer s
Ġresponsa bilidades
Ġconjun tamente
ĠGar antÃŃa
FOR M
ĠTAR IC
m aciÃ³n
an ÃŃa
Ġy i
Ġimp lan
Ġestableci Ã³
Ġ198 3
Ġproble ma
Ġhand ling
ribut ed
Ġpuer tos
Ġcla se
Ġderiv adas
ĠMedi ante
Ġ12 55
eg ro
der ing
ue bles
Ġemp has
Ġ16 1
ÏĨ Î¿
Ġrecomenda ciÃ³n
Ġdesi rable
unica ciones
Ã ļ
Ġin land
et t
ĠN om
ure au
Ġiniti ated
Ġlia bilities
Ġhaber se
Ġasesor amiento
Ġen uncia
Ġh oc
Ġac ero
Ġimp uestas
Ġme tal
Ġ15 000
las s
Ġreal ice
Ġfe ver
Ġjusti cia
Ġsimpli fied
ĠHe ad
Direc tiva
Ġaquel las
g ro
is tic
Ġin a
Ġdo ble
Ġsig ui
Ġsustitu yen
Ġhab rÃ¡
Ġtari fas
Ġvege tables
Ġm us
Ġter res
Ġ20 92
Ïģ Î®
Ġsometi do
ĠEst rategia
Ġsil ves
Ġagrup aciÃ³n
ĠCi vil
ĠMinister io
m ol
de a
Ġconsider Ã³
Ġdata base
Ġcap tura
Ġvo to
Ġlea ve
it zer
ĠSta tis
Ġdo ub
Ġfi bras
Ġentre gas
Ġ33 6
Ġbusiness es
Ġusu ario
ĠFunda ciÃ³n
Ġmove ments
echten stein
ci es
ĠS oci
li mit
ĠÎ ¬
Ġincor re
Ġsuf ficiently
Ãį ndice
Ġtranspar ent
Ġsometi das
Ġconn ected
Ġcubier tos
E ach
Ġ ud
Ġto ok
IS K
Ġc reat
Ġvo c
rÃ©d itos
Ġm al
Ġd in
ĠR ural
ida e
um enta
ree ments
Ġmark ed
Ġsup edi
Î¼ Î²
Ġfar ma
Ġfar mer
ĠÏĢ Îµ
Ġresol uciones
Ġil legal
Ġsee k
ĠestadÃŃs ticos
ĠÃŃn dice
U ES
n ych
Ġc ult
or ld
at us
Ġrespec tivos
ĠMar co
Ġaqu Ã©l
ĠacompaÃ± ada
Ġaproxim adamente
Ġprof it
Ġtama Ã±o
Ġ4 42
ĠDe par
Ġ14 1
su ant
TR A
Ġlimi tada
ĠCan ada
Ġweigh ted
Ġdiagn Ã³s
ĠEnviron ment
Ġo ch
Ġcon den
ven cia
ĠDecision es
Ïī ÏĤ
w s
fici t
pi ra
Ġdefini tiva
Ġlabor al
Ġhacer se
Ġacer vo
ĠquÃŃm icos
4 000
d ress
Ġf ire
ra el
Ġcomp lies
ma to
Ġprovi ders
Ġpla s
Ġfacil ity
Ġoffic es
Ġprecis ar
ĠRecom men
Ġel ecciÃ³n
ĠG ATT
ther n
Ġbor ders
Ġoportun idad
Ġnor uega
D ER
di endo
tos a
Ġve lar
Ġpresenta n
ati bilidad
Ġampli a
Ġinno va
Ġacqu is
Ġspe ed
ĠT AC
ĠL u
ins titu
ci e
Ġimp edir
Ġag ent
ator s
Ġoportun as
Ġinv ited
a f
w ide
Ġf l
ĠS pecific
tu te
il ding
Ġve lo
Ġreal mente
Ġ197 1
ĠS ud
Ġcom men
Ġins cripciÃ³n
Ġuse ful
Ġprepar ing
hol ds
Ġelabor ado
Ġmach ines
u ally
Ġw i
ĠN et
Ġadap tation
Ġfra ude
Ġiniti ate
Ġaso ciados
Ġprepa re
Ġcho ice
Ġwhe at
c s
Ġp edi
Ġen ar
ec ta
Ġse ats
Ġap re
Ġpre o
pon s
Ġval u
Ġchec king
Ġdise Ã±o
Ġperfeccion amiento
a der
Ġ {
Ġ ulti
ar ing
ĠA fter
Ġfor ra
ĠÎ ļ
Ġdecla re
Ġafec ta
Ġste p
Ġprefer ential
Ġdimen sion
Ġpomo cy
Ġavan ces
ĠPod rÃ¡n
itzer land
a di
b ol
en se
ĠS CE
Ġpa per
Ġ15 5
Ġk or
Ġinfer iores
ho od
ti das
Ġavaila bility
Ġbuil dings
Ġtrim estre
u ay
ĠD ado
ĠP rom
Ġproduc ing
fici os
Ġwel comes
Ġrenov aciÃ³n
ĠGui delines
Ġpress ure
Ġdeli ber
Ġsalvaguar dia
ta min
Ġcon ci
Ġre vision
ĠR ule
Ġ0 10
Ġca d
Ġinver s
Ġs mo
do us
si zed
ĠN ING
ĠPro vin
Ġsustitu ir
Ġconten ga
Ġemploy ed
Ġbov inos
Ġfla vo
ĠCar ta
Ġocas ion
ĠNING UNA
S eg
o lo
Ġs to
Ġm os
Ġap are
Ġins u
fin i
Ġmu er
Ġcontamin antes
Ġbear ing
Ġai uto
Ġpertene cientes
Ġdisclos ure
Ġ607 30
3 000
P H
s ing
le y
Ġd rin
Ġ19 6
Ġcons enti
ill ing
Ġexceed s
Ġestrateg ias
Ġcoher ente
ĠOp inion
C Z
Ġi rÃ¡n
ĠH uman
Ġ60 8
Ġindividu als
Ġrealiz ada
Ġcompati bles
Ġst ress
Ġvolunt ary
ĠÏĥÏħ Î½
ĠZea land
Ġvoc ational
C ada
v ar
ĠH igh
Î¿ Î¼
Ġaprob ados
Ġadap tado
Ġfavor ecer
Ġconsolida ted
Ġmethodolog y
o le
is k
cion amiento
Ġcla si
AN S
ĠPresiden cia
ĠLi echtenstein
Ġlle ve
Ġses sion
Ġgene tically
b la
j en
u as
Ġf rac
Ġf lying
Ġexp ire
Ġidenti ficar
Ġimpon er
ĠCroati a
Ġelectromagn Ã©tica
y ecto
Ġcalcula ting
ĠAp peal
ĠInves tig
ĠDo cu
n era
Ġe th
Ġto x
ĠN u
Ġsub ra
Ġsub di
ĠDe uts
ĠJ a
Ġsta ges
Ġventa jas
ban k
ĠefectÃº en
ĠCOMMUN ITY
ra cy
ul l
ĠB CN
ĠAg reements
ru it
zar dous
Ġintro ducing
ÏĮ Î¼
ĠMon itoring
Ġsuprim irÃ¡
ĠTech nolog
ĠLet ters
Ġconfidential ity
Ġvue lo
U F
ĠA vi
Ġcorrespon da
Ġemple ados
Ġrecogn ized
Ġtransac ciones
Ġnegoti ated
Ġfami lia
Ġinfringe ments
---- ----
T OS
qu in
ĠN otes
Ġ25 000
IC H
Ġhol d
Ġproble m
Ġvia bilidad
ĠAnim al
Ġempresari al
Ã «
Ġcon duc
Ġd one
Ġ3 20
ĠW orld
ĠAs ÃŃ
ĠnÃºm eros
Î¯ Î¿Ïħ
Ġcli ente
ĠdÃ© ficit
Ġdeneg ar
Ġcro ps
Ã ²
ci tal
ĠC alls
Ġre medi
Ġh in
yu das
Ġk om
ĠW est
Ġtempor ales
ĠNor th
Ġconsign ments
Ġobserv ations
ĠseÃ±a la
Ġmez cla
ĠTen iendo
Ġhect Ã¡
g reg
Ġto ols
li ers
Ġis landesa
ten egro
ĠRE P
ĠWith in
Ġde duci
Ġm it
di g
Ġca ta
ĠÃ ¼
ĠEs truct
Ġau xi
Ġmercanc ÃŃa
Ġveri ficar
Ġingredi ents
Ġ19 5
Ġcos as
El ect
fa re
Ġreco pi
ĠMa lay
Î±ÏĦ Î¹Îº
Ġmun do
ĠEslo vaquia
Ġcomp or
Ġres ta
Ġparticip en
Ġro z
Ġexplo itation
Ġvi ol
Ġreduci do
Ġrequer ida
Ġingredi entes
Ġreemb ols
ĠNing una
ĠprÃ³r roga
V er
qu iler
Ġn ext
Ġh os
Ġcomp rue
Ġinform Ã¡tico
Ġle vi
ĠCo mpan
Ġinten ds
Ġconcentra ted
A I
ĠE IB
Ġse m
Ġac ross
im i
ĠM ET
ĠN on
ĠN one
Ġinter con
Ġarrange ment
Ġnormal izaciÃ³n
ilan dia
ĠAp pen
Ġsatisfact ory
ÏĦÏģÎ¿ ÏĢ
Ġvirtu e
m ember
Ġe p
Ġ12 54
da m
Ġpor ts
ĠM ol
ig ation
Ġreal icen
Ġterror ismo
ĠPROV ISION
Ġ Å¼e
Ġdes h
ven ciones
Ġsobre pas
va iling
mi ta
Ġcumpli do
Ġ39 1
Ġarance laria
Ġsubhe ading
Ġdup lica
ĠÎķÏĢÎ¹ ÏĦÏģÎ¿ÏĢ
S al
V IS
os tic
ĠM or
ĠEn tre
Ġfu ere
Ġconsequ ently
Ġdestinat arios
ĠComer cio
Ġco bertura
Ġat mos
pect rum
Ġfla t
rug uay
Ġremuner aciÃ³n
Ġfacilit arÃ¡
Ġenabl ing
e m
s et
der se
Ġmi d
Ġlic ens
Ġmes a
Ġcomprom eti
Ġsepar ately
ĠaÃ±adi rÃ¡n
ĠSw itzerland
Ġalleg ed
h an
Ġp Ã¥
Ġcon tes
Ġfor ec
Ġentre pr
Ġ17 1
Î¬ Î½
An y
Ġai uti
r ut
os as
Ã© u
Ġaf tosa
Ġsustitu ido
Ġdifer ente
Ġqued arÃ¡n
ĠOM C
de red
ter ing
Ġex ista
ĠN E
Ġpre ve
ac tion
est ar
Ġcapa ble
Ġgu idance
Ġpen siones
Ġresidu e
Ġshow ing
Ġkilogra ms
Ġenc uestas
Ġmeto dolog
ced onia
Ġins titut
ĠV ista
Ġli ving
Ġconclu de
Ġstar ch
Ġdiver sidad
C AD
j ar
Ġac c
Ġma ta
mo uth
mi enda
Ġci tadas
ĠDich as
Ġzo os
UB L
Ġdespa ch
Ġexch anges
ĠNot withstanding
i que
Ġac kno
Ġcu ad
Ġman ual
Ġfi f
Ġout bre
Ġfores tales
Ġdri ed
Ġcompr ise
ĠAr ti
Ġcer dos
enti ally
len o
Ġpen ding
Ġstar ting
Ġrecover ed
Ġvul nera
S ES
a cia
on y
Ġl ines
Ġal though
ĠN N
Ġcont ener
Ġ26 2
Ġsitu adas
Ġcomb at
Ġstrateg ies
ĠCan adÃ¡
Ġatribui das
Ġauxi li
Ġf Ã©
Ġinclu yendo
Ġsa fe
ay ments
Ġfir mar
log ÃŃa
Ġllev arÃ¡n
ĠCON S
sk ie
Ġbelie ves
ĠP E
ĠBe ihil
Ġdev ice
Ġcalend ario
Ġp eces
Ġ3 90
ĠÎ Ł
ys tema
Ġ20 13
ĠÃº til
Ġnormal mente
Ġaeropuer to
Ġequili brio
Ġre vo
ĠAr gent
Ġimpor ting
ene ver
Î¿ Î»
Ġsta bility
Ġfu ente
ĠAC C
Ġreduc tions
Ġdisse mination
Ġexha us
ĠdiagnÃ³s tico
l la
z ados
Ġmon ey
Ġele ment
Î¿Ïħ Î½
ÅĤ y
Ġoportun idades
lin ed
Ġdemos trar
ĠprÃ©sta mo
Ġsched uled
to tal
ĠS k
Ġimp ose
Ġha bili
co mp
ĠB ay
Ġr up
Ġother s
Ġra ised
Ġcooper aron
Ġnom bres
Ġcli m
Ã½ ch
Ġmodifica tion
ay ment
Ġaplic ando
Ġconsist ing
Ġabs ol
ĠBE I
Ġen tail
Ġre ins
le o
ĠDe l
Ġderog ada
Ġaccep table
Ġtransmiti rÃ¡
Ġcontr ary
ĠModifica da
Z AR
ci s
Ġex ecut
ĠF i
Ġparti das
Ġtercer a
Ġconsidera tions
Ã¤ t
ĠDer echos
ĠMon tenegro
Ġsignifica tivo
ÅĦ st
ĠSlovak ia
Ġflig ht
Ġhorizon tal
r arÃ¡
al ed
ĠA u
ĠS ÃŃ
Ġex ter
Ġpres erv
ĠMa cedonia
Br uselas
fix ing
Ġsug ges
e lo
ci da
un des
Ġb ound
ra g
ĠP es
Ġfi le
Ġtex tile
Ġtender ing
Ġann ul
Ġadver tising
ĠÅĽ rod
ĠNom encla
H ER
Ġde vol
Ġf le
Ġse men
ĠP A
our ce
Ġ33 8
Ġcontinu a
Ġresol ver
ĠLi bro
Ġveri fied
Ġcomunica das
Ġjoint ly
Ġreten ciÃ³n
H A
a mb
b ran
o lamento
Ġnota bly
ĠpÃ©r dida
Ġfal se
Ġb ecom
Ġexp la
Ġpla ces
Ġtotal mente
Ġregula res
Ġjo bs
Ġexpres ado
Ġbi val
Ġobser ved
Ġ rol
Ġ19 68
Ïĩ ÎµÎ¹
ĠInves tment
Ġembala je
ITI ES
ta ges
Ġac redi
fica tion
ĠO P
Ġra cional
bil isation
Ġ40 4
Ġaddi tive
Ġname ly
Ġship ment
Ġcuales quiera
ĠAgric ultura
ĠbÃ¡s icas
With out
Ġvue los
Ġenga ged
ĠB ri
Ġcapaci dades
Ġcl ÃŃn
Ġabs or
mple o
ĠTrans port
Ġinteg ral
Ġid Ã©n
Ġcoment arios
Ġayud ar
ĠA mendment
ĠD IS
Ġdes fa
Ġpol vo
Ġequi pa
Ġsubpar tida
Ġtit ulares
Ġsuffer ed
V EN
i ado
ar an
is temas
ĠD a
ĠU ruguay
ting s
Ġcooper ating
Ġte j
Ġcommit tees
Ġsol uciones
Ġpeque Ã±os
Ġejecu tivo
Ġumb ral
Ã¡ tan
Ġso ught
Ġ29 13
Ġsitu ado
Ġinvol vement
Ġmutu a
Ġbrea k
or ias
Ġm ass
ri ers
Ġ4 0000
Ġ5 50
Ġadap taciones
Ġ197 4
ĠsÃ³ li
Ġsol ution
Ġdet ect
Ġrepar aciÃ³n
econ omic
Ġtranscur rido
orden ing
i ves
Ġm ir
Ġw on
Ġtrans bor
ĠJ e
Ġman aged
Î· Îº
Ġensure d
No te
Ġph arma
Ġcompati bilidad
Ġtri go
Ġcandida te
Ġblo od
Ġsubstanti ally
Ġtier ras
Ġap Ã©n
Ġes pect
Ġco loc
ĠT ar
Ġex cise
Ġ19 66
Ġcons eguir
um o
Ġ14 2
Ġsector al
cula s
Ġchec ked
ĠServ ice
Ġappar atus
Ġcompos ed
S R
ĠE P
ĠS us
Ġor al
Ġar renda
Ġcla rity
Ġpropos es
Ġnoti ficar
Ġexamin arÃ¡
Ġcalcula do
Ġconcep t
Ġtransfronter iza
Ġcir cu
f ur
do wn
Ġh atch
Ġes lo
tic en
ĠF A
Ġent ries
Ġdif fic
Ġau f
ÅĤ ad
Ġrecog idas
Ġtu vi
Ġvelo cidad
m al
n s
Ġs ite
un gen
ir y
Ã¡n ea
Ġr uling
log y
ĠPresiden cy
Ġconsist ency
rela tivo
Ġori entaciÃ³n
Ġfacul tad
bur g
Ġagrup aciones
Ġaerona ves
Ġconsenti miento
Ġs ystema
ĠD K
Ġexp l
Ġexp lici
ĠV ol
mpli ance
Ġden unci
Ġhe at
Ġsuper ar
Ġpas t
Ġ36 2
ĠelÃ©ctric os
ĠhÃ¡bil es
Ġin m
ĠP ublic
ĠX II
Ġcontinu ation
Ġreconoci das
Ġflig hts
ĠPortugues e
n et
Ġp li
Ġpro vo
ir ts
Ġ4 26
Ġch apter
ĠCh arter
Ïħ ÏĦ
Ġer an
Ġcl in
Ġadvan tage
Ġa umenta
ĠE AG
Ġse as
Ġex istan
Ġdis as
Ġcons or
ĠB udget
Ġlo an
Ġmedi anas
Ġpart ner
Ġgra tu
mis sible
Ġcomply ing
Ġmeasure ment
b Ã³n
ro p
ĠS t
Ġres to
Ġdis capa
ĠF I
Ġpos es
Ġ16 6
Ġgo bern
Ġenerg Ã©tica
Ġrecom ienda
Ġorden ador
Ġobserv aciÃ³n
Ġdecre ased
Ġdismin uciÃ³n
Ġqu edan
Ġ17 66
Ġte lev
Ġjo ur
ĠbÃ¡s icos
Ġencuent ren
ĠLet onia
ĠWork ing
ĠConfe deration
ĠLat via
ĠThai land
w y
er da
Ã¡ st
gra m
cer tain
Ġexp lor
Ġk a
ÃŃfic o
Ġavi aciÃ³n
Ġaseg ura
Ġsimplifica tion
Ġclose ly
Ġtelecom unicaciones
ĠREGION AL
Ġt ill
Ġd ura
ver the
Ġinform ati
Ġ15 2
Ġout come
Î¯ Î½
Ġreas eg
AM B
gi ene
Ġplen a
TH ER
Ġnuclear es
Ġgeog rÃ¡ficas
Ġaprue ba
verthe less
9 000
Ã¡ k
si e
ula dos
âĢ ĵ
Ġparticular mente
ĠPro du
ĠW TO
ĠÃ© quidos
ĠÎµ Îº
Ġdom Ã©sticos
Ġestim ates
AND O
ĠGi ven
k Ã³w
Ġ12 57
Ġexp an
Ġ17 6
Ġcorrespon d
Ġsal do
Ġ100 6
Ġdispon ibilidad
Ġru ta
Ġl ot
di x
us cos
ĠF un
ĠIn de
Ġ16 8
hi li
Ġveterin aria
Ġenvi arÃ¡
Ġjurisdic ciÃ³n
Ġpl Ã¡tan
Ġfitosanit ario
ĠfÃ¡ cil
in ter
ĠC R
ÃŃ pro
Ġimp ar
ĠG ENER
Ġ17 02
Ġrec ÃŃpro
Ġtom arse
Ġvo taciÃ³n
ĠAt omic
Ġreser ves
Ġsoli dar
Ġre bas
ĠE T
ĠM ad
Ġha zardous
Ġcons ecuciÃ³n
Ġdenomin ada
ĠIs rael
Ġgaran ticen
Ġpropag aciÃ³n
la ying
ci pos
Ġo k
ta je
Ġac o
Ã¡n do
ne j
Ġrecibi Ã³
Ġrepar to
Ġbanc os
Ġsett lement
Ġzoos anit
ti ll
Ġm Ã¡r
Ġb en
ĠA sia
Ġd as
Ġpre ca
Ãº menes
Ġins ol
Ġpublica do
ĠSo bre
Ġvolum es
Ġacces sible
Ġrecog idos
Ġpack ages
Ã³s itos
Ġreduc ciones
ĠCro acia
Ġrail way
Ġsatisfa cer
cast le
M ed
h and
Ġcar bon
Ġpermiti rÃ¡
Ġaliment arios
ĠConfe deraciÃ³n
Ġcometi do
S G
Ġex ced
Ïģ Î·
Ġ26 0
Ġdirec tiva
Ġactual izaciÃ³n
ĠEM C
Ġimpu gn
Ġs anctions
ran ts
Ġins pect
Ġra tio
Ġ40 2
Ġrenew able
Ġconverg encia
Ġ ÏĮÏĦ
ed ish
ĠNor thern
Ġmol uscos
Ġbil le
Ã©ric as
ĠEstruct urales
l n
es es
Ġ3 2006
Ġso ft
Ġve in
Ġpol ice
Ġsupp liers
Ġim mig
Ġban ks
Ġencarg ada
Ġoff ences
Ġsk ills
Ġoffic ers
Ġaeropuer tos
c ase
Ġd ry
por tes
Ġent rar
Ġunder standing
Îµ Ïħ
Ġlin k
Ġacciden tes
Br ussels
ĠMeas ures
Ġlives tock
Ġgre en
Ġdiffic ult
n ic
Ġin e
Ġac cion
ire ments
Ġmark s
Ġsa ber
Ġ28 0
Ġtrabaj ador
Ġobtain ing
ĠPL N
Ã¨ re
Ġsubsidi ariedad
Ġmas a
Ġcombusti bles
ĠE duc
Ġ17 9
ĠTh ose
Ġinstitu tional
OR D
ĠFin al
Ġadi tivo
Ġpermit en
Ġsuspen d
ĠAt Ã³mica
Ġcri me
ĠRegion e
Ġplante amiento
Ġlleg ar
Ġtour ism
Ġprivi leg
Ġhigi ene
N B
ĠN ONE
Ġ19 3
ad ora
Ġanticip o
Ġsupon e
Ġseman as
Gas tos
ĠCD R
organ is
r ence
la w
ar ters
Ġen jo
Ġr Ã©
Ġ16 4
Ġexper tise
Ġte m
Ġfacili tada
Ġsent encia
Ġhigh ly
Ġconcre tas
Ġinco mple
Ġvincula das
ĠSw edish
Ġproportion ate
Ġsy rup
Ġenlar gement
H R
t le
Ġa cid
aria mente
Ġdesign ar
Ġtermin ation
Ġrepeal ing
ĠestadÃŃs tico
Ġinteroper abilidad
ĠLan des
to x
Ġg est
Ġper tur
Ġ15 4
Ġra ther
Ġch ain
ĠY es
Ġemb ry
Ġsegu irÃ¡
TU R
Ġincu mb
a min
Ġde tec
ĠC ualquier
ec tions
Ġfor int
Ġmen ciones
Ġajus ta
Ġpermit s
Ã¨ g
Ad dress
Ġrestrukturyzac ji
Ġfranqui cia
C PE
F IN
Ġw er
ĠD uring
Ġ4 67
Ġsi ete
ĠV isto
Ġu va
Ġconsider en
Ġsuf rido
Ġlong itud
Ġvela rÃ¡
ĠTex t
Ġuniver si
Ġc Ã¡r
Ġv ic
por ation
od der
ĠDe tailed
Ġindi que
Ġinstru ctions
Ġrecon ocer
SE K
Ġcompon ente
ĠGovern ing
Ġe ta
Ġrela tes
Ġregistra da
Ġencarg ado
ĠNew castle
ĠÎ¿ Î¹
A par
Ġt ribunal
Ġad mission
bi do
ĠTra ining
AR Y
Ġreconoci do
Ġgarantiz arÃ¡
Ġpros pect
ĠIndustri al
Ġa ta
Ġl ed
ĠP hili
et es
Ġma cro
Ġ6 42
Ġrep lies
Ġ20 3
Ġab ord
Ġli tig
Ġsec re
ĠEx port
Ġporc ino
Ġinvent ario
Ġran d
Ġexces sive
Ġobsta cul
Ġforese en
Ġespect ro
v ic
ĠS UB
ĠM ON
Ġno tas
ĠO tros
no ÅĽci
ID R
Ġcult urales
ti rÃ¡
Ġ15 0000
Ġexcep cional
Ġace ler
Ġdetal ladas
Ġsupri mi
ĠFIN ANCI
Ġo x
Ġ26 5
Ġconten idas
Ġpresupuest arios
an cias
Ã³ lo
Ġpro hÃŃ
Ġsu elo
ĠF o
Ġman ag
lig ht
Ġparticip aciones
Ġref ug
Ġactu aciones
vent ud
ĠEx cep
Ġfact ura
Ġjurisdic cional
Ġepi dem
Q u
Ġo l
Ġh on
ish ing
ĠUn til
Ġprovision ally
ĠPro tecciÃ³n
ĠW e
Ġinteres ada
Ġinstru cciones
Ġaprob arÃ¡
Ġveterin arian
Ġprej udicial
Ġglo b
ĠTa ilandia
ĠSub ject
ĠArti kel
f al
p lan
fer ences
Ġmedi ciÃ³n
Ġenti ende
Ġferro car
ĠNet work
ĠA frica
ĠM at
ist s
ĠSta tute
ĠO C
Ġsim ult
Ġjus tice
Ġtre inta
Ġsensi bles
H K
is che
us ed
Ġinter institu
Ġdes cen
ĠÎ ĳ
Ġcooper a
Ġcomien zo
Ġo cho
min bi
Ġsub con
Ġmo tiv
Ġmo tiva
Ġmen ores
Ġneg oci
Reg ion
Ġren minbi
oth ing
Deci siÃ³n
Ġindirect ly
ĠMun dial
H O
Ã³ x
Ġv ec
Ġdis pu
Ġr ing
Ġk Ã¶
Ġrec tifica
Ġbor ne
Ġil ÃŃci
ĠSup port
ĠvÃ¡li do
Ġproporcional idad
t n
y c
Ġin mo
at z
Ġso il
il ity
Ġag greg
Ġ22 1
Ġ23 5
Ġ21 4
Ġcre ated
Ġvia jeros
Ġmanufactur ers
Ġtu ber
Ġabier ta
Ġs cho
om er
Ġy uan
Ġar ma
Ġoper ated
Ġassess ing
Ġreti rar
Ġmaintain ing
Ġentit lement
ĠTex to
ĠInstitu te
Ġmol lus
CN Y
Ġrup ia
k om
Ã¡ met
Ġi ma
Ġ25 8
19 94
Ġtener se
Ġ46 2
Ġarmon izada
ĠMad rid
ĠmÃ¡r genes
H UF
ci dent
Ġex cess
ĠReg istro
Ġmo bile
Ġpos teriores
Ġcar gas
Ġpur s
Ġ24 8
Ġinc iner
gu en
Ġenter ing
Ġquali fy
esta blish
Ġawar eness
Ġ9 99
Ġfin e
Ġgo bier
ĠDE M
ĠBe fore
Ġtransi ciÃ³n
Ġhy dro
rimon io
Ġpata tas
Ġreimbur sement
K RW
Ġre ales
Ġha z
Ġop ciÃ³n
Ġresul tante
ĠRes ul
ĠMa teri
ĠCO OPER
ĠÎ´ ÎµÎ½
Ġsuscep tible
Ġcic lo
R ON
et ros
se urope
Ġma dera
Ġaplica das
Ġk il
Ġreform as
PL N
Ġradi ac
Ġinvent ory
Ġconvoc atoria
ĠT r
Ġcor reg
rog as
Î» Î·
Ġlin ks
Ġsubsidi ary
Ġindependiente mente
lot y
E U
e z
Ġar tes
Ġ18 4
Î¿Ïħ ÏĤ
ora bles
Ġvac c
Ġinmedia to
Ġshe ep
CON SIDER
Ġrequir ing
P S
et te
Ġ5 00000
Ġ6 15
Ġdeclara do
Ġrestric tive
Ġconsequ ence
ĠSp anish
Ġclin ical
Ġs pectrum
Ġf odder
ĠN U
Ġha gan
Ãº p
Ġcontra par
Ġ29 7
Ġdefini tivas
Ġcontain ers
Ġprovisional mente
Ġemb ri
Ġmanda tory
Ġowners hip
L AND
c las
z arse
ĠC AR
Ġan s
Ġinter rup
ven cy
ĠÂ §
Ġ18 1
Ġcoordin ated
Ġte mas
ĠÏĥ Îµ
ho u
ĠseÃ±a lar
ĠÏĥÏĦ Î·Î½
Ġvisi ble
Ġdefici t
ĠOri entaciÃ³n
A UD
C a
o u
s to
Ġde ath
er ra
as h
Ã© tr
ĠB ureau
Ġcor r
ĠPol ÃŃtica
Ġexpres iÃ³n
Ġesper ma
Ġseman a
Ġcuantita tivos
Ġmov imientos
f on
u min
z adas
er y
ate ll
ĠÏĦ Î±
Ġsol utions
Ġdep Ã³sitos
Ġcreat ing
ĠÏĮÏĦ Î¹
Z D
i ja
Ġan Ã¡logo
Ġdel in
ul tor
Ġv oting
ut os
iz arÃ¡
ĠRe cital
Ġcomple x
Ġconsidera ciones
Ġce iling
Ġmot ores
Ġrema ins
Ġexemp tions
ĠWH ICH
Ġse at
Ġse mi
Ã© es
Ġapar ato
Ġanti cipos
igh bour
LA F
Ġexce eded
Ġtur ismo
Ġdirig idas
ĠMi emb
ĠautÃ©n ticos
Ġal tern
ĠB undes
Ġpo la
Î¿ Î³
Ġtom adas
Ġsimpli ficar
ĠBas ic
Ġdio x
N ZD
Ġqu ater
ĠR oma
ist ence
el ong
ĠTra ba
Ġmil jo
Ġcour ts
Ġbru ce
Ġinteroper ability
ĠMore over
Ġc ig
amp o
Ã© an
ol uciÃ³n
Ġaplica ciones
go vern
Ġve al
Ġz loty
Ġten siÃ³n
Ġmon edas
Ġprocess ors
Ġenv ase
Ġown er
Ġupda te
Ġconflic t
Ġde ud
al izaciÃ³n
ĠC M
Ġg ear
Ġent ra
tan e
Ġ15 9
Ġthere after
Ġ16 3
Ġsitu ada
Ġdispon gan
Ġfu siÃ³n
Ġenterpr ise
Ġafect arÃ¡
ĠCer tifica
ĠTai wan
ĠÎ¸ Î±
HK D
O U
Ġag rees
Ġfinanci ar
ell s
Ġpot encia
Ġcol labor
Ġdem ues
Ġdivers ity
Ġsupplement ed
ĠInstitu to
Ġacon di
T ra
Ã ¬
Ġ ÏĮ
er Ã¡n
ĠA M
Ġpar ce
ter dam
Ġprodu zca
Ġ19 69
il las
ĠConse qu
Ġab ility
Ġfig ht
IC ACIÃĵN
Ġaduan eros
Ġequ idae
Î¸ Îµ
ĠOn ly
Ġtarget s
Ġconfidencial idad
Ġmarg ins
c urs
ĠA F
Ġex isti
Ġon der
Ãºm ero
Ġactual idad
Ġidenti fying
Ġtran seurope
Ġdepar ta
Ġdipl omas
Ġcultiv ation
Ã¨g lement
ti e
Ġe ight
ec os
Ãº r
Ġat tes
Ġsus pected
ĠÎ £
Ġrep air
Ġanticip ada
Ġcelebr ar
Ġpreser ved
PH P
Ġl Ãºp
at ural
Ġcos echa
Ġfij arÃ¡n
Ġsp ra
Ġmix to
Ġpond rÃ¡
Ġenc uesta
le a
ĠD ie
Ġ3 2005
Ġent orno
Ïģ Ïī
Ġgi ves
loy ed
Ġace ites
ĠEX P
Ġcoef ficient
ĠKomis ja
Ġspir it
Ġhabit ual
Ã³ mo
Ġpos tal
Ġli ra
gen os
ĠÃ© x
Ġtransfer encias
ses sion
6 000
F L
Ġpre d
ĠG U
Ġcomple tar
Ġfe atures
Ġaprob adas
Ġesti mate
Ġclas es
Ġinser tarÃ¡
Ġtri als
Ġvege tal
ĠHung arian
ĠAz ores
Ġelectro dom
l Ã¡n
ĠP ue
Ġob ra
Ġca za
ĠG O
Ġ16 7
Reg iÃ³n
Ġsur face
Ġmig ra
Ġbil lion
Ġhid ro
ĠNomencla ture
Ġelectrodom Ã©sticos
j ÄĻ
Ġto o
ol ly
ĠN OR
Ġcons tar
el le
Ġba ht
Ġ40 1
ĠÎµ Î¾
Ġelig ibility
ĠDes de
TH B
Ġcompara bles
Ġformulari os
ĠServ ices
ĠÎºÎ±ÏĦ Î¬
Ġhear ing
ĠPur suant
Ġindispens able
ĠfÃ© cula
c ados
s h
s ess
Ġde voluciÃ³n
ĠC apÃŃtulo
emb ra
el la
Ġch a
Ġsup ere
Ġsec on
Ġsitu ados
ĠTo do
Ġejerci cios
Ġrevis ar
Ġfre cu
Ġdestru cciÃ³n
Ġware house
Ġembri ones
f ts
j u
n en
Ġy outh
Ġcons isti
Ġpos ts
Ġbien estar
ÏĮ Î½
Ġtransform ador
Ġclas ses
Ġrelacion ada
Ġarmon izadas
Ġexped ir
Ġocas iÃ³n
ĠÃ¼ ber
c ut
Ġt or
Ġs or
Ġof ten
Ġ18 3
Ġresul tar
ĠAcu erdos
Ġref uge
Ġconsidera dos
Ġemploy er
Ġerr ores
Ġpotato es
Ġenvas ado
i ke
v aca
ra mi
Ġper cep
Ġdo taciÃ³n
Ġpr u
Ġ30 2
Ġorder s
Ġconclu ido
ĠX III
Ġgovern ance
ĠCON TR
ĠMa de
tiz aciones
wa ter
Ġapor tar
wi Äħ
f un
er es
ter as
Ġh Ãºn
ĠT emp
Ã© pti
Ġon going
Ġtra ducciÃ³n
Ġra tificaciÃ³n
ĠPro vision
ector al
Ġoblig ed
Ġmeet s
Ġvis ados
ĠContra tantes
MIN IS
Ġpendi entes
ĠAppen dix
ĠArgent ina
Ġreins urance
S KK
Ġin her
Ġf ol
ĠP OR
Ġinform ado
ues tion
rÃ¡ tica
of f
ag ue
Ġ43 3
Ġlimi taciÃ³n
Ġrecommen ds
Ġsubsidi arity
ĠSal vo
ĠSTAT ES
Ġdemostra do
Ġinnova tive
I ES
Ġpres i
Ġsec ure
Ġcomb ating
Ġann ually
Ġdeg li
ĠrÃ¡p idamente
ĠdesempeÃ± ar
ĠmÃ©d ico
Ġadmin ister
Ġposes iÃ³n
U U
c ji
m u
Ġa leman
Ġb ac
ĠN A
ran tes
Ġca b
ĠÎ Ķ
Ġleg ge
ĠCh airman
Ġend or
Ġcl Ã¡s
Ġrecommen ded
Ã¶r der
cup aciÃ³n
Ġdefici encias
Ġsacri fica
Ġgan ado
Ġina de
P T
P Y
Ġla do
Ġn os
Ġar ise
Ġdis til
Ġz ur
Ġserv ants
Ġpropor tionality
Ġfran c
Ġimpos ing
Ġinici ar
ĠApplica tions
b li
da da
Ġv eces
Ġwh olly
Ġ16 2
Ġ35 7
Ġplen ary
Ġencuent re
Ġwel fare
Ġcarcas es
a id
z Äħ
ĠEs to
Ġobten ida
Ġgain ed
Ġrefuer zo
ĠRecommen dation
ĠlÃºp ulo
Ġ um
Ġp ic
Ġ7 68
ĠO LAF
Ġ20 8
Ġ27 71
Ġsigu en
Ġvalor aciÃ³n
Ġsp p
Ġdise Ã±
Ġlimi taciones
Ġofre ce
Ġdepen ding
isteri al
Ġarri val
C or
P M
Ġde tection
ra dos
Ġy en
tiv in
Ġes to
ĠM E
rib a
Ġ14 08
Ġ17 2
Ġevalu ate
car b
Ġajus tes
ĠInter im
Ġmeasure d
Ġasign ados
Ġmani fes
ĠvÃ¡li da
T a
h u
ar ÃŃa
Ġre mol
ri dos
us iness
Ġar ms
ver siones
Ġser ve
Ġsup l
Ġte ma
Ġdistin ta
Ġtempor arily
ĠPol ish
Ġpag ado
Ġhy giene
ĠÏħ ÏĢ
m Ã¤
Ġj ara
Ġpri va
Ġpes ar
Ġintern as
ĠIs las
Ġveri fying
Ġclari fy
ĠBel g
ĠSp A
Ġutilic e
Ġdibu jos
ĠNue va
D ictamen
G F
R UB
e de
e ks
u tical
ĠE jec
Ġpor tu
Ġz g
Ġsolici tadas
Ġop tar
Ġlegisla tivas
Ġactu ar
ian o
Ġreconoci dos
ĠLi ber
Ã§ a
Ġdepar tment
ĠMedi o
ĠGe org
ĠDecla raciÃ³n
ĠSupp lement
ĠÎķÏĢÎ¹ÏĦÏģÎ¿ÏĢ Î®
f ree
ti liz
ĠA bs
Ġse ven
at ri
Ġis las
Ġ6 0000
Ġra tification
Ġcertifica das
Ġdesign ations
Ġ36 3
rea m
AT E
ĠRequ irements
Ġencarg ados
Ġgrow ing
Ġapropia da
ĠCondi tions
Ġmetodolog ÃŃa
Ġfif th
Ġl otes
Ġv it
Ã© si
Ġman o
Ġch anged
Î¹ Î¼
Ġ18 2
Ġop tim
Ġ21 8
Ġlet tera
ĠÎµ ÏĢ
Ġwa ys
ĠCompan y
ĠÃ©x ito
t ribuciÃ³n
la ted
ĠC d
ĠT ÃŃtulo
Ġres tra
Ġma je
cil la
Ġleg ÃŃti
fa ir
Ġreci cla
Ġadj unta
UN D
Î¸ Î·Îº
Ġconcre tos
ĠStan d
Ġconcentra ciones
Ġdelin cuencia
ĠMade ira
S o
n y
li fer
ch ing
ĠL T
Ġtrans posiciÃ³n
va bles
Ġsa lari
Ġnom br
Ġcontinu ing
Ġvalor izaciÃ³n
Ġrestric t
Ġrestric tivas
ĠÎ± ÏħÏĦ
Ġtermin al
Ġprevent ing
ĠAP PL
Ġtren d
NO K
Ġreli able
Ġlegiti mate
Ġb ot
ĠT able
no v
Ġexpor tados
Ġallow s
Re ference
Ġpudi era
Ġtelecom munications
Ġtren ds
Ġplu rian
Ġacce der
OG A
Ġdiv ulg
Ġnoci vos
Ġdesfa v
ĠConsequ ently
Ġcon cili
ĠI D
Ġaplica dos
Ġdeci dido
ie za
ER N
Ġfij arse
Ġdefini tivamente
ĠX V
Ġagr arios
Ġintermedi ate
Ġ600 61
Ġpomo c
t p
Ġqu ick
Ġes crita
The y
Ġ17 3
Ġk os
Ġadministra tions
Ġparticip ante
Ġcontinu ous
lement ing
Ġpremium s
Ġinm uebles
Ġmaje ure
J PY
Y R
n eces
Ã ¹
Ġo uter
Ġsi de
Ġ34 9
Ġpriv ados
ĠPRO CED
ĠÎ´ Î¹
Ġlleg ado
Ġpudi eran
Ġindirec tamente
Ġfarma c
A CIONES
Ġv ice
id an
ia dos
Ġle ading
Î¹ ÏĥÎ¼
Ġresul ten
ll os
Ġpas o
Ġexclu sion
ĠPR OP
Ġrestric tion
Ġmec Ã¡n
Ġenten derÃ¡n
ĠEvalu aciÃ³n
ĠInvestig aciÃ³n
G E
S uch
en so
ĠT TE
Ġcons iste
Ġunder g
Ġpo dido
ĠZ e
Ġconced a
Ġcif ra
Ġrenew ed
Ġsimult Ã¡nea
Ġla mps
Ġimpor tadas
ven ciÃ³n
Ġform alidades
TI T
Ġcli mate
ĠLeg ge
ĠPROD UC
Ġdispu te
I AL
ed s
Ġsu puesto
Ġexp uesto
Ġfi bre
Ġwhere by
Ġadap tarse
Î³ Î³
Ġestim aciÃ³n
Ġpropon er
Ġsoli d
d f
n do
ĠC AP
Ġpar ent
Ġh echas
Ġar riba
Ġ18 8
Ġsec tions
ĠÃ ª
Ġasi mi
Pro ced
ĠUN DER
Ġov ina
Ġconti enen
Ġhom og
Ġnum eros
ĠpÃ¡g ina
Ġpli ego
Ġpurs ue
I QUE
e os
ed ores
Ġac cident
Ġimp lic
ist Ã¡n
Ġmar inos
ac y
Ġair ports
ĠCa pital
ĠMed iterranean
Ġinciden cia
Ġcolo ur
Ġestan cia
IENT O
ĠDR AM
Ġemis or
C U
i mp
ĠC ateg
Ġimp li
pri ations
ĠacompaÃ± ados
Ġapropia dos
Ġplurian ual
K ING
b ros
Ġd nia
el les
ric o
Ġrefi eran
Ġvol Ãºmenes
Ġtender er
Ġvi tivin
ĠtÃ©r m
Ġpesti cide
Op inion
CZ K
v enta
Ġde ven
Ġac ord
et ro
Ġr Ãº
Ġbas arse
Ġgra pe
Ġnacional idad
Ġmillion s
Ġjusti ficar
Ġestruct ural
Ġexemp ted
ĠVer de
lor o
ĠMedi das
is o
di tion
Ġal quiler
Ġcom mission
iz as
Ġinform Ã¡ticos
Ġmo du
Ġautor itÃł
Ġ17 7
Ġsector iales
Ġexist s
Ġcriter io
Ġwe eks
Ġprepar ado
ĠFe deration
Ġequ ity
Ġauthoriz e
Ġrespe tando
Ġfres ca
iterrÃ¡n eo
4 00
R ule
ula ted
ĠL U
Ġra ise
Ġinten sidad
ĠÃ¡ reas
ĠX T
Ġsegu irÃ¡n
Ġcopi as
Ġthres holds
Ġincrement ar
Ġinmig raciÃ³n
Ġexpl ÃŃci
Ã©an se
n d
ci ence
is chen
ut hor
ect s
ales tin
Ġent ren
Ġpol y
Ġ25 3
Ġdist ur
ĠCo hesion
ĠpÃ¡rraf os
Ġgu berna
ÃŃco las
Ġpow der
US D
ĠTur k
Ġtradi cional
Ġexped ientes
Ġpoultry meat
Ġafect en
Ġdispatch ed
Ġsupri me
Ġoccur red
c ks
r ica
w Ã¡n
res pective
ĠP I
fi able
ĠDe leg
Ġpag ados
ĠvÃ¡li dos
ĠRepresenta nte
Ġesp ir
carb uros
di os
Ġg li
Ġk tÃ³
Ġci viles
Ġ29 5
Ġbu y
Ġcorre lation
Ġir re
Ġarti ficial
Ġitalian e
ĠFE OGA
Ġperci b
ĠPROVISION S
ĠapÃ©n dice
Ġjour ne
n ational
t Ã¤
ti dos
ic on
ul en
Ġal ways
vi er
ĠIn f
Ġ25 0000
Ġexten ding
crib e
Ġkeep ing
ĠBay er
e j
ci endo
un as
ĠM ulti
Ġ19 0
ĠO c
Ġ16 5
Ïħ Î½
Ġaprob ada
Ġregula das
Ġimprove ments
Ġju ventud
Ġflex ibilidad
Ġclasi fic
Ġsoft ware
Ġfor ces
il ings
ĠEn ter
Ġgra v
Ġhab rÃ¡n
Ġampli o
Ġcombin ation
ĠVer ordnung
Ġequal ity
Ġfia bilidad
Ġpil ot
Ġkor una
Ġgobern anza
c ose
h n
Ġca mbi
ĠIn c
Ġsec reto
Ġpas ivos
Ġperj ud
Ġelabor ados
Ġgovern ments
Ġship ping
econ Ã³m
Ġrequir ente
f ar
Ġco bro
Ġ6 11
ĠIn tegra
Ġsup ports
Ġ18 98
Ġdefin ida
Ġlegisla tivo
Ġcommun ity
Ġjusti fy
cos a
Ġporcenta jes
Ġcerti fying
Ġtransi tion
Ġnav igation
ĠIM POR
Ġgradu al
Ġdesh ues
ĠEAG GF
F ran
o ks
Ġwh enever
Ġpos session
AN A
bs erva
Ġcomprob ado
Ġadecuada mente
Ġchallen ges
ÃŃc ti
ĠFA O
Ã¡st ro
Ġmiljo en
p lus
Ġo pon
ÃŃ das
Ġ5 39
ĠG MO
Con s
Ġrepresenta tion
Ġcomercial izados
Ġtom ado
Ġend ors
Ġtermin ated
Ġfuer zas
Ġsuplement arias
Ġces iÃ³n
Ġtract or
Ġreli ef
Ġreex por
ĠMor oc
c tive
ĠD anish
Ġdes cu
Ġtrans position
Ġsta ting
Îµ ÏĦÎ±Î¹
Ġdesign ada
Ġanal ogue
Ġderi va
ĠelectrÃ³n icas
Ġpat tern
Ġmani f
Ġrecib ida
Ġacciden ts
Ġabog ados
Ġespir itu
Ġan ule
Ġac ab
ĠP leno
Ġresiden t
ĠPAR A
ĠIndu stry
Ġley es
Ġquin to
ĠTai wÃ¡n
Ġaprov ech
Ġbille tes
ĠclÃ¡s ica
Ġo z
Ġf en
Ġcon fin
Ġcon duci
ĠD ES
et ary
Ġcom ba
ĠL V
Ġ21 5
Ġ24 5
Ġnom in
ĠTH IS
Ġexclu idos
Ġreconoci da
ĠEUROPE O
Ġperspec tive
Ġdeneg aciÃ³n
Ġstatut ory
Ġaband on
om et
ĠA par
cion ar
Ġg reat
Ġinclu sive
Ġne ither
Ġintern os
Ġvol ver
Ġsuspen der
Ġexen ciones
Ġexperien cias
UBL IC
Ġa bre
Ġd raf
Ġv ÃŃcti
ĠM L
ĠL egal
Ġexp lan
era mente
Ġ18 7
Ġ21 7
Ġequi ta
Ġdefini tivos
hi bi
ĠIN FORM
ĠÎ± ÏĢÎ¿
Ġachie vement
Ġlleg ada
Ġbre ve
product os
Ġutil isation
atell ite
ta ts
ment aria
Ġ6 60
ĠDe li
Ġle aving
Ġle ft
Î± ÏĤ
Ġevalu ations
Ġterritor iales
Ġreci ba
Ġ37 19
ĠX A
Ġrecibi das
ĠAD MINIS
Ġcro p
ĠDis posiciones
i vas
Ã³ ÅĤ
mb ol
ĠM al
ĠÎ ¹
ĠH o
Ġ23 0
Ġexpor tation
pro por
Ġllev arse
Ġinmedia ta
ĠEF TA
ĠCor poration
Ġreda c
ĠYugosla via
SG D
ot ech
Ġas cen
Ġ7 69
gra f
Ġdi vision
pues tos
ĠAg r
pen d
ĠCo ordin
Ġdirect os
ĠAC TIV
Ġagr ario
ĠFe deraciÃ³n
ĠVer ordening
Ġindemn izaciones
Ġdemonst rate
Ġclass ical
quin aria
G BP
y ed
Ġin ul
ĠPar is
Ġgener ation
pi ta
Ġmis ura
Ġaud its
Ġacces orios
Ġtransfronter izos
Ġedi ficios
ĠBelar us
Ġsilves tres
Ġglob ales
O bserv
at Ã©l
Ġdetermin a
Ġaid s
Ġcal i
Ġsal mon
Ġprocess or
Ġestu vi
Ġdisp ens
Ġautom Ã¡tica
Ġharves t
r arÃ¡n
Ġpro ven
Ġ6 13
ĠB et
ĠDe ben
ĠTo das
ĠEx per
Ġfut uras
Ġconfi anza
Ġsometi da
Ġcustom er
Ġconsiderable mente
ĠSte el
Ġoccup ational
Ġaroma tiz
Ġhatch ing
la res
Ġm anti
ĠC re
Ġne ut
Ġwork er
Ġ37 3
Ġtras lados
Ġinterca mbi
ĠREG ARD
ign s
Ġextra ordin
ĠNO T
Ġcat Ã¡stro
Ġprze z
Ġrecono ce
Ġb atch
Ġre iter
Ġre voc
ĠS che
Ġmi tad
ĠF re
ĠO H
id ity
Ġproced ural
ĠÎ Ĺ
Ġ20 5
Ġ22 01
Con di
Ġintro duct
ĠPres up
Ġtransform adores
Ġllev ado
Ġcomplement arios
Ġante laciÃ³n
Ġalcan zado
Ġbio logical
Ġpropag ating
ĠÎ±Î½ Î±
P I
s pa
Ġin mun
Ġes cas
ĠS C
ch ap
Ġfinan ciados
Ġproduc tividad
Ġregula n
Ġace it
Ġposterior i
Ġbio di
Ġpermis os
ĠOM G
Î¯Î± ÏĤ
Ġhom bres
POS I
Å ¯
Ġ Å¾
Ġ3 2004
Ġimp osi
Ġha br
ĠDe f
Ġins uf
mit e
Ġ27 5
Ġdenomin ados
Ġseed s
Ġbar riers
Ġru edas
Ġul terior
product s
ĠplÃ¡tan os
l ut
Ġ ut
or io
os en
Ġm Ã©
Ġcom itÃ©s
Ġas k
oun ced
Ġexp uestas
ÏĦ Îµ
Ġ27 0
Ġindu stries
Ġpart ly
Ġagric ultor
Ġradio active
Ġespecifica dos
Ġinco ar
Ġexped irÃ¡n
Ġsuprim ir
ĠAss ess
ĠEmp res
Ġgras as
n tes
de z
Ġin stance
Ġ5 65
Ġcan al
ag li
Ġir respective
Ġpat rimonio
Ġmig ration
Ġbroad cas
l t
m io
ĠP OS
Ġimpor tado
Ġtrans lation
Ġag encia
Ġta i
ru ecos
Ġpropi edades
Ġcompra dor
Ġacciden te
Ġminer al
Ġmir as
Ġbe ha
ĠS um
Ġac tors
Ġma il
Ġis t
Ġad her
Ġdeb ida
Ġbas ados
Ġsi ÄĻ
Ġop tions
Ġinstitu cional
Ġcap ÃŃtulos
Ġban anas
pp ed
Ġlimi ta
cel ona
Ġembry os
Ġe ine
Ġ4 29
Ġesta ba
Ġpo co
Ġspeci fying
Ġaduan as
Ġcamp a
ĠacompaÃ± amiento
Ġstr ing
Ġdef ence
Ġsw it
ĠTex tile
Ġmonet ary
Ġferrocar ril
Ġe in
ĠA duan
Ġ7 00
Ġob rar
tra g
Ġsubmit ting
Ġpi lo
ĠGobier nos
Ġpac king
ĠCha mber
t ario
al ities
Ġco tizaciÃ³n
Ġcont ents
Ġda t
tern al
Ġdispon drÃ¡n
Ġadap ting
Ġmonth ly
Ġrestric ciÃ³n
Ġfer til
Ġvege table
Ġinflu ence
Ġslaughter ed
ĠmÃ³ viles
ĠJe fe
Ġde mo
ic ar
Ġpar Ã¡met
Ġal s
ĠP IC
ĠCE N
ĠO S
ĠPar ticip
ÅĤ o
UR ES
ĠÎ±ÏĢÏĮ ÏĨÎ±
Ġreda cciÃ³n
Ġcoe ficientes
Ġmollus cs
Ä ģ
Ġc m
im med
ĠU r
EN CI
Ġconstitu ido
ha bili
ĠestÃ¡n dar
ĠOb jective
Sa fety
ampo co
Ġs ites
Ġm isiones
ĠC os
ĠA ra
Ġh ÃŃ
Ġfor est
Ġ3 00000
ĠI A
um ed
ĠDe fini
Ġz ij
Ġplan ificaciÃ³n
Ġ25 9
Ġwas tes
IN T
Ġro utes
pro cess
Ġanterior idad
PR ES
laza mientos
Ġrefus al
Ġware hous
g it
de t
or i
ĠC al
Ġl igh
ĠP os
ĠCon go
ĠB V
Ġsi mp
10 1
Ġutiliz arÃ¡n
Ġcal or
Ġregula doras
ĠRE LA
ĠPlan t
Esta do
ĠcÃ¡r n
Ġp ÅĻ
re ge
Ġmeas uring
Ġ24 4
Ġassess ments
ĠAl gun
Ġmulti annual
Ġasign ado
Ġmodel s
Ġrene wal
Ġacon te
ĠÏĩ Î¿
Ġcorri ente
Ġunanim idad
Ġpie zas
ĠTurk ish
agli ari
h y
ĠA mbi
ter ed
ri j
Ġ3 000
Ġda da
menta do
Ġdu das
Ġafec tada
Ġadj unto
Ġextern os
Ġspecifica tion
govern mental
p res
Ġde duct
Ġp el
ur g
Ġmay ores
Ġadop tados
mit es
Ġaf fix
Ġperiod ic
ĠÃ¡ cido
Ġreci bo
Ġminim is
tug ues
Ġtar de
Ġreform s
Ġconsolida ciÃ³n
ĠÎ¿ ÏĢÎ¿
Ġdecre ase
Ġproc edi
AV ING
E F
di vidu
il s
il ers
Ġcons truct
Ġsi embra
ĠJ o
ks en
gu ales
Ġsubparagraph s
De f
Ġconduct or
Ġst ore
Ġrequer ido
Ġcualifica ciones
Ġsatisfact oria
ĠDecla ration
Ġdestru ction
Ġaco ge
P r
Ġo ld
Ġg ame
ĠReg ister
Ġres tantes
Ġ8 0000
st ra
ĠK ar
ap ard
Ġfut ura
Ġimplica tions
Î¿Ïį Î½
Ġsometer Ã¡
ĠRepresenta tive
Ġautonom ous
i u
Ġde com
Ġh ier
Ġsh ared
Ġex im
Ġar ras
Ġpor tugues
ĠN ame
ĠO THER
ĠG ener
Ġrepresenta tivos
ĠTH AT
Ġ38 2
Ġce ilings
Ġconces sions
Ġreduci rÃ¡
rÃ³ leo
Ġterror ism
Î·Î½ Î¹Îº
Î»Î» Î·Î½Î¹Îº
u do
Ġre lig
Ġd ass
ĠB R
Ġmo bili
Ġinclu yan
ĠRe f
na tada
Ġgener aciÃ³n
Ġprev isi
Ġban co
Ġdom Ã©s
Ġwor den
ĠSlo ven
Ġflex ibility
Ġpron to
Ġtele vision
Ġprorrog ar
Ġrefus ed
Ġpertur b
os os
ar ding
Ġv ers
ĠL ic
Ġtra t
Ġpers ist
ĠW el
AN T
ĠÃ¡ rea
Ġ32 7
ĠEcon om
Ġpen siÃ³n
pp ing
ĠImp le
Ġasegur arse
Ġdead lines
Ġantig u
Ġcatch es
ĠCd R
Ġde posi
ĠC OS
ĠA yudas
tan cy
uri ous
Î» Î±
Ġperman entes
ĠComp eti
Ġfacilita ting
Ġfores tal
a por
a zione
p an
or de
ta lia
te t
te ll
lo ading
Ġevalu ated
Ġcompens atory
Ġconsign ee
Ġcandida tes
ÃŁ na
Ġdiscip lin
ĠBar celona
Î¿Î¹ Î½
lij k
Ġcata log
Ġbreak down
Ġs z
Ġen lace
ĠCom itÃ©s
Ġ3 30
Ġg ase
Ġ26 4
lia bility
Ġconting ent
ĠespecÃŃfica mente
Ġmech an
ĠAss istance
Ġdeba jo
Ġinvo ice
Ġyi eld
Ġstring ent
i vamente
ti a
Ġes co
ĠB re
Ġ23 4
Ġgu ar
Ġmanten erse
Ġspecial ised
Ġregistra das
Ġentr usted
CH F
Ġcorrect ed
Ġinicial mente
Ġconflic to
Ġsul ph
Ġmuch os
Ġexac titud
Ġintel ectual
Ġ ros
te ad
ĠI CES
Ġas ked
Ġpa ga
AS TOS
Ġ48 9
Ġconj untos
Ġpesqu eras
ĠJap Ã³n
ÏĥÏĩ Ïħ
ĠConsi dera
ĠPes ca
R EC
V AL
ta le
Ġlo ading
me tic
ĠV ene
mon th
Ġver siones
Ġcontract uales
Ġexclu de
Ġce ase
Ġresidu al
Ġconven tions
Ġsel lo
Ġaument Ã³
Ġencoura ging
Ġpet rÃ³leo
Ġcontribut ing
Ma ximum
t ores
is a
ĠS apard
Ġex Ã¡menes
ven a
je ta
Ġ20 2
Ġ22 7
ÏĢ ÏĦ
Ġiden tical
vent h
Ġexclu ir
ĠIN S
ĠOf fic
Ġacep tado
Ġmultip licaciÃ³n
Ġcalcular Ã¡
Ġdemocra tic
ĠGeorg ia
M AL
p la
Ġp edir
Ġc ese
Ġw ood
ĠL E
Ġimp uls
Ġr ub
Ġpos sibilities
ud s
Ġposi tions
Ġfe as
Ġpursu ed
ĠSec ond
ag os
til la
crip tion
AM I
Ġrevis ado
Ġconflic tos
Ġumb rales
Ġconverg ence
ĠCI EM
Ġdistil lation
z et
un iden
ra di
Ġpro cur
Ġd alla
ĠI CT
ĠM s
Ġ7 29
Ġag ro
tru ction
Î¿ Ïĥ
Ġmodifica tions
ĠK a
Ġutiliz arÃ¡
Ġrefi era
Ġrealiz a
Î» ÎŃ
Ġfall s
Ġanalys es
ĠDes puÃ©s
Ġestado uniden
Ġcompor tamiento
ÅĦst wa
Ãºr g
Ġcomba tir
h ere
z io
Ġco financiaciÃ³n
ĠS Ã³lo
du ra
ĠÎ ł
car a
ĠMar ruecos
Ġpe ace
mor an
Ġparagra fo
Ġfarmac Ã©u
M YR
b b
m id
Ġa ware
im as
Ġdes natada
Ġz osta
ĠÃ ļ
Ġcontinu ar
Ġnego ciado
Ġcomprom eter
Ġproporcion adas
Ġsk immed
Ġfron tier
Ġdoub ts
ĠAvi ation
Ġring git
g Ã¡n
s ch
Ġt rÃ¡
ĠS ome
Ġg er
Ġdi es
Ġtra mo
Ġch osen
Ġsec ciones
Ġtime table
Ġhol ders
Ġincu bar
TO TAL
Ġcompara tive
Ġconfirm ation
Ġprorrog ados
Ġtecn olÃ³gica
Ġpilo to
Ġe la
ĠS TA
Ġtra tados
Ġz e
Ġempres ario
Ïģ Î±ÏĦÎ¹Îº
Ġconsidera das
Ġafec tan
Ġcorre ction
Ġlimi tation
Ġcombin aciÃ³n
Ġexpres amente
ĠIndu stries
Ġindirec ta
Ġinterval s
ĠComb ined
Ġsistem Ã¡tica
Ġsigui endo
Ġbeha vi
3 10
k ers
Ġa ide
ta form
Ġpro v
ĠA ID
Ġun ion
Ġ3 60
Ġv Ã½
Ã© ral
Ã© tÃ©
isi a
pos e
lu oro
Ã± e
Ġproceden cia
EL C
Ġcul ture
Ġentit lements
bu ilding
Ġmultila terales
Ġinsp ector
Ch apter
Ġreno vables
Ġexced a
ĠOH IM
l ers
n Ã©
in i
or n
ul i
ot ec
Ġi ll
Ġexp uestos
Ġ16 05
Ġutiliz a
ap ters
Ġconsidera da
Ġobjec tions
Ġconven io
ĠQ ual
Ġdese a
Ġzo on
Ġargu ed
ĠPod rÃ¡
Ġsuminist ros
Ġobsta cles
Ġconex iÃ³n
ĠImple mentation
la g
Ġi z
Ġcom ment
Ġcom isiones
ĠV ien
Ġ31 5
Ġ23 71
Ġtom ato
Ġagr arias
Ġconces iones
Ġher rami
Ġpron uncia
Ġfuel s
t ural
Ġa rom
la teral
re dedor
ta Ã±a
ic he
Ġd ro
ĠM Ã©to
Ġ4 11
Ġha cen
lan tic
Ġ17 85
Î¹ ÏĥÏĩÏį
Ġop ciones
Ġcos m
Ġdefini tively
car bon
Ġasi entos
Ġpet rol
Ġretain ed
ĠRegula mento
Dis posiciones
Ġaccu racy
da te
Ġtra ders
Ġch lor
Ġdesign adas
Ġmes h
Ġregula ridad
Ġlu char
Ġalterna tivas
Ġfacul tada
Ġcompr ising
ĠSh ould
Ġharves ted
Ġejecut ar
ĠLeg isla
ĠBras il
Ġinsuf ficient
b ada
z hou
Ġs atÃ©l
Ġv id
il st
Ġ6 75
Ġ7 50
ĠG lo
Ġsolici ten
Ġop position
Ġ24 0
Ġhigh est
Ġremo la
Ġput ting
Ġdirig ida
ĠObserv ations
Ġferrovi ario
Ġfav ore
Ġencamin adas
ĠÏĢÎµ ÏģÎ¹
law ful
Ã©pti mo
ĠMoroc co
S F
b lo
u das
Ġde mas
Ġto p
Ġi da
Ġas pecto
fi li
ĠâĢ ²
Ġdes central
ĠIn dica
Ġ10 49
Ġ18 6
Ġrec yc
Ġrepres ents
Ġconsul tado
Ġrealiz arÃ¡n
Ġfu ego
Ġmembers hip
Ġdisse min
ci des
Ġpar ale
ĠS I
ĠI l
Ġdes crito
con trol
Ġparti ally
ĠH ol
Ġ32 2
ban d
Ġpreci siÃ³n
Ġcli ent
Ġplante a
Ġtemporal mente
Ġofic inas
Ġembala jes
Ġmov imiento
Ãµ es
ĠOver all
rut in
ĠMat ters
u sion
ta cion
cion ado
ĠS hip
ĠP AC
fer a
Ġ8 50
id ing
Ġunder lying
Ġsta ble
Ġ28 8
Ġexpedi dor
ĠCON CL
ĠPRO GR
Ġdef endant
Ġlod ging
Ġsuc urs
Ġdemocra cia
ĠPhili pp
ĠhÃºn gar
ĠAmbi ente
es te
Ġ12 58
Ġdel itos
Ġco as
Ġno ise
Ġad visory
Ġj est
ad van
Ġ20 1
Ġ17 84
ĠAg ents
Ġk una
Ġcomprob aciones
Ġrequi eren
Ġretur ned
ĠÃŃn tegra
Ġcounter vailing
Ġsometer se
Inform ation
Ġdemonstra ted
Ġinspect ores
HR K
Ġsu eca
Ġun lawful
Ġac reed
Ġprodu k
Ġ19 67
ĠÃ ¶
Ġalco h
Ġplen o
Ġdetal lado
Ġrecep tor
Ġarancelari as
Ġstipula ted
discrimin atory
ĠparÃ¡met ros
w ed
Ġc raft
Ġm oment
ed or
Ġdis tance
ĠO bserva
Ġproduc tivity
Ġcooper ar
Ġautoriz arÃ¡n
Ġcorre cciÃ³n
Ġsim ul
ĠMa la
Ġconceder Ã¡n
b be
o logical
r den
z il
ent ro
ÃŃ dos
Ġd y
Ġac red
Ġas ci
Ġ5 42
rig en
Ġdesign arÃ¡
Ġespeci ficar
Ġindustri as
Ġconserv ar
Ġqued ar
Ġtransmiti r
ĠRec urso
Comp atibilidad
Ġtemper atura
ĠNorm as
de re
Ġc ore
Ġs ir
Ġs we
Ġbe et
ĠComm is
Ġdeb ates
Ġfinan ciadas
Ġdefin ing
Ġ26 8
Ġpes cado
ap ur
Ġconcedi Ã³
ĠEspa cio
ĠÎķÎ ļ
Ġpreo cupaciÃ³n
g re
Ã¡ u
Ġ3 98
ĠP ublica
et ra
ĠN ord
ĠG r
of ar
Ġcorrespon dencias
Ġrepresenta tivas
Ġenv ÃŃos
gen ic
Ġtranspar ente
Ġdem uest
Ġdimen siones
ĠRom an
Ġsuprim irÃ¡n
Ġcontrapar tida
D o
ĠD ic
Ġ3 40
Ġcu i
ĠSta to
Ġ25 5
IC E
Ġorganiz ada
ĠÏĥ Ïĩ
Ġcere al
Ġoff ence
Ġfulfil ment
ĠRo ad
Ġabog ado
Ġfav orables
Ġsmo oth
TIT LE
Ġins ofar
Ġmer ger
Ġ21 9
Ġpropues tos
Ġcoordin ar
Ġlocal izaciÃ³n
Re qu
ĠFa x
Ġappoint ment
Ġgri pe
ĠNA CE
E con
a ms
en ia
ti ous
Ġs ÃŃn
ec ciones
di r
Ġex it
ch er
Ġcu an
Ãº lti
Ġta bles
ĠCommit tees
Ġorganiz ar
Ġpen ales
ĠAl to
Ġfacilit arÃ¡n
Ġchemical s
Ġdiagn ostic
Ġgestion ar
Ġcance lled
Ġrun ning
Ġprece dente
ĠCommis sie
Ġb ed
Ġpar cel
ri e
di f
Ġcons ular
Ġtra tar
ES T
Ġ27 6
Ã³g ico
ĠImp orts
Ġproduci r
Ġgen der
Ġcomunica do
Ġmodern izaciÃ³n
Ġprofi tability
z arÃ¡
Ġin con
ĠA po
ĠM it
Ġ20 7
ĠK aza
Ġcual ita
ĠPol ice
Ġambi ental
Ġconcre te
Ġclos ed
Ġdrug s
ĠDepar tment
Ġmata dero
Ġunderg one
apor e
Ġen ce
ur se
ula s
ĠN ombre
cul tural
Ġ19 2
Ġesta dos
Ġca u
ion e
ate ver
Ġdetermin arse
Ġsta mp
ila r
ĠÃ °
Ġexcep tions
duct ores
terin stitu
ĠMed ic
ĠelÃ©ctric as
ĠPh are
Ġnotifi er
ĠStatis tical
E MENT
P AR
Ġco tizaciones
ĠS ingle
Ġi de
im o
Ġpo tas
Ġcondi tional
Ġ20 11
Ġhe ard
Ġcul tura
Ġstandard isation
ĠDirector ate
cilla ry
Ġbehavi our
1 10
G o
er ÃŃas
ĠP ER
se as
Ġcas i
Ġwe a
Ġban da
ĠImp ro
ĠcientÃŃfic as
Ġdri ver
Ġov ine
Ġcuad ros
ĠEnter pr
Observ ations
B E
P a
es tern
la te
Ġs it
ci mientos
Ġo cup
ic ing
Ġsh or
Ġdis advan
ĠÎ ®
Ġnotifica dos
IC ATION
ang ing
Ġindic ando
Ġauditor ÃŃas
Ġproteg idas
ĠTR ANS
Ġconfirm aciÃ³n
ĠOr den
Ġfertil is
u w
ĠA RE
ĠA ELC
Ġcont end
Ġreg olamento
ĠB usiness
Ġval ore
Ġ24 7
Ġpas ado
Ġanal izar
Ġvi tamin
Ġlici taciones
Ġtransmiti rÃ¡n
ĠGi unta
u c
ta king
co mpliance
ĠF ores
Ġ23 2
Ġnational ity
Ġver te
Ġconclu yÃ³
Ġgra de
Ġperj udiciales
Ġderog ar
Ġliber aciÃ³n
Ġeng ines
ick ness
Ġquin ce
ĠTer rit
ĠÎµÎ½ Î¹ÏĥÏĩÏį
Ġwish es
ĠMer cado
Ġdevol ver
ĠSche me
W N
z ing
z ie
Ġde fer
eg ue
Ġ0 30
Ġdeb ÃŃa
ĠG ra
Ġ36 1
Ġvis as
Ġ80 4
Ġvi tal
ĠFinan ci
Ġtri p
Ġcoher ent
Ġbar cos
Ġperspec tiva
Ġadvan ces
Ġdipl om
Ġvuel ta
Ġincorre ct
Ġalcoh Ã³
Ï Ī
do t
tiv idades
ĠS toc
Ġma la
Ġca ble
ĠU SA
Ġ20 6
12 0
Ġoblig ados
ens or
In s
Ar tic
ÏĮ ÏĤ
ĠAN IM
Ġinvol ves
Ġincorpor aciÃ³n
ĠRE F
Ġrepro duc
ĠÏĥÏĦ Î¿
Ġ020 7
ĠAB X
Ġadmisi bles
Ġimmig ration
Ġarras tre
Ġm alla
Ġal rededor
ĠM O
Ġ8 22
pos ed
Ġrela tive
ĠIn terinstitu
Ġk r
Ġ25 6
su b
Ġdesign e
br al
Ġcl othing
ĠDi vision
Ġconstru ed
Ġcumplir se
Ġintermedi os
Ġlec tura
Ġdri ving
ĠGENER AL
I O
R D
ĠS OL
Ġi rÃ¡
se ments
Ġcomp ound
Ġad mitted
Ġsec und
Ġall Ã¡
99 9
Î¼ ÏĨ
Ġcontinu idad
Ġproduci das
IF E
Ġrepercu siÃ³n
Ġmul ta
Ġspa ce
Ġfit ted
ĠSing apore
Ġhubier an
Ġexecut ing
Ġsystema tic
Ġcollabor ation
ĠEjec u
ic s
ĠC la
00 1
ĠA k
ĠCom ision
Ġac lar
Ġrefer s
Ġ10 35
Ġpursu it
Ġfuncion ario
Ġir radi
Î³ Ïī
ĠTa x
Ġprohibi do
Ġdeal ing
Ġnega tiva
Ġtract ores
Ġtemper ature
Ġretras o
Ġlimp ieza
Ġlawy ers
Ġconduc ta
ĠMalay sia
Ġsimul tane
E qui
G ET
ĠR PC
ot ed
Ġpara me
Ġ19 64
ver ty
ĠO AMI
ĠH S
Ġmen s
TI ES
Ġrespect ed
Ġregula dos
Ġcoordin ate
Ġencarg adas
Ġurg ency
Ġinv it
Ġdemocra cy
ĠIceland ic
ĠSing apur
Ġbecom es
Ġinterinstitu cional
ĠNU TS
Econ omic
Ġb os
Ġprodu zcan
ĠIn versiones
Ġbas adas
Ġ20 9
Ġ17 88
Ġamen aza
Ġposi tiva
Ġoblig ado
Ġ28 3
Ġam or
Ġcontribu irÃ¡
Ġorganiz a
Î¯ ÏĥÏĩÏħ
Ġharmon ized
Ġplante ada
ĠOr der
ĠÎµÎ½ Î¯ÏĥÏĩÏħ
Ġpreten de
Ġinvers ores
Ġdeud or
Ġmanif est
ĠPresup uest
H AVING
k on
r us
Ġpro mp
Ġh at
Ġco tt
ĠP oint
ĠM EAS
ree k
Ġ22 2
Ġcla use
Ġgra pes
Ġbi j
Ġirregulari dad
Ġtranscur so
Ġga ma
Ġflow s
ruit ment
irts chaft
Ġcott on
D F
i x
ci sion
Ġcon stante
Ġor gÃ¡n
Ġi guales
ĠP OL
Ġsub stitu
tru cciÃ³n
Ġna val
Ġ27 3
ign ation
Ġcri tical
Ã³r mula
Ġnutri tion
Ġsubstanti ated
ĠProm o
Ġsubra ya
Ġauxili ares
Ġwer den
Ġouter most
N EX
b et
d ri
as ts
Ġh ip
Ġesta tutos
Ġinform Ã³
bre za
ore an
Ġ22 6
Ġincre ases
ĠIN V
Ïī ÏĥÎ·
Ġdesp ren
alle l
Ġsafegu ards
App lica
IDAD ES
Ġdivi ded
Ġmez clas
Ġhumanit arian
Ġirregular ity
Ġcon stan
Ġcon vic
Ġh ops
Ġal ong
ĠP erman
ĠI ra
tÃŃ n
cu pa
Ġsub ordin
ĠIn terior
bi or
gn a
ĠV ia
Ġcor por
Ġform an
Ġpresent aron
Ġexamin ing
Ġpresupuest arias
Ġpat ho
Ġgarantiz ada
Ġporc ent
ĠcÃ¡rn icos
en ing
er ne
un icaciÃ³n
du e
Ġac com
Ġ5 17
Ġaut omatic
Ġsi der
ĠK orean
Ġhe ating
Ġprim arily
Ġver tical
Ġconclu ir
Ġson o
Ġopinion es
Ġlimit arse
Î³ ÏģÎ±
Ġ55 6
Ġresiden tes
TIV E
Ġcomplement ary
Ġinj urious
Ġsuc ces
Ġrecip ientes
ĠrÃ¡ pi
Ġcubier tas
Ġsex ual
Ġcompla in
Ap pro
Ġcorri entes
i li
Ġt una
Ġpar tÃŃ
ĠS U
di um
ĠG al
ĠH el
ES S
Ġ28 7
Ġcla ro
ĠCo hesiÃ³n
Ġexport ar
Ġcontain er
Ġec olÃ³gicos
Ġconcre tamente
Ġpurch as
Ġdiscip lina
Ġcance l
ERS ON
ĠD ist
ĠT ie
Ġso porte
Ġfin ds
Ġfin ished
Ġins tead
Ġcorrespon den
Ġespecial izados
Ġ37 6
Ġ88 3
ĠÎº ÏģÎ±ÏĦÎ¹Îº
ĠPa k
Ã§ Ãµes
Ġopera tivas
Ġdesp lazamientos
Ġdet ri
Ġaqua tic
ĠÏĢÎ± ÏģÎ¬
Ġabar c
Ġfrances as
ĠBra zil
Medi das
Ġdesfav ore
S ection
la dor
Ġac cum
Ã© m
ĠB N
Ġleg ally
urs es
Ġsur plus
Ġpon erse
Ġrecor ding
ĠRec o
Ġsched ule
Ġsc rutin
Seg uridad
u ta
ÃŃ cil
Ġ19 4
ĠO EC
ĠAn ti
Ġpublic ly
Ġdif ÃŃcil
Ġ37 0
Ġ35 8
Ġsecond ary
Ġevent ual
Ġconcent rada
Ġinvi ta
Ġpreven tive
Ġexpres ados
Ġsimpli fy
Ġtransac ciÃ³n
ko v
Ġoffer s
Ġmutu amente
Ġasisti r
Ġcru cial
Ġgene tic
ĠÎµÏĢÎ¹ ÏĩÎµÎ¹
ĠobstÃ¡ culo
Ġkon k
Ġultra per
un es
qu arters
Ġan cillary
ĠIn nov
Ġpo breza
ĠEU POL
Ġ23 8
Ïģ Ïĩ
Ġro und
Ġsatis fies
Ġconfir mar
Ġrelacion ado
tug al
ĠImp ort
Ġregular mente
Ġentr Ã³
Ġfer tiliz
Ġclasifica dos
Ġtecn olÃ³gico
gl ish
Ġsuminist rar
Ġequili bra
ĠÎ¬ ÏģÎ¸
Ġremola cha
n ings
p ien
qu iry
le mento
ch Ã©
od Ã³n
Ġuna ble
Ġr Ã¨glement
ĠG Hz
anti l
Ġna ch
Ġra tional
Ġ27 9
Ġdirec tas
Î¸ ÎµÎ¯
Ġabon arÃ¡
Ġadquiri dos
Ġsatisf action
Ġargu ments
F orm
U na
Ġm oun
ĠA b
Ġman age
Ġcor rup
Ġ22 9
Ġindividu ally
mar ks
Ġpon gan
Ġreun ir
Ġdetal les
Ġencuent ran
Ġatten d
Ġautom Ã³
Ġpollu tants
Ġreda ct
Ġfamili ar
Ġfabrica dos
Ġdescar ga
GU IN
Fin an
Ġarrenda miento
Ġpresi dido
dividu al
R I
S ector
la rÃ¡
ci ma
ĠS ERV
ĠT al
ĠM P
Ġdis con
Ġdis uas
Ġins crib
Ġaprob arse
AD OS
Ġconver ti
LE X
Res oluciÃ³n
Ġja pon
ĠÃģ frica
Qu edan
Ġaceit unas
ci siÃ³n
un o
Ġn ul
si g
ĠS CH
ĠP alestin
Ã© ticas
Ġcom es
Ġas certain
Ġwh atever
Ġdis co
ĠO l
Ġindica tes
Ġref lex
tor ia
AT ED
Ġnorma tivas
Ġofre cen
Ġcapr ine
ĠfÃ¡cil mente
Def endant
Ġcon ducciÃ³n
li hood
Ġor az
fica ciÃ³n
lan do
ĠB io
ĠB AS
ad hesiÃ³n
ac cession
Ġdeci des
ie m
19 93
ĠX IV
Ġenerg Ã©ticos
Ġampli ada
Ġ57 4
Ġarmon izar
Ġarmon izado
Ġenvi ado
Ġshow ed
Ġbar ley
Ġabon os
Ġinteg rante
ĠPre par
Ġtraffic king
Ġnombra miento
ĠNe der
Ġale ga
ĠmÃ©d icos
Ġretro ac
ĠvÃŃn culos
Ġcosm Ã©ticos
ĠsatÃ©l ite
de mi
Ġla te
Ġ4 66
ĠF ar
ĠEn glish
ĠPro teg
ifica tion
Ġadj unt
Ġcoordin ating
Ġprac tic
Ġestudi ar
Ġextra cciÃ³n
Ġopera tiva
Ġbring ing
Ġcontr aria
Ġflu jos
nos ti
Ġupda ting
Ġincen tivos
Ġquien es
Ġvaria ble
Ġhabr ÃŃa
ĠMala sia
Ġc ard
Ġre uti
Ġdo uble
Ġ22 4
Ġorganis e
Ġ24 6
Ġrespon d
Ġcomercial izarse
Ġreci be
Ġgra cias
Ġmat riz
Ġinvi tations
ĠMan ual
Ġappear ing
Ġtele ph
Ġrepe ated
Ġtier ra
ĠSO CI
Ġ605 98
Ġespiritu osas
rden es
Ġa k
si ÄĻ
Ġv or
Ġ19 1
Ġdes echos
ĠÎ ľ
ĠEn mienda
ĠPro cess
ĠAg enda
Ġ30 4
Ġsta y
Ġsubject ed
rea ties
ĠIN D
hol der
Ġexped irÃ¡
Ġflu ctu
.... ....
Ġinsp ectors
Ġclim Ã¡tico
Ġde ter
Ġre ar
ra tic
all ing
Ġwh oles
Ġpre adhesiÃ³n
ver siÃ³n
Ġdes inf
Ġta rea
vis or
Ïģ ÎŃ
Ġconstitu irÃ¡
Ġtom ando
Ġalg odÃ³n
Ġpriv adas
Ġacep tadas
ĠComp et
ĠSer nam
Ġpenal ty
Ġclos ing
Ġcomprue be
Ġdiscapa cidad
Ġtelev isiÃ³n
ĠGlo bal
k ow
ĠP ERSON
Ġ22 5
Ġ21 1
Ïģ Îµ
ĠTh ird
ĠSo lici
Ġventa ja
not es
Ġeficaz mente
Ġadmiti dos
Ġtox ic
Ġneut ral
b ex
g round
Ġm g
un e
ĠM esa
ĠB es
Ġdeci da
Ġpod por
Ġposi ciones
Ġlegisla tiva
ms terdam
Ġdeclara das
ona bles
Ġregula dora
Ġmejor as
Ġiniti ally
ĠÎµ Î»Î»Î·Î½Î¹Îº
Ġprop Ã³sito
Ġvia jes
ĠÎ´ Î¹Î±
ĠDich os
Ġprogres sive
Ġdesp la
Ġsubs titut
Ġacum ulaciÃ³n
Ġfili ales
Ġestric tas
or ÃŃa
ĠA unque
Ġ4 20
Ġ4 00000
ĠJ HA
jer as
Ġinver na
ĠCO UN
Ġsmall er
Ġencarg arÃ¡
Ġjustifica da
Ġcontact os
Ġcubier ta
Ġferrovi arias
Ġanaly tical
Ġafir ma
ĠBeihil fe
ĠAgr ÃŃcola
pend iture
moran dum
la d
Ġla c
Ġ12 51
di eron
Ġex ecutive
ĠN GO
Ġdo or
Ġcertain ty
ron a
Ġsign ing
ell ed
Ġ80 5
IR E
Ġaccompan y
Ġcorrec tamente
Ġfamili ares
Ġlawy er
Ġdesti laciÃ³n
Med iterranean
k an
x y
Ġde pre
Ġp le
Ġc Ã³mo
Ġ1 000000
ĠC e
ĠD rug
ĠP on
il es
ĠEU SR
Ġu it
Î¿ ÏĢÎ¿
Ġ28 47
Ġali mento
Ġcorre cto
Ġtransform ar
ĠMa ÃŁna
Ġlimi tations
Ġtarget ed
ĠelÃ©ctric o
Ġemploye e
Ġfili al
Imp or
ĠPers onal
ĠJapan ese
Ġtej idos
ĠrÃº brica
ĠhÃºngar o
f ron
k Ã©
Ġn ear
Ġpro pri
si o
Ġ3 35
ula do
ĠM ain
Ġ5 77
Ġdi visiÃ³n
pon g
ric os
Ïģ Ïİ
Ġgeneral mente
ap ariciÃ³n
Ġreci ban
Ġafec te
ĠlÃŃ quidos
Ġaddress es
Ġproper ties
Ġgen u
Ġapor taciÃ³n
romagn etic
Ġcolec tiva
ĠVal or
Ġane jo
Ġdrin ks
Ġdisas ters
ĠTraba jo
Ġkr one
Ġaccom mo
ĠÎµÏĢÎ¹ÏĩÎµÎ¹ ÏģÎ®
h us
Ġimp ed
Ġpres tador
Ġent ers
Ġdi aria
Ġcer ci
Ġprofes iÃ³n
Ġmonitor ed
Ġ47 1
Ġvincula da
Ġsix th
L IA
p le
Ġt ribun
ci r
Ġre med
Ġv ary
Ġar ran
Ġ4 13
ĠB or
Ġraz onables
Ġlia ison
Ġsuplement arios
Ġtract ors
Ġzij n
VAL U
0 20
re i
Ã³ l
Ġf Ã³rmula
Ġcon cor
ĠG es
ĠG reek
ph al
Ġra za
Ġne ighbour
Ġspeci ally
Ġrec ti
Ġ21 6
Ġass embly
Ġexamin Ã³
sk i
ĠIM P
Ġenh an
ĠFunda mental
Ġrecla ma
dea vo
Ġvitivin ÃŃcola
S ecciÃ³n
ci ation
Ġan ulaciÃ³n
Ġre ading
ir ing
Ġ4 000
Ġ4 10
Ġaut oma
Ġrefer ring
ui dos
ui cios
ĠRe ference
Ġten or
ER E
Ġvol un
Ġfronter izo
AB LE
Deman dada
Ġdiscus sion
Ġdescrib e
ĠclÃ¡usula s
Ġdin Ã¡m
pong iform
Ġcerci or
C apÃŃtulo
c ol
f ono
Ġe du
ĠS c
Ġex posiciones
il le
Ġdes critas
ĠO B
Ġtrans hip
ĠEU PM
Ġ20 4
Î¹ ÏĥÏĦ
Ġ29 3
Ġsustitu ida
Ġbu ying
Ġte am
Ġclear ance
Ġnor te
Ġtre es
Inform aciÃ³n
siÄĻ bior
Ġ Ä
ĠC T
Ġen deavo
Ġn icht
Ġ3 93
ut ch
Ġ6 20
Ġ20 37
ty cz
reg ional
Ġ26 7
Ġreco urse
OR ES
ĠFor um
ĠÎº Î±
Ġhigh lig
Ġharmon ization
Ġbre vedad
eth yl
Ġlif elong
Ġordin ary
Ġparce las
ĠsimultÃ¡nea mente
Ġvalore m
Ġenhan ced
A g
ent encia
Ġpo verty
Ġcar tera
ber g
Ġass et
Ġsector ial
IS H
ĠÃ ¤
ĠDec ree
bo ok
Ġinde m
del ine
Ġexten siÃ³n
Ġanalys ed
Ġjustifica ciÃ³n
Ġadequ ately
Ġradi ation
ĠConsul tivo
Ġisoglu cosa
Ġmanag er
establish ing
Ġdeparta mentos
Ġquick ly
POSI CIONES
C R
la m
Ġv y
ĠT e
ĠÎ ¤
ĠJ O
vis o
Ġ31 4
Ġab ol
Ġoblig atorias
Ġ29 0
Ġ26 9
ĠFor o
Ġconsist s
LO W
Ġelimin ate
Ġconcedi dos
Ġsignifica tivas
izo o
Ġminer ales
ĠDeli bera
Ġparame ters
Ġultraper if
Ġf als
do va
ĠP ra
Ġwh y
Ġat ra
Ġli bros
Ġparticip a
Ġpublic ar
Ġreci ente
Ġequival encia
Ġlabor ales
Ġpot entially
Ġradi of
ĠGe me
Ġdiscus sions
Ġbul k
Ġoutbre ak
Ġguberna mentales
Ġcoas tal
I s
p df
Ä «
Å ¥
Ġa lo
Ġde ducciÃ³n
Ġex entas
ĠI R
Ġ4 92
ĠL IFE
ĠNo tice
Ġrefer irse
Ġproced an
Ġ17 74
Ġaf ore
Ġplan ting
Ġk o
19 95
Ġinte ll
Ġtender ers
Î¿Ïħ ÏģÎ³
Ġvis its
Ġexpres ada
Ġexped ida
Ġincen tives
ĠfÃ¡ brica
Ġjustific antes
ĠIra q
v ig
y eron
ent ar
ur er
at rege
Ġimp re
Ġdi ario
ca pi
ĠPro ject
Ġout standing
Ġserv ir
Ġ27 8
Ġfut uros
ĠRE UE
ĠGu idance
Ġurg ent
Ġtu vo
Ġapproxim ately
ĠAccording ly
Ġmilitar es
Ġdesembar que
Ġata Ã±e
ĠprohÃŃ be
S u
T en
Ġt iss
ĠE Y
eg os
Ġg ap
fer encias
Ġdis inf
ĠIn gresos
Ġta bla
Ġz w
Ġ26 6
Ġ32 1
Ġrecon s
ĠSo li
Ġfacil ite
Ġpriv ada
Ġobserv adores
Ġlle va
ono u
Ġnit ro
ĠIndones ian
Ġestric tamente
Ġadmisi ble
Ġisoglu cose
ĠhectÃ¡ rea
ĠAssess ment
carbon s
ĠMP UE
Ġafore mentioned
W E
ar di
Ġin ex
Ġl t
Ġun emp
im a
ĠM aritime
ded ores
Ġdes tro
Ġsub productos
lici t
Ġevalu arÃ¡
Ġ34 5
Ġrecei ves
Ġenerg Ã©tico
Ġdiffer enti
Ġjo b
Ġcol d
Ġslaughter house
Ġencuent ra
Por tugal
Ġpola co
Ġaffix ed
ĠRoman ian
LIA MENT
C S
t ech
ĠA U
he id
Ġj ed
st Äħ
ĠJ u
Ġle v
ÏĦ Î¿
valu aciÃ³n
Ġconsider ing
Ġalg Ãºn
Ġconces sion
Ġfunda mento
Ġetique tas
Å¼ y
ĠmarÃŃti mas
Ġdeleg ation
Ġdeleg aciÃ³n
Ġsensi tive
Ġcomputer ised
Ġeas ily
Ġspecimen s
ĠgÃ©n Ã©ral
Ġintell ectual
Ġs atellite
ec en
Ġex acciÃ³n
Ġac a
ĠF ore
Ġneces i
ĠV o
ĠH an
Ġ21 2
IS T
tis ation
Ġlist ing
Ġmin d
Ġinde b
Ġ88 1
Ġperman e
Ã¼ n
Ġelimin ation
ĠPAR LAMENTO
Ġpriorit arios
ĠGreen land
Ġmanip ulaciÃ³n
amb lea
Ġexpla ined
F A
T able
h me
p ru
Ġ `
Ġin dents
Ġre habili
da t
le tÃŃn
Ġsu ms
Ġco finan
ĠD et
ĠP ET
Ã© cn
vi liz
ĠEsta tutos
Ġdeb tor
titu de
Ġch ic
Ġcal ef
ell en
Ġ85 3
ĠPAR LIAMENT
Î² Î¬
ĠIns pec
ĠForm aciÃ³n
Ġgras a
Ġhin capi
Ġhincapi Ã©
ar as
it ario
Ġd icta
ter ne
Ġh og
at ric
ĠT IC
ĠReg ist
ĠM AY
Ġ4 96
ĠL ond
ĠF ri
Ġad vers
Ġ20 12
Ġab ri
Ġk W
Ġ22 20
Ġ27 7
ll ing
Ġmin utes
Ġmu cho
Ġconserv as
Ġship ments
Ġimpres o
Ġclos ure
Ġbalan ced
Ġobject s
Ġfich a
Ġenar bo
Ġremol ques
Ġdistur b
K S
Ġp ul
du ced
Ġex ija
Ġdes ec
ĠEC ON
Ġ30 3
ĠÃºlti mas
ĠaÃ±a den
Ġrecur ri
Ġobserv ancia
Ġfre ight
Ġjustifica dos
ĠelÃ©ct rica
abl ed
Ġhea vy
Ġerr ors
Ġhist or
cut ting
ĠZe landa
m m
Ä ¾
Ġs light
ĠE f
ĠA mendments
Ġ4 40
Ġmi tig
Ġr uido
ĠG a
Ġ22 3
Ġautoriz arÃ¡
14 0
Ġresidu ales
Ġwor ding
Ex p
Ġflu or
Ġfail ed
Ġfil es
Ġeco logical
Ġpartnership s
tribu ciones
ĠDemoc rÃ¡tica
Ġbos ques
en den
Ġde central
ro ad
Ġin dones
ĠC rÃ©ditos
Ã¡ ce
ĠD ire
Ġac ta
Ġpor men
ĠReg iÃ³n
ĠJ AI
ene urs
Ġten dencia
Ġmodifica das
Ġ23 3
Ġfir me
ÏĢ Îµ
11 1
ENT E
Ġsee king
Ġvacun as
Ã¥ n
Ġfail s
Ġadvan tages
ĠNa cional
Ġwar ning
Ġsex to
ĠAss embly
g ener
er ed
ta la
ent ure
Ġw ÅĤad
ĠD utch
us to
ĠI B
ĠB ene
Ġmar c
Ġmen tion
Ġ21 3
Ġdist ributed
Ġinf ected
Ġ32 8
Ġfar ms
Ġperman ecer
Ġcompens ating
Ġapo ya
Ġpon ga
Pro duct
ÅĽ Äĩ
Ġprefer encias
Ġven dedor
Ġauditor s
Ġcontact s
Ġepi demi
ĠCondi ciones
ĠcÃ¡ mar
ĠÃŃntegra mente
A ct
G re
z ni
on Ãº
la st
Ġm ln
du ce
Ġwh ilst
ĠCE LEX
ÃŃs tico
Ġinves tors
ll en
Ġgra vedad
Ġproduci da
Ġenumer an
Ġprefer encial
ÄĻ d
ĠOrgan ization
ĠbÃ¡s ico
Ġestima do
Sub total
Ġmission s
ĠServi cios
Ġaler ta
Ġinverna dero
B LE
a ded
m Ã³s
res t
Ġres istencia
Ġad ul
Ġdi pu
rib uido
Ġne vertheless
rig ht
Ġespecifica do
Ġexerci sed
Ġcoher ence
Ġalcohol ic
Ġven didos
Ġexclusi va
ĠFa cil
Ġprotect ing
Ġestima ciones
Ġdibu jo
Ġmatric ulaciÃ³n
Ġaudi encia
ĠDeuts ch
Ġenjo y
CONSIDER ANDO
Ġgenu ine
P er
h l
y ac
Î £
Ġt orno
Ġs int
ci pe
ta b
Ġin ward
ic an
ĠC A
Ġpar allel
ĠN M
Ġpres tados
Ġ8 47
Ġtra ce
Ġunder sto
Ġus t
mi taciÃ³n
lic he
Ġ29 8
AR TICLE
ona bly
ow i
Ġexig irÃ¡n
Ġtrata mientos
Ġcoll ect
ĠÃ³ rdenes
Î´ Î¿
Ġproteg ida
Ġsustaina bility
Ġreser ved
Ġconcentra tions
ĠquÃŃm icas
gl ose
ĠÎķÎ Ŀ
ĠBer lin
ĠCot onou
Ġcontes ted
Ġeslo vaca
Ġcha ired
Ġautoma tically
stÄħ pien
Ġcalef acciÃ³n
D C
on ancia
la ck
Ġm Ãºlti
un ciÃ³n
si va
ĠS el
ĠG ene
fin es
Ġpla taform
Ġcos metic
itu de
AN IA
AR E
Ġcriter ion
Ġrig uros
Ġgu iones
Ġmanten drÃ¡
Ġindepen dence
Ġvia ble
Ġtri mes
Ġstric tly
Ġforra jes
ĠAbs atz
3 00
B e
R O
S S
T ÃįTULO
U SION
f Ã¶r
g ip
ĠD U
Ġcu mula
gra da
bi dos
Ġfi bres
Ġsta tions
ĠK G
Ġ29 9
ystem s
Ġcorrespon dencia
Ġactual izar
Ġvis it
Ġexig idas
Ġnego cia
ÅĤ u
Ġreti radas
Ġlike lihood
Ġsti mula
Ġvincula nte
Ġencoura ged
Ġelev ada
Ġru tas
Ġproba bilidad
Ġaleg Ã³
Ġitalian as
Ġdisclos ed
ĠSTAT E
Ġaux ÃŃ
Sal do
Ġjourne y
Ġaconte cimientos
ĠtrÃ¡ mites
Ġaclar ar
Ġundersto od
E UR
O f
Î Ł
ĠA msterdam
ĠP oli
Ġfin ding
ĠG ASTOS
Ġfa una
ĠPro duction
Ġne er
no te
Ġempres arios
Ġtom en
ĠY ear
Ġcl or
Ġrespe ten
Ġpropiet ario
ecta re
Ġendors ed
bral tar
Ġnul idad
Ġes ter
Ġcu ida
Ġcorrespon dan
pro fes
66 3
Ġexig irÃ¡
ĠÎº Î¿Î¹Î½
Ġcomplement ario
Ġuniform es
Ġfronter izos
Ġblan do
Ġacce ler
Ġlevi ed
ĠMol dova
Ġgreen house
Ġestadouniden se
o b
p ino
t form
u en
Ġp ed
Ġo ur
Ġen ding
Ġpro lifer
et u
Ġesta bilizaciÃ³n
um s
Ġtra ilers
Ġsolici tÃ³
Ġgener ated
Ġindica tivo
Ġcooper ative
Ġparticip an
Ġ40 8
Ġprevi as
IT OR
Ġ39 6
Ġph y
Ġcontamin ated
Ġpat Ã³
Ġmix ed
Ġaudit ores
ĠEnviron mental
ĠÃī tat
Ġsupedi tada
ĠvÃŃcti mas
dif usiÃ³n
F urther
V EL
e ous
s ver
w or
la ment
ti ene
Ã¡ t
Ġdel imi
ĠD V
Ġcu bre
el Ã©ct
ĠUn it
ĠH y
tin u
Ġobje ciones
mun ication
Ġadi ciÃ³n
ÎµÎ¹ Î±
ĠaÃ±adi r
Ob lig
Ġposterior idad
Ġdesp ite
Ġapproach es
ĠGi braltar
ÏĮÏĦ Î·
ĠDu bl
Ġstress es
ĠMiemb ros
Ġrestra int
ĠEjecu tivo
ĠBN FL
Ġtribun ales
Ġedu ca
Ġradiof re
A mendments
l le
p y
Ġen cen
Ġre organ
Ã¡ mp
ĠS ol
ĠS ie
Ġis lands
ge ar
Ġpr inted
Ġform ation
ĠK yo
ens us
Ġmis le
Ġreco ge
Ġdirec tion
Ġreci entes
ĠMa uri
Ġeduc ational
Ġcontamin ation
Ġenvi arÃ¡n
Cu adro
Ġintroduci rse
Ġremain ed
Ġremiti rÃ¡n
ĠON G
Ġcounter fe
Ġevol ution
Ãļ BL
Ġdemas iado
a ks
Ã ĸ
Ġre ven
Ġ4 27
Ġfin d
Ġunder go
Ġautoriz arse
Ġissu er
Ġlan ding
rÃ³ geno
Ġdipl omatic
Ġformula das
ĠÏħ ÏĢÎ¿
ĠIndustri a
Ġbalan ces
b in
ti po
is tÃŃ
Ġre e
ĠA Ã±o
ĠR ap
ĠP O
ĠP la
min o
Ġinter media
Ġimpor tar
Ġr uman
ero g
Ġsa ving
Ġ30 6
Ġgo als
Ïģ ÎµÎ¯
of luoro
Ġce bada
Ġpen sions
Ġchec a
cha fts
Ġenvi arse
Ġnega tivo
Sta ff
ĠDemoc ratic
ĠGN I
ĠObserva ciones
ĠOEC D
7 000
k ta
Ġa mi
ĠC agliari
Ġen z
Ġen com
Ġre a
ĠE gy
Ġh ectare
ch t
Ġsec retarÃŃa
Ġdist ric
Ġver ific
Î¼ Îµ
Ġequip ped
Ġagr aria
Ġobten idas
Ġsp ot
Ġacep table
ÏģÎ¿ Ïį
ÏĨ Î¬
Ġdesp lazamiento
Ġinv ite
Ġcubier to
Ġdecre to
Ġdeal t
Ġrecipro cal
Ġpharma ce
Ġdivulg aciÃ³n
Ġtomato es
ĠFore ign
r ich
Ġre liability
mb a
ĠS tock
Ã© fono
ĠF our
Ġcons onancia
Ġrep ayment
Ġpos sess
Ġefec tivos
Ġcomer ci
ĠCh ain
Ġadap ta
Ġperj uicios
Ġcompens atorias
Ġlar ga
Ġsy mbol
Ġpreve a
Ġaccion istas
Ġhon or
ĠMEAS URES
ĠDeutsch land
O per
si vo
ĠT V
Ġg ather
ĠP M
der ÃŃa
Ġcor ta
Ġout lined
Î± Ïĥ
TI L
Î¯ ÎµÏĤ
Ġequival ence
Ġintegra da
Ġacep ta
Ġrecur rence
ĠRegional e
Ġterror ist
Ġdang er
Sta te
Apar atos
ĠOC DE
Ġjara be
ĠcatÃ¡stro fes
Ġsulph ur
ĠA V
Ġap la
Ġap ariciÃ³n
ĠS ra
Ġal tamente
Ġcu er
ist en
Ġj uicio
Ġcar bur
ud gment
ca ciones
Ġproduc en
ru mp
Ġcre di
Ġdispon en
Ġte ach
Ġsatis fying
Ġexten sive
ĠZ i
Ġoc ur
Ġexpres a
Ġreti re
culos is
Ġocas iones
Ġrendi mientos
Ġsupervis ar
Ġqualifica tion
Ġfavorable mente
ĠCot onÃº
ĠKyo to
D ec
b ack
Â ·
Ġt ampoco
Ġp ec
ti tion
Ġan ch
ĠT it
Ġapp ra
Ġr uso
EC H
tan o
gn etic
Ġ31 6
Ġcorrespon ds
ĠMar tin
Ġejer zan
AD E
Ġ46 1
Ġconsign ed
ef t
Ġespa Ã±o
Ġpig meat
Ġimpres e
Ġliberal izaciÃ³n
Ġscho ol
ĠPresupuest aria
Ġremed y
ĠC ana
Ġb at
te x
ÃŃ do
ĠP C
ĠP ayments
ari l
cer o
Ġ23 6
Ġgran el
Ġexa ct
Ġcr ÃŃ
Ġexig idos
Ġlabor ables
ĠBo x
Ġhacer lo
ile o
ĠcÃ¡l culos
Ġplu ri
Ġfron t
ĠmÃ³ vil
bes tos
ĠDetermin aciÃ³n
spa ce
A fter
Ġe va
Ġd al
tr Ã³
Ġpre clu
Ġ7 30
ĠO li
Ġpa ge
port una
Ġ11 64
ĠUn iver
Ġsa ve
Ġ27 99
Ġadap tations
Ġtom ates
Ġcompens ate
ID E
Ġgarantiz ados
Ġenvi adas
Ġmix tures
Ġadvan ced
Ãºs qu
Îĳ Îķ
Ġhubier en
ĠEduc ation
ĠÎķÎĿ ÎĳÎķ
Ġo portuna
ĠC ari
ĠC lass
ĠA ce
Ġdis par
Ġsec ured
Ġ27 1
Ġparticip ant
Ġcover age
Ġfu sion
Ġabo li
Ġimpact s
Ġdisp utes
Ġadquiri r
Ġsecret ariat
ike la
P od
ti ms
Ġ4 65
Ġ5 19
ia da
tain ing
ĠEn s
Ġ31 1
jec tion
Ġcal ificaciÃ³n
Ġini ciales
Ġfe w
Ġelect ric
25 000
Ġexig encia
Ġsubsi d
Ġkno w
ĠES TAD
Ġremo ve
Ġsignifica tivos
Ġsimplifica do
Ġbank notes
Ġdispos ed
Ġstric t
ĠÅĽrod kÃ³w
ĠGMO s
L R
p ment
ent en
ĠM A
ĠSta bilisation
Ġdis abled
Ġdes critos
um i
el es
ĠJ V
Ġcar bÃ³n
Ġprovision es
ht tp
ĠPol y
Ġlici tadores
Ġproporcion arÃ¡
Ġcross ing
Ġfacilit en
Ġenh ancing
Ġentire ly
ĠestratÃ©g ico
ĠREP UBLIC
Ġatmos f
Ġmotiva da
Ġvolun tad
ĠCana dian
L Y
s er
u mb
Ġ12 000
Ġn ine
ĠT or
ĠT SE
ĠM I
Ġma xim
Ġ5 11
ĠF Ã¶rder
Ġent rado
je tivos
Ġmen sa
Ġ16 96
ER IA
12 7
Ġali gn
Ġexig ida
Ġreason ed
Ġacqu ire
Ġdepos ited
Ġdefici encies
Ġaleg aciones
Ġcolec tivos
ĠTel ecom
Ġreaseg uros
Ġdemues tra
Ġherrami entas
Ġwea pons
Ġnitro gen
p od
u k
in k
Ġc Ã¡s
li ke
ĠR h
Ġ6 30
ĠCon form
ĠB ur
par k
Ġposi tivo
Ġdist ribut
Ġconclu des
Ġcomple mento
ĠCo pen
Th ere
Ġsur tirÃ¡
Ã³g icos
Ġtrabaj ar
Ġvi vi
Ġ46 4
Ġequ ally
Ġcaus as
Ġindic arÃ¡n
ĠMe et
Ġradio difusiÃ³n
AND A
Ġprote in
Ġbran ch
Ġaisla miento
Ġradiac tivos
Ġfol le
c tional
en ca
Ġs ph
ÃŃ es
Ġd la
ri er
ĠR NB
Ġex entos
ĠO ct
Ġu b
Ġz ero
Ġdirect ed
Ġreas onably
ĠÎµ Î³Î³
Ġpot enci
TA IN
Ġdisp lay
Ġshare holders
ĠDeber Ã¡
lich en
ĠactÃº e
Ġsyn erg
Ġimplan taciÃ³n
Ġackno wledge
ĠC ri
qu ina
ÃŃ rit
Ġd arse
ĠS ach
Ġ3 68
Ġv end
Ġsh aring
Ġaut enti
Ġpre val
Ġ31 9
Ġten dencias
Ġcontin Ãº
ĠEx teriores
Ġprev Ã©n
Ġvi vas
Ġban king
Ġsepar aciÃ³n
mil k
Ġciu dades
Ġfacul tadas
Ġgene al
Ġcapr ina
Ġejempla res
Ġaccu rate
Ġpropiet arios
ÃŃrit u
C rÃ©ditos
N Ãºmero
t ent
Ġa va
Ġb lu
Ġpro b
ĠA PL
der as
il ed
tan g
ĠV Ã¤
Ġsup ed
Ġinves tor
ine a
Ġconta biliz
Ġ33 7
Ġprepar atory
Ġconten ida
Ġevent ualmente
Ġreduci da
ĠComp ens
Ġprefer ences
Ġconjun tas
Ġrecu erda
Ġsubs istence
Ġov ino
ĠÏĢÏģÎ¿ Î²
Ġesp ÃŃritu
Ġatt ributed
ĠÏĢÎ± ÏģÎ±
pers on
Ġprzy stÄħpien
ĠlingÃ¼ ÃŃstica
ĠTechnolog y
Ġrecopi laciÃ³n
Ġexter no
uds man
z Ã³
ta li
Ġin side
Ġn ar
Ġco al
Ġco ins
Ġinter cultural
den ti
Ġlo ad
Ġtrans mita
ac ji
ĠÃ ¥
Ġdif undi
66 9
ĠFe dera
ĠÎº Î±Î½
Ġjustifica tion
TE E
Ġintermedi o
ĠIns urance
Ġrefl ected
Ġreca uda
Ġga ve
zen ie
Ġfl ora
ĠADMINIS TRA
gip to
S H
d on
Ġde duction
Ġin gen
Ġor na
ĠP an
Ġ4 30
Ġ5 69
ure a
Ġtrans national
Ġcompet ences
ie j
ÏĦ Î®
Ġrec ently
Ġexpor tadas
ĠK ins
Ġ24 9
Ġnet s
Ġambi entales
Ġauthoriz ations
Ġvia bility
Ġpass ed
Ġextra cto
ĠMe jor
Ġfr utos
ĠAdministra tion
ĠSub si
Ġconstitut ing
ĠConclu siones
has a
Ġdesta ca
Ġacorda do
bol en
Ġepidem iological
ĠOS CE
Ġdeduct ed
Ġsider Ãºrg
ĠKins hasa
2 10
B O
F F
N ot
Ġth er
Ġb in
Ġfor fe
ĠM S
vi lu
Ġ6 18
Ġat mÃ³s
Ġcar a
Ġperiod ically
Ġcre ciente
Ġnotifica das
Ġ38 6
Ġfar med
Ġte ams
ĠPol icÃŃa
Ġpot enciales
dor ra
Ġdepen dent
ĠHa ya
ĠConstitu ciÃ³n
Ġforese e
Ġhea dings
Ġrecla maciÃ³n
Ġinsu ficiente
Ġdetect ar
Ġexplici tly
Ġreexpor taciÃ³n
Ġrecyc ling
n it
Ġf om
ĠT un
ĠM id
Ġas bestos
Ġ4 75
Ġimp era
Ġimp one
Ġesta ban
Ġdis su
ĠG M
tain able
Ġne o
TI TU
Ġcirc ular
Ã¤ hr
Ġejer za
ĠPR E
Î¬ Î´
ĠKom isi
Ġmas ter
Ġprof undi
Ġcombusti Ã³n
Ġmagn es
ĠSuper visor
Ġenar bolen
Ġvic tims
ĠMateri al
Ġasci ende
ĠGal ileo
er ve
le ts
Ġco c
Ġ3 99
ation ally
Ġres pira
Ġpa d
Ġsub ter
Ġcar g
Ġefec tivas
Ġdecla rar
IN CI
Ġtime ly
Ġemple ado
pp o
Ġconfi dence
ĠAt lantic
Ġsosten ibilidad
Ex cep
Ġpala bra
Annex es
ĠServi cio
Ġpure za
Ġmechan ical
ĠInterinstitu tional
O C
l om
m Ã¡n
os ten
Ġe ficiente
Ġcon o
ĠE ast
Ġse aled
tiv itÃł
Ġun iÃ³n
et us
Ġon t
ĠCE R
Ġinter ino
Ġins truct
ca re
pen ing
Ġover seas
Ġpublica ciones
urs ed
ĠEx ternal
28 0
Ġair space
Ġlici tador
Ġproporcion ada
Ġess ere
ĠComp on
Ġcomunica da
Ġwater way
Ġconfer ence
Ġemiti r
Ġtoler ancia
Ġrestring ir
ĠreÃºn an
Ġanaly se
ĠlingÃ¼ ÃŃsticas
Ġhidro carburos
ĠCateg ory
ĠcÃ¡s cara
L o
V A
w ear
ĠC ity
qu ality
Ġcon vo
Ġan o
Ġco urses
ĠS im
ĠP UR
ch i
Ġ6 12
Ġ6 92
Ġ7 96
Ġdes can
ĠIn sta
Ġ25 2
Ġrec ruitment
ĠK on
Ġdestin ed
Ġactual izada
Ġllev adas
Ġgui de
Ġcoll ecting
An tes
Ġsen sible
ĠOrgan ismo
ĠAD OP
Ġejecu tiva
ĠConclu sion
Ġmonet aria
Ġaerona ve
Ġprovin cia
Ġpesti cides
Ġflavo ur
Ġmuer te
Ġtuber culosis
lÃ¡n tico
Ġsubter rÃ¡n
m ot
v ate
Ġde duc
do le
Ġpro tocolo
Ġd im
Ġi on
cu rio
Ġag o
Ġ31 0
Ġhe eft
Ġbene fi
Ġfinal izar
Ġobjec tion
Ġanal iz
Ġprac tica
Ġregla menta
ĠInter est
Ġoffer ing
Ġincu b
Ġinflu encia
Esta s
Ġdemoc rÃ¡
Ġmultip lica
Ġcalculation s
Ġmul tas
Ġlaun ched
ÏģÎ· Î³
ĠEgy pt
Ãºsqu eda
y ar
y al
la bel
ti ers
Ġlos t
Ġque de
Ġfor ordning
ĠM ex
ĠAr mon
Ġdes glose
Ġorganis ational
Ġconstitu yan
Ġcontribu ye
Ġaprob arÃ¡n
Ġ36 5
Ġsp ent
TA KING
Ġoli ves
Ġdef ecto
Ġsum mar
Ġcho ose
ĠNCB s
ĠStand ard
Ġfertilis ers
i ro
Ġde ce
Ġs ter
ĠA f
ĠS tar
ĠP uesto
ĠI m
Ã© t
Ġ4 58
Ġpos si
ĠLa bor
Ġpod ÃŃa
Ġch inos
Ġk an
Ġ23 1
Ġconstitu ida
Ġ35 000
ATION AL
Ġche ese
ĠES P
Ã¨ s
Ġexpos ed
Ġargu mentos
Ġblo ck
Ġnega tivos
ĠConclu sions
ĠCC AM
Î¯Î½ Î±Î¹
Ġdeven g
Ġdy nam
Ġautenti cidad
A W
Z AMB
g h
h ren
s hip
z ania
la ys
Ġc el
ar t
da fric
Ã¡ frica
Ġno v
ĠIn tro
Ġdetermin Ã³
za miento
ĠDE FIN
ges etz
Ġtech n
Ġexce der
Ġexpres sion
Ġrevis arÃ¡
Ġinteg ridad
Ġmig raciÃ³n
Ġcitizens hip
Ġquarter ly
Ġconcer ted
Ġespecific an
Ġackno wled
Ġsacrifica dos
Ġpel ÃŃ
Finan cial
S entencia
V M
Ä Ĺ
en ie
or erÃŃa
ro w
Ġin voc
as ive
Ġre mit
Ġsu dafric
Ġh ers
ĠP CB
tr en
Ġta ck
Ġ27 92
Ġcan adi
Ġ32 4
ĠÎµ Î¯Î½Î±Î¹
Î¸ Î¼
Ġ66 2
Ġexpres adas
pel lan
Ġpeque Ã±a
Ġfacul ta
Ġpub li
ĠÏĥÏĦ Î¹ÏĤ
Ġincen tive
Ġconstitut ed
Ġentire ty
Ġtw el
ĠÏĩÎ¿ ÏģÎ·Î³
Ġtrat tato
Ġdissu asive
G H
S h
W HER
w here
Ġb ra
Ġ9 0000
ĠT est
Ġcom enz
ĠAn dorra
ĠIn dian
graph ic
Ġ30 5
ĠW ater
ne ming
13 0
Ġdos is
bas es
ĠMin isters
Ġembar caciones
ĠCan arias
Ġaso ciadas
Ġelev ados
Ġcorrec ciones
ĠAli mentaria
Ġrefug iados
ĠExcep t
Ġsecon ded
Ġdespren de
ĠNGO s
Ġindeb idamente
terne hmen
vilu ppo
ĠCCAM LR
A ut
B UR
C M
I K
T EN
Ġde ep
Ġcu ader
Ġca ught
Ġad ult
Ġad missible
ĠIn clu
Ġout put
ÏĦ Î·
oper ating
Ġ29 2
ĠW estern
Ġnue ve
Ġdata bases
vol tage
Ġrelativa mente
Ġcap tive
Ġactual izado
Ġ39 7
Ġtes orerÃŃa
Ġindic arse
Ġintroduci das
ĠÏĦÎ¿Ïħ ÏĤ
Ġvisi ta
uf re
Ġbival vos
T C
V al
la rÃ¡n
ĠA dap
Ġes cue
ĠIn iti
st ream
Ġmodi fy
Ġ31 3
Ġsolici tados
TI FIC
Ġ27 2
Ġmanten ga
AD O
Ġlab els
ĠmarÃŃti mos
ij an
ĠCOMM IT
ĠDetermin ation
Ġconstruct ed
ĠOffic er
W e
c adores
i ence
Ġin gres
Ġn ues
ĠE gipto
ĠM Ã¡
Ġis o
Ġ6 17
Ġ6 28
ĠG reat
Ġaplica cion
Ġcomun idad
Ġ27 4
Ġsin erg
20 8
Ġrealiz an
Ġexclu idas
be it
Ġsubpar tidas
AT A
Ġcompens ar
ĠSi x
Ġevent uales
ĠImp act
Ġfran Ã§a
Ġciudad anÃŃa
Ġanticip ado
Ġfulfil s
ĠÃŃn dices
ĠEF F
Un der
Ġtoler ance
Ġdeli bera
ĠApplica tion
Ġdisminu yÃ³
Ġsolidar idad
ĠResul ta
Ġpercep ciÃ³n
G S
j era
ci cle
Ġin put
ĠC CI
Ġen cima
Ġre ag
Ġres um
Ġdes pi
Ġfi je
Ġ25 71
Ïģ Î¿Ïħ
Ġ26 3
tis h
Ġfij os
In gresos
Ġgaranti za
Ġtransfer able
Ġcompens adores
Ġcompens atorio
Ġown ed
Ġim mo
Ġincorpor ado
To das
Ġfulf illing
ĠCan ary
Ġconsoli dation
Ġintroduci do
Ġdemand antes
Ġexpir arÃ¡
Ġrequer idas
ness es
Ġfil ed
ĠCer tain
Ġpondera da
ĠChemical s
Ġnegoci ar
Ã³x ido
ĠCONCL USION
c ra
f ish
v at
Ġ12 90
om os
ĠE as
ec k
mb udsman
Ġac tively
ĠComm er
he ld
Ġ5 13
Ġdi lig
Ġautor itÃ©s
Ġbas arÃ¡
ĠV IS
Ġexpor tado
ER G
get to
Ġ32 5
bo wiÄħ
anu fact
ĠIN F
AP H
Ġrecogn ise
Ġjusti fiquen
Ġlab elled
Ġtermin ales
Ġdev uel
Ġâ Ī
Ġcualifica ciÃ³n
Ġju bi
Ġpl Ã¡s
Ġahor ro
ĠestratÃ©g ica
Ġvio laciÃ³n
Ġfrances a
ĠEvalu ation
ĠperiÃ³d icas
Ġvaria bles
Ġatmos ph
Ġcoopera tivas
Ġaltern ate
ĠPue blo
. -
B RE
R ep
u pe
ĠC U
Ġd rogas
Ġun loading
ĠS IT
ĠD an
Ġac la
cia da
Ġca ja
ĠO IE
lan eous
Ġdo c
Ġr urales
Ġseg uido
ca to
Ġdestin os
Ġrespon dan
Ġfact ory
Ġcompens atorios
Î® Î¸Î·Îº
Ġcaracter es
Ġcuestion arios
Ġexpress ly
Ġven dido
Ġenfor ce
Ġaus tral
Ġobser vers
cel laneous
Ġexces ivo
ĠYugosla v
ĠAustral ian
Ġbival ve
L e
S ectores
ta g
ĠE mpleo
Ġse en
Ġv ine
Ġ4 28
den tial
ĠB ol
Ġpa z
posi tivos
ES TI
Ġ24 08
Ġinvestig adores
IN A
IC P
Ġreci entemente
Ġinte lig
Ġsol vencia
Ġconduct ores
Ġdepen de
Ġpros per
Ġadquiri do
ĠIM O
Ġdipl oma
ĠYugosla va
Ġrapid ly
Ġprzed siÄĻbior
Ġwi der
Ġforec ast
Ġsecre cy
zÄħ d
Ġtai landÃ©s
Ġneo ze
Ġin ac
Ã¡ tr
mb o
ĠM et
tu vi
ĠL om
ĠCon tract
Ġ93 6
ĠO tras
Ġent ran
ĠPar ÃŃs
Ġpos ea
ĠRe view
Ġ25 7
Ġci vi
Ġreal idad
Ġrepresenta tivo
99 3
ID AS
Ġcaus ado
Ġcompren de
LE MENT
Ġreun irÃ¡
Ġdese en
ĠLe ban
ĠHa mbur
Ġshe ets
PR O
Ġabier tos
ĠExp lan
Ġempren der
ĠParagraph s
Ġcoin cide
Ġjapon Ã©s
ÃļBL ICA
z ona
Ġp y
Ġc ÃŃ
un i
Ġh ous
Ġdo pra
Ġcer do
Ġ30 30
Ïĥ Î±
19 0
Ġfinal ice
Ġgro wn
ĠÎ± ÏģÏĩ
Ġrecibi dos
Ġgeog rÃ¡fico
Ġ600 34
Res ul
Ġdeposit ario
ĠRuman ia
ĠConstitu tion
Ġfurn ished
Ġlevi es
Ġultraperif Ã©ricas
L F
Ġh orm
ĠS istemas
ĠL M
Ġinform al
Ġcons tra
ĠPro visions
12 5
Ġmencion an
Ġ38 0
ĠJun ta
Ġ33 3
Ġwe ak
AT OR
Ġaz ufre
Ġestudi antes
gg io
Ġfil m
ĠLo cal
Ġdej ar
OD S
ĠmÃ³ d
ĠGui deline
ĠHarmon ised
Ġsemin arios
-------- --------
ĠOP ER
ĠPROGR AM
S up
T ras
z on
Ġ Å¡
Ġde lan
Ġre act
Ġel ecciones
Ġ4 15
ĠN i
Ġ7 0000
ĠB A
Ġautor ice
rit Ã¡n
ĠEn g
10 8
Ġ23 09
ĠTra tados
Ġcompeti dores
Ġcontinu ity
Ġfacili tado
ĠCa pa
Ġdistribu id
Ġzo bowiÄħ
Ġnav ega
ĠseÃ±a lado
Ġarti go
ÃŁ e
ĠUnder taking
Ġback ground
Ġseleccion ados
urr ent
Ġflavo uring
ĠÎµÎº Î±ÏĦ
ĠNM BS
C Y
f oli
z aciÃ³n
Ã ĺ
Ġs ch
Ġen zy
Ġse venth
ĠS W
Ġ4 35
ĠN os
oun ded
Ġ17 60
Ġ24 00
enti city
tad ora
Î¼ ÎŃÎ½
IT A
Ġsur g
Ġren unci
TR UC
Ġred on
Ġtar jeta
ĠGro w
Ġpros eguir
Ġdiver g
Ġvisi tas
Ġwar rant
ĠExp ired
Ġnombra dos
Ġconge lados
Ġunanim ously
ĠTemp us
Ġfeas ibility
Ġsudafric ano
2 90
F u
M AN
s s
Ġc ine
Ġth era
ar ch
ĠC amp
Ġb r
Ġ9 98
ĠT IR
Ġex ceso
us tion
tu vo
ĠL ÃŃ
Ġaut h
Ġaut omo
Ġca ute
Ġdes a
ĠB ang
ĠV ice
Ġcumpli ment
Ġ35 3
Ġconsecu tive
loc ks
Ġcompren didos
ĠImp lementing
Ġcalcula te
ĠIS PA
Ġstar ted
ĠSer Ã¡
fr ut
Ġatta ch
MA UR
ĠÎºÎ±ÏĦ Î±
ĠRegula tory
Ġrecipient s
Ġextran jero
Ġreinfor ce
ĠSud Ã¡frica
Ġrecicla do
ĠWel comes
ĠÃļ n
ĠEnterpr ise
ĠSc ot
Ã¡mp aras
D R
f rom
m od
Ġde udas
Ġin ad
Ġre tor
ĠS yn
ĠD atos
ĠT wo
ĠM R
ĠM Hz
Ġres istance
ex port
edi atric
Ġdi vis
lig t
Ġcontrol ler
Ġpes ados
ĠÃ ĵ
Ġ43 7
Ġpermiti do
iemp re
Ġmodific arÃ¡n
Ġbov ino
Ġimpos sible
ĠAt lÃ¡ntico
Ġrecep tion
Ġdistor siones
ĠSP EC
Ġdan esa
Ġdiv ul
Ġaler t
Ġconden e
Ġexter na
Ġfle et
Ġseas on
Ġabord ar
pres iden
Ġdemuest re
ĠMedic inal
Ġradiofre cuencia
Ġami anto
f uel
h ing
o bia
u mber
Ã °
Ġ Ïģ
Ġin stancias
ĠT an
Ġal one
ĠP H
Ġ5 15
ĠO mbudsman
Ġpo z
Ġfi anza
Ġpla zas
Ġli bres
Ġpublica da
Ġsan gre
ang zhou
ĠES A
ĠProgram mes
Ġcier to
Ġmicro bi
Ġdemanda da
ARI OS
ÏĨÎ¿ ÏģÎ¬
Ġenuncia dos
ĠhectÃ¡ reas
Go vern
Ġporcent uales
Ġreclama ciones
Ġendeavo ur
Ġauth enticity
T ur
z ional
Ġl ots
Ġh ard
Ġ4 90
Ġpa ti
Ġdi fi
tan ia
Ġpu do
ĠPro gress
ty pe
AN CES
Ã¤ l
Ġ32 9
ĠmÃ¡ quina
Ġ35 5
Î¼ Î±ÏĦ
Ã¶ n
Ġmanten gan
Ġprev isiÃ³n
Ġsee ms
Ġexerci sing
Ġst ri
Ġnotific ante
ĠCons erv
ĠRa il
Ġdiscus sed
Ġane jos
ĠRed u
organis mos
Ġprevisi ble
ĠrÃ¡pi do
Ã¡ce os
T Ãį
W S
z ÄĻ
Ã¡ tiles
Ġun due
Ġh op
Ġco difica
Ġtra w
Ġregard less
Ġ25 4
Ġorganis m
Ġ28 9
ĠCh apters
11 5
Ġcontro ver
Ġ89 6
ĠRes pon
Ġintegra dos
Ġsp Ã³ÅĤ
rÃ¡fic os
Ġespecifica das
TH OR
Ġdet ected
Ġflu jo
Ġju z
Ġsuplement aria
ĠFunda mentales
Ġmodern isation
FR ICA
ĠgÃ©n ero
Ġpronunci arÃ¡
discrimin ation
ĠExplan atory
N A
R OS
k al
mp or
ta mento
is c
Ġf rig
Ġre lie
Ġco d
ĠD ip
Ġreg isters
gra do
Ġj ust
200 000
Ġadministra dor
Ġass emb
Ġcal zado
Ġconstitu ya
ha i
Ãį A
Ġemploy ers
Ġcombin ado
Ġintrodu zcan
Ġprefer enciales
Ġfoods tuff
Ġintermedi arios
ĠbÃ¡s ica
Ġep izoo
ĠrecÃŃpro ca
Ġaleman a
b ound
z u
om s
do l
Ġcomp ras
Ġ7 25
Ġsub co
ĠH ague
Ġ20 15
Ġmer curio
Ġz as
pri ate
ĠW ar
Ġsubject s
Ġpublica tions
Ġsel ec
Ġllev an
Ġoff set
Ġemiti rÃ¡
Ġrestruct uration
Ġprof its
Ġpreser ve
Ġexpon en
ĠBelar Ãºs
Ġtub os
Ġuniversi dades
ĠÎ¹ ÏĥÏĩÏį
Requ isitos
Ġscrutin y
Ġhers truct
a mination
Ġth ough
Ġ12 0000
ĠS mall
ĠR ome
Ġrela tively
Ġtrans misi
ĠAn al
Ġsig an
Ġsuper en
Ġdesign arÃ¡n
ĠÃ ´
In ves
los is
Ġ37 7
Ġmanten drÃ¡n
Ġaz u
Ġsupply ing
Ġprohib ida
Ġcul tiva
Ġderiv ado
Ġtur ca
Ġvincula do
Ġabon ado
Ġann ounced
Ġcontribut ed
Ġcy cle
ĠperiÃ³d icos
Ġdeten ciÃ³n
ĠDocu mento
Ġfrig or
J UST
S pecial
s ary
u v
Ġin ap
qu ate
Ġl ug
Ġre acciÃ³n
Ġn one
ĠP P
Ġser a
Ġser ial
Ġr Ã©g
Ġmo dos
Ġfa ce
ust ra
ĠH ellen
Ġ17 01
Ġ28 6
ÏĢ ÎµÎ¹
Ġcirc ula
Ġ34 4
Ġanal og
Ġconven tional
ĠCON DI
Ġfran ca
Ġimpos ible
Ġrequi era
Ġenvi ar
Ġcier ta
Ġestrech amente
Ġsuplement ario
Ġdej ado
ĠestratÃ©g icas
Ġencon trar
ĠHellen ic
G AN
J udgment
P o
k tor
u ar
le vel
ĠS ME
ĠP ac
Ġ6 38
Ġpre curs
Ġ7 93
Ġtrans nacional
Ġli bra
Ġ27 77
Ġver da
Ġver se
Ġbo ok
Ġcomprom eten
Ġsuf ri
Ġ58 5
Ġtes ted
ĠGovern ments
Ġfuer te
Ġintracomunit ario
SEC TION
Ġsustancial mente
ĠautÃ³n omos
Ġsem estre
skie j
ĠUNDER TAKING
ĠDef ensor
Ġarom as
Ġsucces sive
Ġindones ia
ĠGrow th
2 30
D i
P ol
a je
v Ã¡
y ectos
Ġc it
Ġs ickness
it Ã¡n
Ġre apariciÃ³n
Ġn umer
le ges
Ġh um
Ġpres ta
Ġdes esti
Ġsub yac
pon e
Ġins pected
gn ition
Ġsta tion
OM IN
Ġresul tan
Ġrec ol
Ġcos a
ĠW E
ĠCo al
Ġ34 3
Ġ35 2
Ġlegal mente
Ġcomb ustion
com ing
Î´ Î¹
ĠquÃŃm ico
Ġweigh ing
Ġadjudica dores
ĠConclu siÃ³n
Ġdin ero
Ġlitig ios
Ġsimultane ously
Ġdisuas orias
Ġa x
en i
ĠC ulture
du ras
Ġg lu
Ġesta ciones
fici ents
Ġab rir
Ġpur ity
ĠW ales
Ġ40 7
Ġ35 9
ÏĮ Ïĥ
AD ER
ĠFran ces
Ġcelebra da
Ġcompren siÃ³n
Ġinser ta
Ġguarantee ing
Ġcorrect ly
ĠProduct os
Ġclos er
Ġitalian a
Ġnit ra
ĠprÃ³xim os
Ġextre me
Ġintercon n
ĠpartÃŃ culas
Ġcanadi ense
WHER EAS
h Ã¶r
Ġt rue
al idad
Ġm ess
Ġb ritÃ¡n
le um
Ġar te
Ġdes af
ĠO ut
ĠB SE
Ġ11 59
Ġform ar
Ġcooper Ã³
Ġ29 4
Ġdecision e
Ġgra va
Ġ40 3
Ġfra g
Ã¼ hr
Äħ cz
Ġliber tades
Ġestim ular
ĠÎ¿ ÏĨ
Ġajust ar
Ġpomo Äį
ĠBas Ã¡ndose
Ġrei mb
ĠEspecial izada
ĠSoci ety
Ġuniversi ties
Ġvacc ine
Ġspra wie
Ġkos z
ĠAU THOR
V ol
de o
ec ks
li ikela
ĠT y
Ġac tivamente
Ġ0 70
ĠB ased
cer s
ĠRe un
Ġch ann
Ġleg ible
Ġ24 1
ĠEE T
ĠProtocol s
Î¸ Î®
Ġste un
ful ly
Ġjuris pru
Ġwater ways
Ġquali fying
Ġemiti dos
Ġatt ribu
ĠprÃ³xim o
ĠTie liikela
j amiento
Ġt ome
ti f
Ġo va
Ġf Ã¶
Ġf alle
it ec
te en
ĠM ag
ig en
Ġ4 23
bl ecer
ĠN V
gra ma
Ġfun ded
Ġbet re
Ġconsul tarÃ¡
Ġrespect s
Ġelabor arÃ¡n
Ġgroup ing
ÅĤ at
Ġdocument ary
Ġesca pe
Ġpag arÃ¡
ĠAp licaciÃ³n
Ġaument aron
ĠWh ite
ĠEuros istema
Ġapor taciones
ĠEF SA
Ġrequis ite
ĠMeas ure
ĠPrincip ado
ĠCroati an
Ġlicens ing
Ġvulnera ble
Ġacondi cionamiento
Artic les
Ġcomplain ant
Ġdescan so
V ER
i encia
u tic
in ki
Ġc Ã¡n
Ġin unda
qu al
ĠE QU
ÃŃ fer
Ġv isiÃ³n
Ġal umin
vi ded
ist ing
ĠG er
Ġcer ca
ear ning
Ġop tional
ĠSe ych
Ġ28 5
Ġdu da
Ġmencion a
gu ÃŃn
ĠAN NEX
Ġdepen d
Ġprogres ivamente
Ġaleg aciÃ³n
Ġho ja
Ġreten tion
Ġrefle ja
Ġcoef ficients
Ġrupia h
Ġgobier no
Ġexisti r
Ġfrecu encias
Ġmanti ene
ĠNeder land
ĠFacil ity
Ġruman o
Ġpharmace utical
Ġazu car
i Ã³
s ica
z arÃ¡n
on ces
Ġo der
ic ot
te il
ica da
Ġes cal
Ġpres tarÃ¡
fer s
ten s
ad y
ĠH els
Ġrepresenta da
car bur
Ġmil es
Ġmet ros
Ġinterven tions
anu ales
Ġsuf rag
Es tos
Ġtermin aciÃ³n
Ġradio elÃ©ct
Ġprogres iva
Ġfundamental mente
Ġbru ta
Ġhy bri
Ġcru do
Ġdiscip line
Ġfos ter
Ġemphas is
Ġdiox ide
ells chaft
Ġfranc Ã©s
a cion
b ir
Î Ļ
du stri
Ġg all
Ġdo ing
Ġ11 07
Ġaf ric
Ġ31 7
10 3
Ġver tidos
Ġfinal izaciÃ³n
ĠÃ¡ r
Ġmet Ã¡
Ġ37 1
Ġdenomin adas
tur n
Ġcaus es
cre di
Ġcoher entes
Ġcerti ficar
Ġnotific Ã³
Ġpurch ased
Ġpercenta ges
Ġesencial mente
Ġdossi ers
Ġretras os
Ġincomple te
ĠsÃŃn tesis
Ġneoze landÃ©s
ĠSeych elles
6 00
U AL
d t
m us
on i
es ter
Ġp uso
Ġs lu
Ġf lor
ĠC X
it aria
ĠE co
ĠD KK
ĠT ele
Ġex hibi
Ġac ted
ĠM T
Ġres tor
Ġinter vent
Ġent onces
el t
Ġcontra tista
Ġconform ing
Ġmen udo
Ïĥ Î¹Î¼
Ġbu ild
Ġ43 8
Ġasi de
Ġasign ada
Ġplant ones
Ġil licit
Ġmix ture
Ġov inos
Ġimpon ible
ĠquÃŃm ica
ĠMinist ros
ĠQu edan
Ġfamili as
Ġintel lig
ĠÎ² Î¬
ĠStatis tics
ĠPA Ãį
Ġtransbor do
Ġsolidar ity
Ã©si mo
CU LO
Ġimpuls ar
Ġpromp tly
Î³ÏģÎ± ÏĨ
Ġpreclu de
H ousehold
T AN
d rÃŃa
g r
i ft
Ġa un
ci Ã³
ĠE ff
Ġto ol
ver a
id s
Ġadop tan
pa id
mi tan
ĠPro yecto
Ġdur ch
Ġbene ficial
ÃŃn as
Ġfinal izado
Ġexper to
Ġ37 8
Ġexamin ado
vaila ble
Ġcapaci ties
ĠFin n
Ġexig en
Ġqued ado
Ġrecog er
Ġdon antes
Ġenco un
Ġalterna tiva
Ġinteg rar
ĠOM I
Ġejercer Ã¡
Ġpet ro
Ġrefle jar
Ġmunicip al
Ġsuprimi do
ĠÃª tre
D er
D OS
P ers
t to
en ciÃ³n
ta ct
Ġin sign
Ġb Ãºsqueda
Ġ9 50
ĠR EL
Ġv Ã©anse
Ġpa ÅĦstwa
oun ds
Ġtra mitaciÃ³n
ĠEl lo
Ġappro ving
Ġ30 7
Ġmerc ury
Ġresul ted
lia ments
Ġcontro lada
Ġderog ados
ĠÎµ Ïħ
Ġampli arse
ÎµÎ¹ Î»
Ġfres cos
AC H
Ġconfiden ciales
Ġjustifica do
Ġprever se
Å¾ a
ĠAG R
finan ced
Ã¤r sver
Ãģ N
Ġabar ca
Ġ040 6
Ġnel la
Ġpondera do
ĠBri tain
Ġsupl entes
Ġconcili aciÃ³n
graf ÃŃa
Ġwholes ale
Ġneighbour ing
B a
M on
b ren
t te
Ġp is
Ġthe matic
Ġan tÃŃ
ing en
Ġw r
ĠD entro
Ġsh ar
Ġres ource
Ġ19 62
Ġpre cin
ĠCon ver
ĠF M
Ġdes con
ĠUn idad
gn e
so li
Ġ28 2
valu ation
Ġbo oks
Ġdeclara dos
Ġespec ÃŃmenes
Ġ38 5
Ġ35 1
Ġconten edores
Ġanal ÃŃ
IR D
Ġdese mpleo
Ġenvironmental ly
Ġpeti ciones
Ġnegoti ate
Ġsupon er
ĠContra tante
Ġpendi ente
Ġpronuncia do
Ġsubstitut ed
D K
en as
Ġf ren
Ġre ves
ÃŃ e
ĠS m
ĠD Ã©
iz ing
Ġcons enso
ĠO IC
fic arse
ĠU l
ĠG estiÃ³n
Ġat Ãºn
Ġat rac
ÏĦ Î¿ÏĤ
EN CE
Ġrec alled
Ġcorrespon derÃ¡
Ġcomple tamente
Ġcomercial izar
Ġreco gen
Ġcontin ues
Ġexamin ations
Ġcap itÃ¡n
ban o
Ġinnov adoras
wal t
Ġfami lies
UD A
Ġfili pino
ĠMAR K
Ġinval idity
ÏĮÎ¼ ÎµÎ½
Ġoutbre aks
comp eti
Ġaceler ar
ĠEmpres a
ĠÎ±ÏĢÏĮÏĨÎ± ÏĥÎ·
ĠdomÃ©s tico
Ġdestro yed
T Y
ic arÃ¡n
Ġre ver
ra p
te ur
ĠR en
ur ar
Ġ4 70
ĠAr range
Ġdes n
Ġneces ita
Ġdetermin en
tec tive
gen a
pro gram
Î¯ ÏīÎ½
Ġcompeti tiva
Ġdistin ction
ĠÃ³ v
Ġreduci rse
Ġperform ing
Ġalter ed
Ġpag ador
Ġconsoli dar
Ġpasa je
Ġses iones
ĠMed ical
Ġdifficul ty
Ġbanc arios
ĠEqui pment
Ġdesemb ols
UM P
Ġfraud ul
Ġdeterior ation
ĠRT P
Ġescas a
Ġswit ch
Pr incip
ĠGene va
N orm
a dings
c adas
i ved
z ier
ĠC osta
ul siÃ³n
ter na
Ġun de
Ġco dificaciÃ³n
Ã© se
ĠM anufact
Ġ4 19
Ġ4 48
Ġ5 20
min a
Ġlo go
Ġr Ã©s
Ġmo ving
ĠIn i
go v
vo er
Ġk rona
ll osis
ÏĮ Îº
Ġ88 2
ĠAc coun
Ġ45 2
Ġsuf ra
Î³ Îº
ian g
Ġai des
ĠÏĦÎ¿ Î½
Î¿Î½ ÏĦÎ±Î¹
Ġsalva mento
Ġavan zada
Ġpose an
Ġnit rÃ³geno
Ġempresari ales
Ġextract os
ERR ED
Ġcut ting
Ġsosp echa
Ġenuncia das
ĠInde mn
ENCI A
ĠPhilipp ine
ĠOB J
Ġnavega bles
ĠCX L
S er
e ff
Ġc ursos
Ã³ men
00 8
Ġac use
ig a
Ġ5 49
Ġ6 66
Ġpla tform
Ġform ing
man d
ine bra
Ġ24 3
Ġ28 4
30 5
Ġrecom end
Ġclasifica das
Ġbi om
CO UN
Ġrepro duci
zi el
Ġmicro organismos
Ġmultip le
gl omer
Ġsocio econÃ³m
Ġdomin ant
Ġpronunci arse
Ġgobier nos
ĠdiseÃ± ados
Ġpluri anuales
P ublica
z t
Ġc ities
ent ral
om al
Ġel ections
Ġap ort
Ġun f
ĠT ri
Ġ4 12
Ġ5 27
Ġreg ulen
Ġmar ino
Ġcer o
tra do
ĠH or
ear ing
Ġ20 75
Ġhan no
ĠmÃ¡xim as
Ġur an
Ġtermin ate
Ġtran che
Ġproduci rse
Ġestudi arÃ¡
ĠfÃŃs ico
Ġbio carbur
the tic
Ġconsolida das
Ġcorrect ores
Ġeleg ir
Ġdistor tions
Ġlit ros
Ġempren didas
Ġenlar ged
Ġzoosanit arias
Ġbruce losis
ĠktÃ³ re
credi tation
L i
Ġm ale
Ġm osto
ĠA cero
Ġd ire
Ġco ex
ĠS tr
Ġi ron
ula ciones
ĠM ut
Ġcu m
pos ing
Ġexp lic
Ġcar b
Ġdetermin an
Ġcontra dic
Ġens ures
Ġoblig ar
Ġden sity
ifica ciones
Ġunderta kes
ag inos
cili ation
Ġsan guÃŃn
ĠAc cess
Ġfacili tados
69 5
Ġacep tada
AM E
Ġalloc ations
Î±ÏĦ Î¬
Ġdee ms
Ġreserv ation
Ġargu ment
Ġtransfronter izo
ĠFED ER
Ġaprue ban
Ġfron tiers
Ġplay ers
Ġasum ir
Ġchallen ge
ĠCOOPER ATION
Ġbroadcas ting
Equi pos
Ġreflex iÃ³n
bound ary
M r
l ose
in ds
an ie
Ġf ats
ĠC Y
Ġan g
ĠT reaties
Ġ4 16
ĠL es
Ġ5 26
Ġinter p
Ġ10 83
Ġexp lot
10 4
Î· ÏĥÎ·ÏĤ
Ġsin ies
Ġaplic Ã¡ndose
ĠCh ar
Ġfe dera
Ġregula dor
Ġadj un
Ġend ang
Ġconven iencia
Ġfigur arÃ¡
Ġamp ar
Ġreview s
vers ity
Ġasign adas
Ġconsign or
Ġasegur arÃ¡
Ġblan queo
Ġsometer Ã¡n
With in
Ġconci erne
ĠDeuts che
Ġinsol vency
Ġaprovech ar
ĠAlgun os
Ġacreed ores
Ġteleph one
Ġreglamenta ciones
Ġtwel ve
M in
O CI
b io
Ġl ino
ĠE W
ĠA A
mb olo
et Ãł
Ġ4 17
Ġ4 77
ver ages
bre d
Ġmo des
ĠAn tig
ĠV istos
Ġra ising
Ġ16 02
Ġk rÃ³n
log ie
Ġinten d
Ġcommun ities
Ġexpedi das
Ġreduci dos
ĠRE QU
Ġproporcion a
Ġlod ge
ger icht
ĠGu inea
Ġclari fied
AG R
Ġconsolida da
Ġtecn olÃ³gicos
Ġbran ches
Ġexperim ental
Elect romagnetic
Ġdraf ting
Ġcontend rÃ¡
Ġflavour ings
Ġdynam ic
Ġaustral iano
ĠkrÃ³n a
b is
h et
Ġc usto
Ġin capa
Ġd r
Ġun related
Ġun fair
ot or
Ġor ient
Ġma quinaria
Ġdis frut
Ġob vi
Ġca m
Ġmo ved
ĠU se
Ġag reg
ĠG T
ĠG inebra
Ġbas an
ios a
Îµ Ïģ
Ġ24 2
ĠÃ ħ
ĠMar kt
ĠSec tions
ite iten
Ġconserv arÃ¡
Ġrevis e
Ġconfer encia
Ġsignifica tivamente
Ġjustifica das
Ġtransmiti do
Ġimplica das
Ġstrengthen ed
Ġri ver
Î¿Î½ Î¹ÏĥÎ¼
Ġadjudica tario
ĠPrincip ality
Ġsubhe adings
ĠNu clear
Ġpreserv ation
Ġprovo car
Ġeta pas
ĠmÃ© dica
fron tier
ĠÎ¿ÏĨ ÎµÎ¹Î»
ĠHels inki
v ir
Ġe vas
Ġb ol
cion ada
Ġi di
Ġcomp ila
Ġ5 30
Ġr ich
ĠPro duc
na ge
Ġ28 1
Ġ60 2
Ġinde li
Ġcorre ctions
Ġcomprom e
Ġfree zing
Ġph o
Ġtariff s
IM IENTO
Ġlow est
Ġpropon drÃ¡
ĠIP CA
ĠSal ud
Ġpertene zcan
Ġentreg ados
Ġflo ta
Ġfia bles
Ġconfirma do
Ġabsten ciones
Ġulti mate
Ġabsol ute
Ġfen Ã³men
PRES ENT
Ġrelie ve
D T
D KK
R ES
g est
r Ã©s
r eras
Ġs Ã©ptimo
Ġd all
tr ales
Ġ8 20
Ġ7 26
ĠSta bex
gra v
Ġcar ries
pa y
ĠRe v
ĠRe lations
Ġthere from
Ġten ÃŃa
Ġorigin ate
Ġconc urr
bo ard
Ġenerg i
Ġverifica ciones
ÃŃm etros
Ġincen dios
Ġanun cios
Ġsex o
IG H
Ġcompla ints
Ġrefle j
Ġexac ciones
Ġdec line
Dich as
Ġclean ing
Ġaggreg ate
Ġbruce llosis
Ġcancel lation
ĠSix th
ĠPAÃį SES
r Ã©
w es
Ġp one
Ġen tab
Ġre de
Ġel ectoral
ĠS ector
us a
Ġcom en
Ġso ber
Ġapp re
rom o
Ġ15 00
ĠRe venue
Ġform ulaciÃ³n
Ġ29 1
Ġ27 59
lev ant
Ã³m etros
Ġsubmit s
Ġ40 5
Ġ37 9
Ġprevi os
Ġcontro ladas
ĠÃ© tÃ©
Ġeconomic ally
43 9
ĠInter pre
Ġcol lateral
TA BL
Ġinicia do
ciden tal
CO OPER
Ġdep loyment
Ġconcep tos
Ġdimen sions
Ġremain der
Ġju ice
Ġinici Ã³
Ġread y
ĠEqui po
icht lin
Ġterren os
Ġcolor antes
vere ign
Ġexplica tivas
Ġprotocol os
Ġinvers or
ĠACC ORD
Ġvec inos
ĠautomÃ¡tica mente
Ġpossi bly
ĠÃ³v ulos
B M
ti lizaciÃ³n
Ġse p
Ġh ors
ĠS peci
ĠCE POL
enta do
Ġ6 00000
Ġha ciendo
Ġreg ener
ma gnetic
Ġr yn
ĠAn d
Ġat tra
Ġter ap
mit tel
Ġ31 2
Ã¤ Ã¤
ĠeconÃ³m icamente
ĠPR INCI
Ġhol ds
Ġveterin arias
ID ED
Ġincorpor ar
ĠES F
Ġarmon izados
Ġconcre ta
Ġgrow ers
ĠProced imiento
ĠÏħ ÏĢÏĮ
ĠRES P
Ġfia ble
Ġhect ares
Ġstatut es
gro wing
Ġterres tres
Ġdescen so
Ġzg od
Condi ciones
ĠalcohÃ³ lico
Ġdecentral ised
Ġgrava men
A Z
M an
S M
e amiento
k h
v u
Ġl ie
ĠE very
ra in
Ġpro xim
Ġse al
Ġis ola
Ġpres tadores
oun t
red it
Ġadop ta
Ġ18 68
19 9
Ġfinal iz
Ġcontribu yan
Ġ32 3
Ġgra mos
Ġfact uras
ĠAl though
ĠComp atibilidad
Ġdri vers
Ġdic embre
Ġnombra do
BS ERV
Ġterres tre
Ġtuvi eron
Ġgratu ita
organis ms
Ġaccommo dation
Ġdicta da
Ġneer landesa
ĠDEFIN I
C os
f os
o king
v n
en landia
Ġel ler
Ġw ur
ur ances
us ta
Ġ4 97
Ġ91 8
ĠU P
Ġpr inting
Ġpr icing
Ġunder cutting
Ġsig a
ĠH ay
Ġ26 1
AL S
Ġindi quen
Ġevalu ating
Ġvig encia
Ġsign at
Ġstan owi
Ġ50 2
Ġ37 4
Ġconf isc
Ġlegal idad
Îº Î·ÏĤ
ĠEuro p
Ġincorpor ating
Ġdese able
ution ary
Ïİ ÏĤ
Ġconfer encias
Ġintroduci dos
Ġsensi bilizaciÃ³n
ĠsÃŃ mbolo
ĠÏĥÏħ Î¼Î²
Ġcometi dos
Ġabsten tions
fit ri
ĠvÃŃn culo
Ġsemin ars
VIS TO
Ġforec asts
Ġentrepr eneurs
Ġhomog Ã©n
ĠÏĥÏĩ Îµ
Ġimmo vable
TÃį CULO
C ar
Ġo wing
Ġ9 00
ĠS il
Ġal tura
Ġ4 43
des h
id ra
ĠB lan
ten ing
Ġsig no
Ġmodi fique
En mienda
Ġinde le
ENT ES
Ġtranspar entes
Ġadjust ing
Ġregist ry
Ġaten diendo
ita ge
ĠEuros ystem
Esta tuto
ĠseÃ±a lados
Ġsell er
Ġwish ing
Ġcampa igns
Ġaboli tion
Ġfolle to
E AR
S ec
h um
p ase
z be
Ã³ tesis
ĠC IS
Ġqu anto
ĠS en
ĠM ic
Ġno tices
enta n
ĠF il
ĠAn n
ĠCh air
IC OS
Ġbenefici en
Ġ34 6
ati bility
ĠEx penditure
ĠAl ger
Ġvis ual
Ġ55 2
ĠÃ³ x
Ġconver ted
Ġdeliver ies
ni ka
Ġrequi eran
Ġtri al
ĠfÃŃs icos
Ġannex es
Ġcounter par
Ġdischar ges
END O
ĠÎ» ÏĮ
Ġvalu ation
ĠsÃ³li dos
Ġadminister ed
ĠMÃ©to dos
ĠMaÃŁna hme
ĠCOMMIT TEE
b us
b ados
h ic
Å º
Ġs cience
ic ular
Ġcon ec
Ġsu gi
Ġun ila
Ġh ot
Ġex istÃŃ
ari e
Ġ5 10
min e
ĠB ran
Ġmedi ciones
Ġdeb idas
Ġus ual
Ġfa en
ero e
ĠV AL
Ġne ta
Ġplan o
Ġoblig atorios
11 6
11 8
fa vo
Ġdeclara da
Ġba jos
Ġrig en
Ġro uble
IC O
Ġsoci Ã©tÃ©
Ġsol vency
com ings
Ġresearch ers
RE P
ĠefectÃº a
ĠÃŃn dole
ĠItalian a
ĠGran d
ĠseÃ± al
Ġreno vable
Ġpedi Ã¡tr
Ġcomprometi do
Ġinciner aciÃ³n
Ġinul ina
Ġintercambi ar
ĠhÃŃ bri
Ġantigu o
Ġrub lo
Ġprov istos
Ġpatho genic
ĠLeban on
1 0000
p he
Ġt ang
Ġde uts
Ġp al
Ġsu puestos
Ġca Ã±a
Ġmar chÃ©
ĠU p
rit os
mi endas
14 4
Ġgra in
Com o
Ġwe ather
Ġnet os
ÅĤ Äħcz
Ġcomunic arse
Î¹Îº ÏİÎ½
ciden tales
Ġofre zcan
ĠGro enlandia
Ġbenefit ing
Ġformula do
Ã¸ r
Ġcapr ino
ĠElect ronic
ĠSN CB
Ġportugues as
Act ing
Ġphy tos
Ġsaving s
Ġcuader no
ĠEas tern
Ġconstra ints
M e
on da
at en
ĠL og
ĠCon tribu
ĠV in
Ġconte mp
Ġwork ed
Ġgra ding
Ġadecu aciÃ³n
ĠAC COUN
Ġelabor adas
Ġconsecu tivos
Ġfigur arÃ¡n
Ġintegra das
com mer
Ġasign aciones
Ġexped irse
Ġdeleg aciones
Ġeng age
Ġva por
ĠEUROPE A
POR T
Ġexch anged
Ġpriorit arias
ĠNorm a
Ġdiscre tion
gro up
Ġinsol vencia
Ġvacc ines
ĠBelg ian
ĠwÅĤad ze
ĠsiderÃºrg icos
cicle tas
C AR
Ġa fili
Ġde ze
is cal
Ġf as
un ded
Ġen fr
Ġdel ito
Ġd il
eg en
Ġal most
ct or
ari al
Ġas c
ol tura
ĠB on
Ġpr z
ust ria
Ġ14 18
Ġ30 9
emp loyed
Ġsin d
Ġmore over
30 3
Ġ50 4
Ġ34 8
Ġregula da
Ġrecon versiÃ³n
rea ding
ĠFin ance
can es
ĠRes ources
75 1
Ġamp l
ĠProtocol os
ĠSa int
Ġdom ain
Ġcaus ados
Ġlen ding
Ġpi eces
Ġelectronic ally
Ġpeque Ã±o
Ġsubsidi aries
Ġstu dents
Ġamong st
ĠSystem s
ĠprÃ³xim a
ĠPri or
Ġintroduct ory
Ġdeter g
Ġcivi lian
N E
O tras
P agos
Ġt Ã¡
er dan
Ġun neces
Ġfor men
ĠR und
pe ed
Ġon es
Ġon wards
ch anged
ĠN ie
gra mas
ĠCon den
Ġpa que
ÃŃs ticos
Ġ20 19
tin a
Ġ18 29
Ġpol l
Ġposi tivos
Îµ Î»
pro yecto
Ġperj udicial
op ath
Ġsol vent
Ġaddress ing
Ġrepresent ar
Ġacces ibles
Ġconsist ente
US TR
Ġdon ors
Ġenvi ados
Ġserious ly
Ġdiver sificaciÃ³n
Ġrein tro
Ġcurren cies
ĠSus tainable
Ġinmo viliz
Ġtechn ically
Ġtransmisi bles
ĠOIC VM
Ġdesn atural
AGR APH
Ġt unica
ci ar
te mp
Ġv enture
di re
Ġ4 95
Ġ5 16
Ġad ding
Ġsobre pase
ĠÎ ĩ
Ġcomun i
Ġconta g
ĠFin ally
Ġderog adas
Ġdifer enci
70 4
ĠÎº Îµ
Ġresol utions
Ġmeasure ments
Ġeconom ies
Ġabon ar
Ġabon ados
Ġcompara bilidad
Ġfail ing
Ġtransitor ia
Ġques o
Ġitalian o
Ġincreasing ly
ĠBal tic
ĠMalay sian
Ġben ch
Ġtranseurope as
ĠBre taÃ±a
ĠInnov ation
Î¿ÏĢÎ¿ Î¹
Ġhighlig h
Ġunemp loyment
l ora
Ġde lays
Ġre tribuciÃ³n
ĠA mb
ĠP act
Ġcomp ounds
ran si
Ġso vereign
Ġ5 99
ver sidad
Ġ7 000
ĠV ER
Ġaf ron
man n
Ġsec a
Ġ25 35
12 4
Ġdecla rante
11 7
ress es
Ġintern et
ino der
Ġcapi ta
Ġsepar ada
Ġcompren didas
Ġpass port
Ġpurch asing
Ġintermedi aries
ĠCar bÃ³n
Ġproporcional mente
Ġtw ice
Ġadvis able
Ġrecipro cidad
Ġsala ry
Ġdesglos adas
Ġsto p
Ġpormen or
Ġdipu tados
Ġretor no
M S
T EC
U CT
p les
u ma
mp ic
Ġm emb
da do
Ġto t
ul fur
ĠD ar
ĠM ig
ĠF SE
Ġoper ative
vo ca
Ġz ak
Ġgo ats
Ġ21 31
Ġcos ech
Ġcomple tarÃ¡
bier on
Ġinsta lled
Ġcompeti tors
Ġexce derÃ¡
Ġcamp os
Ġrepresent en
ĠRE PRESENT
Ġcomunica dos
Ġcandida to
Ġconced an
Ġpurch ases
Ġrequer idos
ĠRec ons
Ġcompara tivos
Ġuniver s
Ġrazonable mente
ÏĦÎ¹Îº Î¬
ĠSO BRE
lij ke
Ġinmig rantes
Ġcircu itos
mÃ¤ ÃŁ
Ġnumeros os
Ġreuti lizaciÃ³n
ĠArmon izaciÃ³n
C F
O US
P ur
f at
g ers
z ol
er t
Ġre visiones
Ġre tribuciones
Ġre llen
le k
Ġsu izo
Ġ4 49
Ġrefer ral
Ġcas illas
ĠÎ Ŀ
Ãºn ez
Ġ16 23
ĠK o
Ġ32 6
Ġ34 7
Ġexce l
Ġobten erse
ĠÃ³ pti
Ġacces ible
Ġfla x
Ġpag adores
Ġpoli cial
Ġrepro duction
Ġasegur arÃ¡n
Ġshort comings
Ġfal sificaciÃ³n
Ġnutri tional
Ġpertene ciente
Ġpotencial mente
ĠLan ka
zia ÅĤ
SEC CIÃĵN
ĠAppro priations
ĠPT OM
ĠProvin ce
Ġintercon ex
Ġalo jamiento
Ġnecesi tan
Ġprolifer aciÃ³n
Ġsubco tizaciÃ³n
r z
Ã »
in c
Ġc Ã³n
Ġc uts
ta te
Ã¡ v
ĠA co
ĠS ex
ĠS AL
Ġfin ally
ĠO UT
el ed
Ġnot withstanding
hor t
Ġsus crito
Ġsi e
Ã©s ter
Ġlegisla tivos
ĠTH IRD
Ġ36 4
Ġning uno
Ġaqu ÃŃ
Ġ58 1
eron Ã¡u
Ġclasifica da
Ġcred itors
Ġconflic ts
Ġcro ata
Ġnega tivas
ĠXX IV
Ġdistor tion
Ġdespach ado
ĠÅĽrod ki
ĠilÃŃci to
Ġrefuge es
ĠPROP OS
Ġacab ado
ĠQual ity
Ġide as
ĠautomÃ³ viles
ĠFrances a
E st
H I
I OS
f ru
g ments
p ine
Ã ĳ
in en
ti um
ta zione
Ġin neces
Ġel se
ĠA Z
ĠA dop
Ġh izo
li egue
Ġac creditation
us tifica
ig e
Ġimp ut
Ġpres cribe
Ġcons ensus
ĠEU JUST
Ġgener ic
Ã©n ica
Ġprim eras
lar se
EG AL
ĠEx tra
Ġaj ena
Ġelabor ada
Ġsur ren
Ġdistin ct
ĠRes pecto
Ġren uncia
Ġhab itu
Ġim mun
Ġred und
Ġobserv ation
Ġclari fication
PR OV
Ġsubvencion able
Ġacciden tal
Ġfeed ing
Ġautom Ã¡tico
Ġfoot wear
Ġaprue be
Ġstipula tes
ĠNu mber
ĠexplÃŃci tamente
ĠIntegra ted
Ġjubi laciÃ³n
ĠMR L
ĠRund fun
c ular
w ig
Ġa o
ti lo
is al
si bles
Ġfor um
di miento
ĠP ound
ĠP acto
Ġar rest
Ġma jÄħ
iz an
Ġ7 95
Ġme te
ĠF UND
Ġpu ra
ĠAg encies
12 1
Ġpresent ing
19 7
Ġconstitu ents
Ġpes cadores
ĠÃ ¯
ĠEs peci
IN E
Ġmin isterial
ĠAs amblea
Ġ33 1
ĠFin ancing
Ġcomunic Ã³
Î³ Î¿
Ġalloc ate
Ġrecog ido
IB U
Ġprelimin ar
Ġworks h
Ġquestionna ires
Ġprzy zn
Ġstipula te
Ġengine ering
Ġhorizon tales
Ġextract s
Ġadvis e
Ġcad mio
Ġimpli que
ĠÅ¾ e
Ġparcel s
Ġreproduc tive
ĠSOL AS
Exp los
Ġester lina
Ġretire ment
P D
f il
f ten
Ġt rig
or ary
Ġm ental
ic ed
qu a
Ġsu ger
ĠS itu
ĠT as
Ġimp ul
Ġ8 10
ĠB UD
Ġda Ã±o
Ġna cimiento
Ġsa ke
Ġcertifica da
Ġgo at
12 2
Ġ27 30
Ġconsidera bly
Ġdirec ciones
Ġ89 4
Ġvari aciÃ³n
ĠTa king
Ġcomplement ariedad
Ġcli ents
Ġobserv ar
Ġofre zca
Ġdetal lados
Ġinvo ices
Ġtan ks
Ġsupri men
ĠOri ental
Ġpan el
Ġexplici t
Ġonder neming
Ġhomog ene
Ġnumeros as
Ġdisturb ance
ĠFinn ish
ĠACCORD ANCE
9 00
P ayments
T OR
p in
y r
Â ¿
Ġa fines
Ġpro ved
ĠA th
Ġfor ego
Ġco ast
ĠD ER
ĠAr ge
Ġ5 40
Ġ6 39
Ġ7 77
Ġinform ados
Ġdes propor
Ġdeb ÃŃan
ĠU CI
Ġab use
Ġorigin ally
ga ff
Ġcre arÃ¡
Ġindividual mente
Ġiniti alled
Ġ43 9
ÅĤ ug
Ġlimit arÃ¡
Ġec os
Ġrecur r
Ġasign ar
Ġante proyecto
Ġdef en
Ġderiv ada
Ġaffect s
Ġnegoti ating
Ġurg ente
Ġinteg rity
Ġcompara bility
Ġprof un
Ġinfrastruct ures
Ġindependent ly
Ġingredi ent
Ġweek ly
Ġdeterior o
Ġdomin ante
Ġsosp echos
Ġsobrepas ar
ĠÎ´Î¹ Î¬
Ġpurchas er
atrege len
ĠVÃ¤ gaff
Ġhous ing
ĠVÃ¤gaff Ã¤rsver
j adores
Î ¤
Ġp ista
it arse
ĠA E
du s
ĠT SI
ut ta
ĠM Ã©
Ġ5 93
Ġ6 50
Ġinter profes
ĠDe pos
Ġtra mos
ras es
Ġacu Ã¡ticos
ord ania
Ġmet res
IC AL
pro tection
16 5
ĠEuro control
Ġconduct ing
Ġusu ally
ĠSub total
Ġfores ts
ĠvÃ¡li das
Ġimpres iÃ³n
Ad ministra
Ġconsta tÃ³
Co oper
Ġconcer tadas
Ġhabi Ã©ndose
Ġappar ent
ĠautÃ³n omo
ĠDocu ment
Ġcarbon o
Ġgest or
ĠFINANCI ER
Ġinade cu
Ġeva cu
Ġinsign ific
ĠAntig ua
Ġpoll itos
S ource
i du
p oint
in dad
la dores
Ġc ree
Ġs ich
Ġla min
is cellaneous
ĠC IF
ĠE TS
du re
Ġ4 22
Ġres uel
Ġ6 000
Ġuna uthor
ĠF OL
ys is
Ġ16 01
Ġinves ti
int ur
Ġcooper arÃ¡n
za zione
velo pe
19 92
Ġsustitu irse
Ġ40 9
ĠMon etary
Ġgarantiz arse
Ġtur n
Ġreserv ations
Ġperio di
Ġreturn s
ĠÎ¼Îµ ÏĦÎ±
Ġfreedom s
Ġale mÃ¡n
ÏģÎ¯ Î¿Ïħ
ĠÎŃ Î½
Ġbuy er
Ġmobili ario
Ġperturb aciones
Ġswe et
Ġcuida dos
kta tu
hÃ¶r den
Ġchann els
Ġdeuts chen
1 50
F ER
Ġt all
Ġs cen
ÃŃ gra
ur n
ĠL ia
he ad
Ġ8 18
Ġtra in
Ġcar tel
lig ible
Ġz um
Ġsta at
jec tions
Ġcan e
Ġcre ada
In dia
In dividual
ĠConven tions
Ġcontribu yen
15 5
mar ked
Ġsp reading
Ġinterca mb
Ġaccess ories
Ġenvi Ã³
Ġcontr arias
Ġcomplete ly
Ġran dom
ĠUS D
Ġcontribut es
ĠpÃ¡g inas
Ġint Ã©r
Ġsuel os
Ġapre ciaciÃ³n
Ġcad mium
ĠEduc aciÃ³n
Ġans wer
Ġcorr erÃ¡n
ĠProvision al
Ġimpli quen
Ġsucurs al
ĠSoli dar
Govern ment
M eas
s ec
om an
ĠE TI
Ġd arÃ¡n
Ġque den
ĠD z
ĠT ec
Ġ4 94
Ġpres te
Ġ6 29
Ġpos tales
ĠH ouse
ĠRe laciones
Ġra ta
Ġsa las
Ġcla uses
Ġtranspor tados
99 8
ĠEE B
ĠCON C
Ġderi ven
ha us
Ġpermiti rÃ¡n
Ġur ges
Î¹Îº Î®
Ġeconom ÃŃas
Ġher d
Ġher itage
Ġlog ro
Ġconcep ciÃ³n
Ġcerti fy
appro ved
ĠMed iterrÃ¡neo
Ġsupon ga
Ġpublici ty
Ġentreg ado
Ġlaun ch
ĠBal canes
Ġcoin ci
Ġwide ly
Ġparagra phe
ĠFINANCI AL
Ġbac ala
Ġwarehous ing
Î¼ÏĨ ÏīÎ½
Ġinterp ret
a a
j us
t rans
Ġap titud
li ge
ĠP ost
ĠI AS
Ã© Ã³
ĠCE LF
ĠEC HO
Ġent radas
Ġexp ec
qui ries
Ġparti cipe
su mption
Ġcontract or
Ġexce ll
Ġcomprom ete
TIV OS
Ġsanit ary
ĠCa mbo
Ġgarantiz ando
Ġremo te
Ġrecuper ar
Ġadmiti das
ĠhÃ¡ bi
Ġbox es
Ġliberal isation
Ġtransportista s
Ġhi jos
Ġequipa miento
ĠPROCED URE
Ġexim ir
Pa ÃŃs
Ġsit Ãº
ĠLond on
Ġenz imas
B AR
m el
Ã ľ
Ġ urea
Ġp p
le ge
ĠS ri
ĠL earning
Ġpres tarse
Ġinform ada
Ġcomun idades
Ġoper ates
Ġch anging
ON G
Ġ31 43
Ġk ter
su ales
Ġ24 07
Ġcomple tos
Ġpublic Ã³
Ġbo ught
car ga
Ã¤ ch
Ġcontinu o
Ã¶ d
To dos
Ġalmacen ados
ĠES TABL
Ġaim ing
REG IÃĵN
Ġcircun stancia
ĠWh ile
Ġdesp liegue
ĠÏĢÏģÎ¿ Ï
Par ticip
Ġduplica te
Ġrefuge e
Ġdies el
ĠÎµÏħ ÏģÏİ
Ġs ens
Ġi dea
ari ties
Ġ7 00000
Ġdis ol
ma ti
Ġme tales
ĠF T
ĠF u
Ġser ving
ĠB Ã¡l
Ġtra tado
Ġass ume
Ġmed iterrÃ¡n
Ġfinal ised
Ġconsul tarse
ĠÃ į
Ġbo letÃŃn
Ġautoriz Ã³
Ġmin us
Ġhere after
15 000
Ġincorpor ation
Ġofre cidos
Ġmic rob
Ġmix ta
Ġimpon en
Ġdescrib en
Ġadverse ly
Ġautonom ÃŃa
hal t
Ġgana deros
Ġaumenta do
Ġreaseg uro
Ġvein te
Ġmigra tor
Ġster ling
Ġreimb ursed
D urante
e ver
k ke
v et
Ġa ci
Ġde cy
la mente
Ġs lot
Ġre ba
00 2
ĠE VALU
ot Ã©cn
Ġesta mp
od n
Ġdis propor
Ġdes vi
gn o
Ġoper an
Ġmer cato
Ġmen suales
OM IC
Îµ Îº
Ġeff et
Ġam mon
Ġrepresenta tiva
Ġrealiz Ã³
Ġconf ig
Ġpen a
Ã±a mo
33 2
Ġlu ces
Ġing les
Ġju ven
Ġinv itar
Ġav ance
Ġhelp ing
Ġrei mpor
ĠDeber Ã¡n
Ġps r
ĠCoun ty
ĠREF ERRED
Ġforego ing
P ri
b ene
s ter
t ries
in ia
re ts
un s
res se
Ġsu ita
Ġh ouse
ĠS iempre
ĠM AN
ĠM ilan
Ġit iner
cip lin
con tract
Ġdestin en
bil itÃ©
Ġsuper a
Ġhan dica
ĠMar ÃŃti
ĠÃº tiles
25 00
Ġcoordin ador
Ġperman ently
Ġ85 4
Ġvi bra
Ġorden aciÃ³n
Ġdese o
Ġevi dente
Ġprevent ed
ĠAust rian
Ġconcep ts
Ġexclusi vo
Ġbuil t
Ġadquisi ciones
ĠOr ders
Ġdigi tales
Ġlit res
Ġmunicip ios
Ġthreat s
Ġlaun dering
Ġdoub t
Ġviol ence
Ġcab all
Ġendor sements
Ġsupl ente
Ġcum ulation
Ġcomuni quen
ĠUCI TS
Ġdispropor tion
k la
s pecific
er ia
la miento
ta ged
ĠC G
Ġcon du
cion ados
ĠT oma
Ġcom ito
Ġpre gun
Ġser ved
Ġ17 86
Ġamen a
Ġindica tor
Ġpresent s
Ġcan je
Ġver sions
end ly
Ġcase in
14 7
Ġro ut
Ġ33 9
18 7
Ġsan ciÃ³n
ĠCu ar
ĠÏĢ Î»Î·
med iterrÃ¡neo
loc ation
ÎŃ Ïģ
Ġsen ding
EM P
Ġjurisdic cionales
Ġintermedi ary
ĠOR GAN
ĠInstitu tions
Ġport Ã¡tiles
Ġpriorit ario
vere in
Ġpata ta
Ġattain ment
ĠBras sica
Ġincorre c
Ġeta pa
Ġhaz ard
ĠESP EC
Ġpetro leum
Ġdecy z
A A
V III
i di
p se
Ġl id
Ġn ad
Ġun paid
ĠD im
di ciÃ³n
et or
sta lt
ch lor
Ġpre mi
Ġdi ri
val or
ĠRe al
fin ition
Ġch air
truct s
Ġni et
pen ding
Ġintern ationally
ĠTHE IR
Ġ89 5
Ġpen et
Ġsol da
Ġfurther more
ha m
Ġ47 4
ĠCO F
Ġ67 6
Ġoc curs
Ġcomprob arÃ¡
Ġec olÃ³gico
Ġembar que
ĠComp atibility
Ġpi diÃ³
Ġexpos ures
Ġvolunt aria
Ġhim self
Ġinforma tivo
Ġjustific an
Ġhabit ualmente
Ġmatric ulados
ĠHarmon isation
Ġacredi taciÃ³n
ĠDIS POSICIONES
Ġima gen
Ġinher entes
Fran ce
ĠDrug s
Ġslight ly
Ġatmosf Ã©rica
Ġcine mato
Ġafric ana
P eti
T ES
k re
s cale
Î ¥
Ġa eronÃ¡u
Ġc intur
ed u
qu ÃŃ
ÃŃ Ã¯
Ġh ire
ĠT ea
Ġg ew
ĠP al
Ġimp ede
Ġca me
Ġ10 51
Ġfinan so
Ġemp e
Ġorganis ing
Ġuti lidad
Ġass urances
12 3
ÃŃo do
tis ed
Ġelect rom
Ġsign s
Ġ34 1
crip tions
ĠÃ³ p
Ġsen se
war ding
Ġpat h
ĠBe hÃ¶rden
ĠMe li
ĠMon day
bric as
ĠAG B
Ġpror roga
Ġtransfronter izas
Ġcuantita tivas
Sub ject
ĠAli talia
Ġthreat en
Ġestan do
Ġole aginos
Ġed ul
TAD O
Ġviol encia
Ver trag
ĠDeleg aciÃ³n
Ġgrav Ã¡menes
Ġchic ks
ĠÎ±ÏģÏĩ ÎŃÏĤ
zbe k
ĠFOL LOW
M UN
c ada
x ico
Ġc ess
ĠC AL
da c
ÃŃ da
Ġse mb
Ġpar liaments
ĠI ts
ĠN an
Ġimp uesta
Ġ5 70
Ġat ribuciÃ³n
Ġunder stan
Ġsi des
ĠLa bour
ĠUn ternehmen
Ġ23 7
Ġ35 6
Ġ33 78
23 8
Ġsol u
Ġincorpor ate
Ġship building
Ġtransmiti dos
ier ÃŃa
Ġzo otÃ©cn
Ġcompr ises
Ġprece dentes
Ġintensi ficar
Ġprivileg ios
Ġcorpor ate
Ġforesee able
Ġdelibera ciones
commer cial
Ġpaque te
8 000
S IS
m Ã³n
m at
Ġc Ã©l
Ġm ere
ĠA ECT
Ġw inding
Ġpar liament
Ġh us
ĠT EN
Ġex ti
ĠL ong
tr arse
Ġser es
Ġj ak
cep table
Ġdestin ations
Ġce ased
rup t
ques ts
ĠÏĢ Î¿Ïĥ
ning en
Ġderi ving
Ġbi olÃ³gicos
Ġbio fuel
Ġmedic ine
Ġven der
Ġaten der
Ġalimenti cio
Ġgeograph ic
ĠTR AN
Ġvaccin ated
AV E
Ġprovin ce
Ġprote ÃŃnas
ĠComb us
Ġattain ed
hous es
Ġud ziel
Sal vo
Ġinstitut es
Ġpreca utionary
Ġpred omin
Ġoz ono
Ġhonor arios
ĠTun isia
ĠsubterrÃ¡n eas
ĠcÃ³n yu
N IG
c ze
Ġde por
Ġc ited
Ġm ando
Ġen ough
Ġpro visiÃ³n
ĠR isk
Ġal tos
ĠP SF
Ġ4 45
Ġ5 14
ĠAn ual
ĠÎ Ļ
Ġcar tas
Ġcor te
Ġaf fair
Ġincre menta
ĠInter es
Ġton nage
Ġlibre mente
Ġ54 1
Ġpag adas
REG ION
sk y
Ġses enta
Ġimplica dos
ĠMed ida
Ġsac ar
Ġcru ce
Ġcat tle
ĠSuper visory
Ġsala ries
Ġadmin ist
ĠCONTR OL
Ġmens ual
Ġmisle ading
Ser vi
ĠBÃ¡l tico
S us
j st
l Ã©
p uts
r ÃŃ
s ector
en n
la ta
Ġin tÃ©
Ġf ues
Ġb ri
ĠE EG
ĠP i
ir ma
Ġres ale
ich er
Ġ7 47
co unt
Ġme ta
Ġtrans boundary
Ġrefer idos
Ġsi li
na cionales
cy ch
Ġver de
Ġ38 3
Ġsubstan tive
Ġconven ed
Ġ45 7
Ġcaus ing
ĠMin isterial
ESC R
Ġpesqu erÃŃas
Ġclasifica do
Ġpoli ciales
eu ta
Ġquali tative
ĠAus f
Ġappo inting
Ġincompati bles
Ġfrances es
ĠDeber ÃŃa
ĠcÃ¡ Ã±amo
Ġdisas ter
Ġcig ar
Ġbiodi versidad
Ġaccum ula
ĠProteg idas
Ġingles a
S EN
f ri
p us
Ġa lar
Ġm eg
Ġ12 00
un ding
do w
Ġse vere
ĠS L
ĠI DA
ĠM ER
ĠL ist
Ġpres umed
min isteri
Ġsus pi
ĠÎ Ĩ
Ġ30 72
tro p
Ġcontrol ling
Ġgener ados
Ġindi cios
Ġpropos ing
Ġade uda
IC ES
Ġjun ta
pr d
Ġderi van
Ġidentifica dos
Ġsepar ated
Ġph os
ĠSch o
Ġcontamin ados
ĠMon tre
Ġgarantiz ado
Ġalterna tivos
Ġdet on
Ġvolunt ario
Ġobser ve
Ġdivi den
Ġlig eras
Ġreac tion
Ġhumanit aria
Ġarbit ra
Ġlitig io
ĠÎĶ Î·Î¼
ĠSum mary
Ġtrace ability
ĠHambur g
Ġwr ong
ĠAlger ia
Ġpregun tas
Ġedul cor
Ġsili cio
2 20
C ENT
S istemas
i Ã©ndose
ta ke
Ġin quiry
ĠC las
ĠC euta
Ġper taining
ve y
Ġ19 07
Ġ5 95
so ur
10 2
Ġplan taciÃ³n
Ġ23 42
Ġcooper atives
ru Å¾
Ġtranspor tation
che id
Ġreci bieron
Ġpursu ing
Î¼ Î¼
26 9
Ã³g ica
Ġ77 4
Ġrevis arse
ĠÎ´ Î±Î½
Ġund uly
Ġdetal le
Ġpros pec
Ġaliment arias
Ġpasa porte
Ġadver ten
iss Ã£o
Ġabier tas
Ġsolicitar on
Ġfirm Ã³
Ġcuar ta
Ġcapr inos
Ġdiscapa ci
Ġrectifica tivo
Ġinade quate
Proced imiento
ĠGener ales
ĠCompeti tion
Appro priations
urer ings
Ġcomerci antes
Ġsph ere
ĠPUR POS
ĠLM R
Î¸Î® ÎºÎ·ÏĤ
ĠMeli lla
u den
Ġt Ã³x
la tox
ci fic
ĠC OR
qu are
Ġw ire
Ġh en
Ġh emp
Ġbe verages
Ġ4 21
Ġpres ten
ĠEsta bilizaciÃ³n
ĠF eroe
ĠU pon
Ġdi Ã³xido
Ġ11 48
Ġfi jo
mi bia
Ġrespon ses
Ġ60 6
Ġconsul tancy
Ġpublica das
Ġ37 5
Ġ85 2
Ġfacili tando
Ġ65 000
Ġcompren derÃ¡
To da
Ġess entially
ĠMe morandum
Ġhomolog ado
fo od
Ġfiscal izaciÃ³n
Ġliquida tion
Ġworld wide
Inform e
Ġrepe ti
Ġexha usted
Ġprofi le
Ġgest ores
Ġconsisti rÃ¡
ĠFinanci ero
Ġhip Ã³tesis
Ġingen ierÃŃa
UMP ING
E valuaciÃ³n
K EN
T ech
g age
Ġl unes
Ġb er
res sion
tiv i
Ġun ique
ĠS IG
li est
ĠT ales
pe fa
ĠM ill
Ġ6 35
Ġinter rump
Ġapar te
Ġat temp
Ġcar case
ĠTra ktatu
Ġconsidera bles
Ġautoriz an
Ġinstitu cionales
Ġali menta
pro ducing
op ol
op ard
Ġdistin ciÃ³n
Ġ80 8
Ïĩ ÏģÎ¹
Ġlar ger
for cement
Î¹Îº Î¿Ïį
OL ID
ko u
Ġ61 000
ĠPAR AGRAPH
ĠON U
ĠUnder standing
Ġcolec tivo
Ġurban o
Ġmuch as
Ġrecha zar
ĠGR AN
Ġgradu ally
Ġinterval os
Ġcoloc aciÃ³n
Ġcorreg ir
ĠAra bia
Ġdisciplin ary
ĠInspec tion
ĠÎµÎ³Î³ Ïį
Not withstanding
Ġindeli ble
Ġbacala o
Ġaffair s
B IL
M ED
v l
Ġth or
ar do
is ch
Ġin d
Ġn an
ĠE ar
Ġd roga
Ġbe ta
ĠS on
ĠT Ãºnez
Ġar en
Ġar qu
ig i
cia ble
Ġ7 23
ĠF ree
Ġtrans vers
Ġaplica da
ĠEn carga
Ġ16 00
Î± Ïģ
Ġplan ta
Ġindica tivos
12 9
Ġoblig a
Ġwill ing
AN E
one y
18 0
Ġderog arse
Ġsegu irse
AD A
Ġpat ent
Ġnegoti ation
Ġpoli Ã©ster
Ġpropon ga
Ġear liest
Ġespa Ã±
Ġdiver sification
Ġav ec
Ġdama ges
zen ia
Ġpedi do
ĠProvin cia
Ġinsu ficientes
VIS TA
Ġbecom ing
ĠmÃºlti ples
Be fore
Ġpractica ble
Ġescue las
N R
W est
c ÃŃa
l Ã¤
z na
Î ļ
Ġde pri
es en
Ġs cre
Ġn in
Ġac Ãºs
Ġ4 47
tÃŃ co
Ġimp er
Ġdes po
Ġdes venta
ĠCommission er
teri al
que ado
Ġcomple tarse
Ġdesarrol lados
ÃŃfic os
Ġforma do
Ġfo to
Ġwa iver
EL L
ING S
Ġhor tÃŃco
Ġles iones
Ġrespe tado
Ġstruct ured
Ġsee ks
ĠÎ¼ ÏĢÎ¿
Ġdescrip tions
Ġmedic ina
Ġabon o
Ġregist rar
ĠIns tructs
Ġhubi ese
Ġsuprim irse
ĠWork ers
Ġfoot note
Ġeas ier
Ġexperien ces
ĠÎ¼ÎŃ ÏĩÏģÎ¹
Ġep ÃŃgra
Ġsugges ts
Ġdetec tado
Ġinmo bili
Ġmala yo
Ġherstruct urerings
D G
Ġla titud
ĠC ultura
it arÃ¡
Ġpro to
te le
ul sion
Ġun s
ĠT i
ĠN AT
he el
Ġres tante
ĠâĢ Ĳ
Ġdis till
Ġdes crita
ĠO BSERV
ĠEC R
ĠÂ ´
ĠDe p
Ġsus pect
je k
ĠConse il
pa re
ie lo
Ġdefin es
Ġadministra dores
ĠÃ ľ
Ġfe m
Ġexclu ye
til ing
Ġlu b
Ġampli ado
Ġ57 1
Ġobserv ado
Ġrecommen d
Ġsuje ciÃ³n
Ġpag arse
Ġconfer ences
ĠBa lance
Ġremiti do
rÃ³ p
Ġlarge ly
Ġinvo ked
Ġantig ua
ĠLat vi
Ġground water
ĠactÃº en
Ġneglig encia
ĠREP ÃļBLICA
Ġexecut ed
Ġgase osos
Ġdesfavore cidas
Further more
ĠMeet ing
pellan t
Ġelse where
A simismo
C ateg
Ġ Ã¡n
Ġc zy
ta ire
ĠC ap
Ġl ech
om i
ĠA TA
Ġw ird
Ġd ign
ĠR Ã©
ĠT om
Ġdeb ts
Ġag ri
el low
Ġmay s
Ġ13 08
Ġcontra ÃŃdos
Ġz Ã¡k
10 5
Con trol
ĠW o
11 3
Ġcre am
tor io
ong ue
Ġty m
ow a
ĠPres upuesto
Ġderog aciÃ³n
Ġves icular
Ġoc ta
Ġcompren dida
ĠMin istro
Ġrespe ta
Ġregular ity
Ġfisher men
ĠCa be
ĠComp ar
Ġvincula ntes
Ġtransmiti da
ĠCons ular
Ġcualifica dos
Ġexpi res
ĠÎ½ ÏĮÎ¼
UL AR
ĠER DF
ĠÄį len
Ġhist Ã³
Ġevol u
Ġemphas ises
ĠWest LB
Ġpreserv ar
Ġka pita
ĠtÃ©rm ico
ĠApo yo
Ġdisadvan taged
ĠHel Ã©nica
Ġappra isal
ĠBlan co
pefa cientes
E mp
L uxemb
l Ã©s
r Ãª
w irtschaft
Ã ¢
Ġan Ã³n
Ġlas ting
Ġpar ental
mb ito
ĠT u
tu m
ĠN atural
Ġad hi
Ġpa ges
Ġr ental
tan to
Ġtra tarse
pon er
ĠG E
cio cho
ĠV Ã©anse
ĠH IV
Ġch illed
Ġpol skie
Ġcal iente
Ġespecial izadas
Ġconc urso
Ġmes ures
35 000
Ġ50 5
Ġ34 48
Ġtras la
nolog ÃŃa
Ġpermit ting
Ġvac una
Ġlu min
Ġlle ga
END IT
Ġexha ust
Ġplas tic
adi ly
Ġexhaus tiva
ĠGU IN
Ġnombr arÃ¡
ĠBayer n
Ġbiodi versity
process ed
Ġwarehous es
Ġdesec ados
aril lado
tuvi eron
icot rÃ³p
Peti ciÃ³n
ĠMontre al
2 50
n ego
u z
Ã ŀ
Ġc ell
Ġre tos
00 3
ra tions
Ġpro dot
Ġh allen
ĠR et
Ġex ijan
Ġ5 28
Ġ5 62
iz es
ĠSta ats
Ġinter fa
Ġdeb ati
Ã± Ã©
Ġ31 05
Ġform ulation
10 9
10 10
Ġgener ador
Ġ23 58
Ġrespon de
Ġver tido
68 0
Ġ38 7
Ġchar ging
75 000
ha ox
Ġasi ento
Ġtend rÃŃa
Ġtari fa
Ġconsign ados
Ġliber arÃ¡
Ġnecesaria mente
Ġofre cido
Ġcred its
Ġrequer irÃ¡
Ġejemp los
Ġdocum ental
Ġsil v
Ġeleg ido
ĠCas o
ĠKommission en
Ġrespal dar
Ġtub es
Ġinformati zado
Ġinciner ation
ĠMauri tania
B A
D irect
k os
m t
u je
de pen
ti fied
Ġun changed
Ġ4 60
Ġ5 96
Ġ6 22
Ġmi li
Ġtrans fi
Ġdi arios
ph an
qui do
Ġcar gos
Ġ13 48
ĠPro t
Ġout ward
Ġmerc antil
za bilidad
Ġdispon drÃ¡
Ġequip ados
Ġcaus ada
Ġinvi taciÃ³n
ĠacompaÃ± ar
Ġharmon ise
Ġrepro duced
ĠTrans portes
Ġinci sos
Ġfacilit arse
Ġconfirm Ã³
Ġje opard
Ġja bal
Ġoccur rence
Ġcelebr arÃ¡
Ġfrequ ently
Des puÃ©s
Ġvalida ted
Ġpun ish
Ġdistingu ishing
Ġsalari os
iche ver
ĠKaza kh
Ġence fal
Ġimped irÃ¡
Resul tado
Ġsufra gar
ĠCONC ERN
Ġcess ation
Ġ ost
in to
Ġp ese
ĠC li
ĠE m
Ġqu ie
le te
ul ia
ĠS tre
Ġimp lies
Ġmo bil
Ġrep lied
Ġpo dat
Î¹ Î²Î¬
Ġsec o
na k
Ġoblig ada
Ġfij en
Ġfij as
yan mar
Ġcapa z
Ġ38 1
Ġpersonal idad
Ġ68 9
Ġban d
Ġequ ina
bri a
ĠÏĥ Ïį
Ġcalcula dos
Ġbi olÃ³gica
Ġreca b
AF RD
Ã¯ Ãµ
Ġsett ore
ĠAli mentaciÃ³n
Ġling u
Mar ket
Ġsilves tre
ĠÏĢÎµ ÏģÎ¯
Ġocasion ados
Ġincumb en
Ġprospect s
Ġdemues tren
ĠPRODUC TS
Ġperjud icar
Ġoz one
ĠFores try
ĠÎµÎ½Î¯ÏĥÏĩÏħ ÏĥÎ·
ĠÏĢÎ±ÏģÎ¬ Î³ÏģÎ±ÏĨ
ÏĮÏĦÎ· ÏĦÎ±
ĠMARK ET
Ġunneces sary
G I
os es
Ġo ÃŃdas
Ġe man
Ġe igh
ĠC rÃ©d
Ġan fitri
ÃŃ r
ÃŃ mp
Ġbe g
di ales
ĠM yanmar
ĠN Ãºmero
Ġ5 47
ĠO TR
Ġseg ura
Ġproduc tive
ĠRe fra
ear s
teri es
ĠPro fes
Ġ23 20
Ġmon taje
Ġrespect ing
Ġsan eamiento
24 3
Ġtransfer ring
ĠDO WN
Ġconven tion
ĠY ork
Ġvari e
Ġtempor ada
Ġexperi ment
ub li
Ġdisp ensa
Ġdepen ds
Ġbar co
Ġdirig ido
Ġdesempe Ã±o
istan t
Ġhead quarters
Ġps ych
Ġmarg inal
ĠCoun tries
pons or
Ġsubcon tra
Ġcali bra
ĠAk zo
ĠEns ay
ĠpelÃŃ culas
Ġinterconex iÃ³n
H e
R C
h ow
w ych
en kom
Ġe iner
Ġre mes
ra ciones
ĠCom issÃ£o
ĠD raft
ula da
Ġper mission
Ġimp edi
ran do
Ġ5 60
Ġ8 000
Ġuna c
ĠU sta
Ġsus ci
Ġpers eg
Ġ13 27
ĠH E
ĠH ICP
Ġna ta
OM S
ach es
Ġop at
ges ellschaft
Ïħ ÏĢ
Ġ37 2
ordin ation
ĠEuro dac
Ġesti me
AD AS
Ġdie ciocho
97 4
Ġconserv arÃ¡n
Ġhor arios
AM IENTO
Ġcomplement arity
Ġproporcion ado
SP EC
Ġmutu ally
Ġland f
Ġaleg aron
Ġfrequ encies
Ġrol ling
process ing
ĠÎµÎ½Î¹ÏĥÏĩÏį ÏĥÎµÎ¹ÏĤ
ĠÃ¤ r
Ġenarbo lan
Ġstimula te
ĠDV B
Ġdifundi r
ĠLÃŃ bano
Ġfalle cimiento
ENDIT URE
A TI
F on
S U
b ed
z ando
la desh
ent re
Ġl Ã¡mparas
ĠE AFRD
te in
Ġse arch
Ġun certain
ĠR ound
Ġal mid
sion al
ĠM AT
Ġno table
vi o
Ġres cue
Ġ5 35
Ġ5 25
Ġ5 33
ex amin
Ġ8 90
Ġdis fru
Ġinform ing
red ited
qui es
Ġemp lazamiento
ĠH ost
Ġthere on
Ġcooper ated
Ġparticip ado
Ġinf lation
Ġnew ly
Ġ35 4
Ġexig ido
Ġllev Ã³
Ġvi er
ĠPa cific
Ġbi bli
Ġextra ction
Ġcuar enta
Ġexces iva
Dich a
Ġhectolit res
ĠCOMUN IDAD
Ġremedi es
rop ic
Ġdiscon tin
ĠFour th
gh ero
ÃŃfer os
Ġbiocarbur antes
Ġhors es
0 30
b os
e la
g ado
i des
k k
is en
is se
si um
Ġco gener
Ġor dered
Ġar med
ch ase
ĠSta bility
Ġreg irÃ¡
ĠF ON
den burg
Ġrefer irÃ¡
ĠG aza
ĠV ari
ĠRe ferences
Ġ20 82
ĠPro ducciÃ³n
10 6
Ġgo al
ÏĢ ÏīÏĤ
Ġsal idas
Ġcomercial icen
Ġnoti fying
ĠMar ine
Ġfo co
Ġ33 4
ĠEx ten
Ġ36 00
Ġ44 6
Ġespa cios
Ġpose edor
org hum
ĠConstitu tional
Ġrev enta
Ġvalida tion
Ġhectolit ros
ĠseÃ± alizaciÃ³n
ĠÎŁ Î¹
ĠGO ODS
Ġbot t
otech nolog
ĠauxÃŃ lio
Ġteach ing
Ġingres o
ĠprzedsiÄĻbior st
Ġdopra vy
ĠCONDI TIONS
Ġsober anÃŃa
BAR B
1 60
a tivos
s zy
y ards
re l
Ġin o
Ġ12 68
Ġcon don
mb ab
Ġun used
Ġes for
ĠS UP
li p
Ġi leg
ĠP las
ĠReg la
Ġ5 31
Ġ8 27
Ġ7 92
ĠEsta blish
oun ts
Ġrefer idas
Ġ14 45
Ġappro va
Ġab an
Ġform ally
Ġorigin ales
Ġparticip arÃ¡n
jer on
13 7
Ġinstru cciÃ³n
Ġvari aciones
Ã¼ s
Ġfree ly
ni k
reas ing
Ġrevis ada
Ġalcan zarse
mple mentation
Ġaquel la
Ġaliment ario
Ġamon io
Ġprom oted
Ġcompra dores
Ġdiver si
Ġingredi ente
ai res
Ġcalcular Ã¡n
Ġdiagn osis
Ġexamp les
ĠOri enta
ĠautÃ©n tico
Ġextran jeros
hal ts
ĠFer n
Ġaprov echa
Ġmata deros
Ã©tr ico
ĠPalestin ian
ĠSOCI AL
Ġdifferenti ated
ĠSach sen
Fu ente
Ġintervent or
Ġencoun tered
ĠantÃŃ genos
ĠhortÃŃco las
A yudas
F rom
a mientos
m ia
n Ã½
r is
z el
z one
or ily
Ġo cupa
un der
Ġdel ic
li wo
Ġno vel
ĠF ig
ĠU zbek
Ġat tivitÃł
Ġins critos
Ġpod sta
ĠH R
ĠH aving
Ġestableci eron
Ġnecess arily
Ġmon o
Ġdecla rÃ³
Ġcomple tado
ĠMar ks
Com unicaciÃ³n
Ġele k
16 1
Ġ39 4
45 6
Ġer rÃ³n
TU RE
Ġ58 2
Ġ47 8
iza cion
Ġpi las
Ġreglament ario
ĠKom ise
ĠNa v
Ġcarre teras
Ġtravel ling
Ġpose e
ĠOper ation
Ġbir th
ĠfÃ¶r ordning
Ġbes ch
IZ ACIÃĵN
Ġdeten tion
Ġneglig ible
Ġinterrup ciÃ³n
Ġinmun idades
ĠStoc zni
Ġtiss ues
Ġtrimes trales
Ġcuer po
ĠÏĢÏģÎ¿Î² Î»ÎŃ
Ġfom enta
Ġattribu table
ĠTieliikela ito
walt ungs
Ġindele ble
Î¼ÏĨÏīÎ½ Î±
k in
p lace
Ġt ut
Ġt ip
Ġc urs
an de
om ina
Ġn Ã©
Ġun processed
ur en
Ġv ision
all oc
ir ds
Ġwh ichever
Ġpre financiaciÃ³n
Ġmedi as
ven o
Ġtra zabilidad
con s
Ġ14 66
cios a
ES E
Ġspeci fies
Ġindica dor
Ġsuper ficial
erv ice
Ġactu ando
Ġcapa ces
Com mon
pro p
Ġson t
Ġcompeti tivo
Ġcompens aciones
Ġrecogn ises
ĠSi ci
Ġpreven tivas
Ġelimin ated
Ġpat entes
Ġinnov adores
Ġinj ustifica
Ġcubri endo
Ġinterpre ted
ĠOb jetivos
Ġques os
Ġdemonst ration
Ġhead la
ĠFE ADER
jÄħ ce
Ġreflect s
Ġprobable mente
Ġpac ks
Ġultra mar
Ġlicens ed
Ġrebas amiento
ĠLiber ia
Condi tions
ĠPromo tion
ĠPak istan
ĠDelibera zione
Ġepidemi olÃ³gica
Ġpec uni
Ġcompila tion
Ġcaball os
I OR
h ed
Ġla mp
ĠC UST
Ġb ios
Ġb icy
ter os
Ġh echa
Ġco up
Ġ4 99
Ġ19 65
Ġ5 90
Ġ6 94
Ġpre de
fic arÃ¡
Ġdo uan
ten imiento
ĠDe bido
ĠJ ud
Ġfinan zi
par ti
mi e
10 7
Ġgener ar
Ġrec ar
12 6
Ġdecla rant
Ġdesign s
Ġdesarrol lado
jer ÃŃa
Th at
dic ar
Ġtras lada
Ġaff or
ĠImp uesto
cin di
Ġunit ario
Ġremiti r
Ġmultip lied
ath ing
Ġintracomunit arias
Ġperci bidos
Ġacon se
Ġexac ta
Ġspa re
Ġreve al
Ġvalida ciÃ³n
ĠINTER ES
Ġrespal da
Ġhi ci
Ġneglig ence
ĠBeihil fen
ĠMiemb ro
Ġvit ro
Ġacab ados
ĠLic ence
Î¸Î¼ Î¹
ĠPH ARE
ĠKazakh stan
L M
y entes
Ġs viluppo
re ich
Ġ. .
Ġqu ar
Ã¡ les
ĠS ales
Ġv isto
ĠT es
Ġac us
ĠM ec
ĠN atura
Ġ7 58
Ġinter ac
ĠNo bel
Ġcons tarÃ¡
um n
Ġpr Ã©s
bi de
Ġus ados
qui li
Ġpod ÃŃan
Ġ30 14
Ġwhere ver
Ġ22 23
jec tives
Ġ21 00
ĠCh ange
Ġcre w
13 9
18 5
Ġ36 6
Ġcoordin ator
Ġlan ded
ĠMa quinaria
TIV O
Ġapor ta
Ġpermis sible
Ġdeposit ary
Ġminor ÃŃas
Ġadjudica doras
Ġoccur ring
Ġconcer taciÃ³n
ĠCP P
ĠaquÃ©l las
ĠTar ic
Ġagro ambi
ĠÎ¬ÏģÎ¸ ÏģÎ¿
ĠespaÃ±o la
Ġpotenci ar
ĠcÃ¡n ones
k at
l ining
v Ã©n
la ge
an der
it mo
ĠE J
da ys
Ġpro vis
ÃŃ na
Ã© p
vi enen
ve den
Ġ5 37
Ġcons eg
Ġef ficiently
ting ente
ĠH and
ba ar
Ġmis ure
Ġappropriate ly
25 5
EG A
ĠAl pine
Ġ45 5
Ġconce den
Ġajus tado
Ġren dered
Ġ78 0
Ġacep tados
ÏģÎ¿ ÏĢÎ¿
Ġmach ine
Ġcopy right
Ġfil ing
Ġajust arÃ¡
Ġquin quies
Ġtravel lers
Ġtecn olÃ³gicas
ĠNe vertheless
Ġferrovi aria
Ġejecut arÃ¡
Ġreve aled
Ġsuffer ing
ĠPen ding
Ġol der
ĠINFORM ATION
otech nical
Ġprogressive ly
Ġdepre ciation
Ġabol ished
Ġnegocia bles
wor th
Ġrecauda ciÃ³n
ĠMÃ¡ quinas
Ġjurispru dencia
Norm as
rÃ©s ti
ĠÎ»ÏĮ Î³Ïī
ĠAco ge
Ġdisproportion ate
haox ing
ĠÏĢÎ±ÏģÎ¬Î³ÏģÎ±ÏĨ Î¿ÏĤ
g ens
Ġde gra
an y
Ġf ell
tiv ities
Ġfor tale
ĠS IDE
ĠT ER
ula te
ĠI E
orm al
Ġas ks
Ġ5 38
ĠO ly
ĠB ut
Ġj ue
Ġ15 92
Ġdeci ding
Ġle asing
va j
Ġentre gar
Ġz umo
Ġsta t
Ġten dentes
Ġ25 00
Ġden sidad
Ġdist ribui
Ġcomple j
Ġover view
Ġlegal ity
ĠÃºn icos
ĠPol ÃŃ
Ġsepar ation
Ġacces ibilidad
Ġdese e
ĠDes igns
Ġproporcion e
ĠMo dificaciÃ³n
Re ferences
Ġjustifica tivos
Ġcubri rÃ¡
Ġâ ī
ĠInves ti
Ġamb ient
Ġlig eramente
ĠPROV IDED
htm l
ĠreÃºn en
ĠseÃ± ales
Ġacc redited
Ġvec indad
ĠÄ Į
B AB
C er
L ow
c prd
Ġa ver
Ġc ells
Ġo este
Ġbe am
ot y
all o
ĠP rac
Ġcomp are
por tu
Ġ7 18
Ġsub com
ĠRe form
Ġyear ly
Ïģ Î¼
Ġorigin aria
Ġrespon da
ĠCh r
Ġref rain
Ġsupp lements
Ġ40 6
Ġresi de
ĠAl t
Ġsp lit
Ġpublish ing
AM A
Ġinvi er
ĠaÃ±adi rse
dis ciplin
Ġfru its
Ġespecifica da
Ġbio de
Ġalterna tives
ÎµÎ¯ ÏĦÎ±Î¹
ĠExp los
Ġotor gar
ĠestratÃ©g icos
Ġole ÃŃcola
cid al
Ġmagn itud
UP UES
Ġcabe za
Ġsyn thetic
dig he
ĠclÃŃn icos
Ġdenunci ante
ĠFo ods
Ġmanag ers
ĠEXP ENDITURE
ĠApar atos
Ġmobili arios
Ġcorrup ciÃ³n
Of ficial
Ġbat teries
ĠCri minal
Ba lance
ransi tional
ĠVÃ¤gaffÃ¤rsver ket
T AS
U ER
en viron
mp l
un n
ica ciones
ut z
form ance
Ġpres crib
Ġ6 96
ĠF ut
ĠComun icarÃ¡n
ĠH ome
ĠW er
Ġmencion ar
Ġmet ro
Ġiniti ating
Ġvari ation
Ġsegu ida
Ġvi vo
Ġestu pefacientes
TR IES
Ġrespe te
Ġtr ust
BL ES
Ġaudiovis uales
ĠMED A
ĠMED IDAS
Ġprotocol s
Ġreinfor ced
Ġfurn ish
Ġforra jeras
Ġattes ting
ĠGr und
Î³Ïī Î³
Ġmoun tain
Ġdesinf ecciÃ³n
Ġtranship ment
Ġcarbur ante
Dec la
Ġjabal ÃŃes
Ġquie bra
L S
M ore
O K
P lan
v entes
Ġa rable
Ġe jes
om y
Ġcon vin
Ġan cha
00 9
Ġh oli
ĠS ard
ida ble
ĠM ech
ol ina
Ġ4 18
se a
Ġcomp iled
min aciÃ³n
th es
Ġcas aciÃ³n
Ġ11 50
Ġ11 62
Ġpos ky
ĠUn less
Ġra tifica
Î· Î³
Ġinvestig ated
Ġpas as
Ġ34 2
Ġtransfer ir
Ġsur vi
Ġ75 3
ĠQ UE
ĠQ uestion
Ġverifica tions
Ġexerci ses
Ġrepro ductores
Ġfacul tades
ĠseÃ±a ladas
Ġcorrec tive
Ġprecis as
Mo difica
Ġvul ner
Ġexpon e
Ġsuccessful ly
ĠPROD UCT
limit ed
Ġplas ma
Ġacc ru
Ġsystema tically
Ġimpugn ada
Ġredac tado
ĠZi mbab
ĠatmÃ³s fera
Ġsuspi cion
B as
k or
z ky
Å Ī
os ing
Ġs tem
an stalt
as se
Ġm y
qu ota
ĠE ME
Ġar g
he l
Ġ5 23
Ġ7 94
ĠCommun ications
Ġdeb idos
Ġda iry
ui das
ĠV or
Ġform ed
ES A
12 8
Ġevalu arse
13 5
Ġcontribu ya
Com itÃ©
17 5
op at
27 0
Ġderog ate
Ġ45 9
Ġlar gest
Ġorden amiento
Ġconfi ere
Ġalmacen es
Ġmun diales
EM A
Ġher b
Ġesper ar
Ġimpon erse
Pres iden
UL ES
Ġcharge able
Ġdisc lose
Ġmovi liz
Ġcolo uring
Ġfit tings
ĠPen al
GUIN EA
Ġindem nes
ĠESTAD OS
ĠAPL ICACIÃĵN
Ġpho to
Ġthor ough
Ġdespo jos
M Ã©to
N et
V E
V ia
y j
z ue
Ġc zÄĻ
Ġs port
Ã³ ticos
Ġcon vier
ica go
Ġbe z
ĠS ES
ĠP ayment
Ġ5 68
Ġ8 66
gra t
ĠO s
Ġta k
ĠJ ean
Ġpo inted
ant ine
Ġch ip
Ġli bro
Ġ18 0000
Ġinves t
ĠTh us
Ġparticip arÃ¡
19 90
Ġ60 695
Ġcomple mentos
Ġactu arÃ¡
Ġcumpli rÃ¡n
pu bli
Ġspecial ist
Ã¼ l
Ġcol za
Ġprohib irÃ¡n
Î¹Îº ÏĮ
ep ing
ps ed
Ġproporcion arÃ¡n
Ġzo otechnical
Ġemiti Ã³
ĠED PS
ĠAG RE
Ġdeleg ate
Ġdeleg ated
Ġinv ites
Ġcitiz en
Ġuniver sity
ĠSup lemento
Ġrein sta
Ġadmiti r
Ġotor ga
Ġ020 2
ĠOper aciÃ³n
ĠGar anti
Ġnit rate
Ġid one
Ġexplos ives
Dich o
Ġ610 10
Ġdedica das
ĠÎ¼ÎŃ ÏĦÏģÎ¿
Ġvulnera bles
ĠCONS OLID
cis m
Ġrol l
ĠÏĮ ÏĢÏīÏĤ
Ġmigra tory
Ta mbiÃ©n
Ġhier ro
Ġence phal
ĠECON OMIC
Ġhistor ical
ĠOli ve
ĠPP P
Ġintellig ence
Ġsovereign ty
Ġperiodi cidad
ĠESTABL ISH
Ġmicrob iological
Ġlingu istic
E P
k te
m ic
â İ
ta ly
Ġ12 5000
Ġb rom
Ġen ables
Ġen velope
ĠE B
Ġh ence
Ġh alle
ĠD os
ĠD erog
Ġpres tado
ma ble
Ġpa lan
Ġpa ediatric
Ġr ent
Ġda to
ĠG ol
Ġneces si
so cia
Ġrepres ente
Ġcre ados
25 6
Ġconf usion
24 5
Ġderog ating
Ġ39 5
Ġ85 1
Ġpertin encia
Ġaccep ting
Ġ47 9
Ġcaus ar
Ġpi pel
Ġsusta ined
Ġeng orde
Ġsil icon
Ġces ion
Ġextraordin arias
Ġinvit Ã³
ĠPerman ente
sig ht
ĠRegist ry
ĠRh ine
ĠBang ladesh
ĠEW G
Ġimpul so
Meas ures
7 00
R a
W AY
i ded
k ets
w ier
Ġa ve
Ġa eros
in ning
Ġe cu
Ã³ wn
Ġcon dena
Ġan unci
tic he
ĠS AP
ĠS LB
ĠD eg
ĠT our
ĠM eth
Ġ5 97
Ġinter regional
Ġpa cientes
ĠG az
Ġj ug
Ġexp idan
era ciones
ĠAg ro
Ġab orda
Ġne m
EN S
ĠK DT
Ġcal cul
Ġup gra
Ġlim ite
Ġmed ir
Ġfij Ã³
Ġ90 4
Ġespeci fici
Ġintro duc
99 0
17 0
ĠX VI
ĠSu bra
43 2
Ġvi al
ĠAut Ã³n
Ġconoci dos
Ġcall ing
ĠLe vel
Ġprofession als
TIC LES
Ġconcentra do
Ġavoid ing
ĠCZ K
Ġmul tiling
Ġabar car
Ġrecipro city
Ġeth yl
Ġhos pital
ĠidÃ©n ticas
Ġendor sement
ĠLegisla tive
Ġdevolver Ã¡
ĠCOUN TRIES
ĠConform e
ĠfranÃ§a ises
Ġreag rup
ĠConserv ation
ĠMarÃŃti ma
ĠÎ´Î±Î½ ÎµÎ¯
Ġcomplej idad
A m
A nex
a ux
b und
h te
t arios
Ġp ane
Ġla titude
Ġ12 10
ĠC OP
Ġpro voc
ÃŃ en
Ġsh a
Ġcomp lica
Ġ8 30
ĠB ru
Ġpr ensa
Ġins ured
Ġbas in
ĠV H
ĠV an
Ġaf latox
Ġli que
Ġcos ta
ER O
Ġprim ario
ĠEs tu
ĠPor t
Ġgra dos
25 8
Ġpublica dos
pro du
Ġ35 0000
16 9
Î» Îµ
42 2
ID A
Ġ76 1
ĠOn ce
Ġec osis
Ġcalcula da
Ġcircum vention
ĠTrans porte
anit ary
Ġautom ati
Ġblo que
Ġcuantita tivo
Ap licaciÃ³n
ĠPortugues a
ĠCol l
ĠInstru ment
Ġresta blecer
Ġannul ment
Ġvein tic
Ġprospect us
Ġobstacul izar
Ġnombr ar
Cons ul
ĠParticip ation
Ġequilibra da
Ġdistric t
TRUC TUR
Ġalmid Ã³n
âİ ¢
Ġecosis temas
a jo
s is
ec o
Ġd alle
Ġh ombre
Ġfor warding
ĠT ERR
ĠB ase
ĠB anc
Ġ10 59
Ġ10 993
Ġfinan ces
ÏĦ ÎŃ
ER CI
Ġgran os
ĠW aste
Ġdist ort
Ġcomercial izada
Ġrepla ces
che mical
Ġexclu ido
Ġregula ting
Ġ36 7
Ġsoci eties
Ġvo ya
Ġpon deraciÃ³n
Ġaud ited
ÎµÎ¹ ÏĤ
Ġred ist
Ġconting ency
Ġstandard ised
Ġfer al
Ġgen Ã©ricas
ĠLe on
Ġpasa jero
tÃ³ w
Ġbeca me
Ġminor istas
ĠOther s
Ġho jas
Ġmor talidad
Ġdemostra ciÃ³n
Ġoccup ation
Ġhin der
ĠSk ar
ĠBri tish
CONSIDER ING
Fran cia
GUIN EE
ĠÎµÏĢÎ¹ÏĩÎµÎ¹ÏģÎ® ÏĥÎµÏīÎ½
Ġadvers as
Ġdistribuid ores
Ġunf ores
contract ual
P AP
a rea
f Ã©
m ers
p it
w end
Ä ĵ
Î ł
Ġde mar
Ġde ja
Ġc enso
Ã³n ica
ĠC Ã¡
Ġb ree
Ġan tec
ĠE K
Ġpar lament
Ġh ex
ĠM as
Ġ5 44
Ġmi lion
ĠF le
Ġr itmo
ven ti
Ġtra tada
el or
Ġexp ida
Ġrep aid
ada p
Ġra cial
Ġdefin irse
Ġcos teras
Ġmis sing
11 4
Ġconclu ding
Ġrepla cing
15 2
Ġinver tir
Ġ45 3
Ġwa ive
Î¹Îº Î¿Î½
Ġinco aciÃ³n
ĠCons umer
ĠPo ints
Ġtransmit ting
Ġlleg Ã³
Ġindirect os
Ġpien so
Inten sity
Ġflo od
Ġedi ciÃ³n
Ġsalvagu ardar
Ġrefin ing
Ġgan ancias
Ġmetal s
Seg Ãºn
Ġine vi
Ġaromatiz antes
Ġcontingent ario
Ġenzy mes
ĠPac ÃŃfico
Ġnitra to
Ġdesaf ÃŃos
Ġentrepreneurs hip
ĠCUST OMS
b ben
i der
l Ã¡
r Ã¨s
w ia
is sa
ĠE IT
Ġd ose
Ġco ti
ce an
ĠS tra
ĠS ugar
ĠR F
di entes
lo Äį
Ã© ration
ĠReg olamento
Ġ5 32
Ġdis mis
ĠF Ã¶r
ĠB ody
io to
Ġ14 0000
Ġu ma
Ġthere for
Ġfun ctional
Ġplan tilla
ĠEUR O
Ã©n do
Ġden at
Ġcla ras
Ġcontin ental
Ġgra ms
duci dad
Ġrecon stitu
Ġenerg ia
Ġsecond ment
ĠAc tividades
Ġtras pas
Ġconfir ms
Ã¼ ns
ĠMa ximum
Ġreti rados
Ġjud gments
Ġprorrog arse
Ġtranscur ridos
Ġentreg adas
ĠÃģ FRICA
pra wn
Elect ro
Ġequipa je
Ġcali bre
ĠAlgun as
Ġpotas sium
Ġplataform as
Ġtang ible
Cooper aciÃ³n
Ġexpec tations
Ġamena zas
I talia
N ational
g ence
k si
n u
r aron
s peed
z z
Ġde je
Ġp Ã³
is os
un ion
Ġb lack
ĠA pro
li fe
di en
ĠP ower
Ã© sta
Ġ5 12
Ġ8 00000
Ġca la
ac en
Ġemp rÃ©sti
ĠV la
Ġ13 72
par a
lig a
ÏĢ Î±
Ġamoun ting
17 2
del s
Ġbor n
Ġresiden ts
Es pa
Ġfran jas
po ints
Ġapproval s
ĠSeg unda
AC P
Ġdisp arities
Ġsignifica do
cin er
Ġcircun s
ĠPre vention
Ġimpres os
ste un
ĠTer cer
Ġantig en
Ġseleccion adas
Sub venciones
Ġadmisi bilidad
Ġfabrica do
tri al
ARI O
Ġhectolit ro
limit s
ĠÎµÎ½Î¯ÏĥÏĩÏħ ÏĥÎ·ÏĤ
ĠOl bia
ĠcÃ¡mar a
Ġsint Ã©ticas
ĠPoli tical
Ġree mpla
Ġsubsid ised
Ġacknowledge ment
ĠÎºÎ±Î½ Î¿Î½Î¹ÏĥÎ¼
ĠAdap tation
Ġinap licaciÃ³n
Ġcontemp lan
ĠArge lia
ĠRefra ct
h aving
p ic
v on
z ation
Ġt ru
Ġs Äħ
Ġb om
Ġen ve
Ġco bra
li os
ĠR ady
Ġres iding
Ġ19 58
Ġpres unciÃ³n
fi dential
Ġcons egu
Ġdes le
el li
el ect
ph a
Ġu vas
Ġz n
ien ia
Ġnecess ity
ĠK ioto
Ġci encia
Ġup p
tis fact
ĠCo R
Ġcomercial izadas
Ã¤ Ã¤r
Ġ38 9
Ġejer ce
Ġstand ardi
Ġbudget s
Ġvari ations
Ġminim ise
ĠÎ± Î³Î¿
Ġcompar ti
UR R
Ġpat ente
ĠÎ´ Î¬Î½
ĠdÃ© cision
Ġprima vera
Ġapor tado
Ġsupplement ing
Ġexpi ra
Ġje j
Ġmovi lizaciÃ³n
Ġexplos ivos
Ġgana derÃŃa
Ġsuel do
Ġrevo ked
Ġtem Ã¡tica
So bre
Ġconfin ed
Ġmanti enen
Ġcampa ign
ĠVien a
Ġsucurs ales
Applica tions
Ġsynerg ies
Ġdr Å¾a
G ar
c Ã³w
v Ã©
w heel
Î ¡
de len
Ġo cu
ĠA Y
Ġun like
Ġ200 0000
Ġ3 2003
ĠT amp
Ġex ecu
Ġcom me
Ġ4 98
Ġ6 31
Ġ7 98
th ala
Ġca ducidad
ĠO rigen
ten as
Ġmo is
me j
ĠV istas
Ġ14 40
Ġch inas
Ġab as
reat ment
Ġdesarrol ladas
Ġtranspor tadas
14 3
gu berna
Ġgra ph
Ġ50 9
ĠEx por
Ġfar es
26 5
Ġexten der
Ġlu x
Ġidentifica do
Ġresiden te
Ġglobal izaciÃ³n
Ġsamp led
Ġacqu iring
Ġdepen den
Ġdepos its
Ġslaughter houses
Ġcuar tos
Ġurban as
dem ic
ĠPers on
Ġconex iones
Ġentail s
Ġsyrup s
Ġrefug iado
ĠBelg ische
ĠSU CH
Ġther mal
Ġcomenz arÃ¡
Ġsinerg ias
Ġdivis as
Ġpis ci
Ġbri ef
ĠepÃŃgra fe
S AN
k ans
o ked
t w
w ana
Ġt ere
Ġe val
ÃŃ ch
Ġh alla
Ġes pongiform
ĠP ack
Ã© llos
Ġ0 80
Ġser ÃŃan
Ġef ter
Ġfa cing
ĠV is
ĠV ege
Ġproduc ciones
ug a
Ġk un
ĠW ed
Ġhe bben
14 8
Ġ33 2
Ġmod alities
ĠIN GR
ĠSu bs
ĠGo ods
22 1
33 1
ĠMa gn
Ġaqu Ã©llos
34 1
Ġbro tes
Ġjusti fique
Ġpreven tiva
ign aciÃ³n
ĠMo bil
ĠÎ´ Î±
Ġact ores
ĠSer Ã¡n
Ġinflu ir
Ġnotific arse
Ġflu ores
Ġdeleg ations
Ġobser ver
Ġinici arÃ¡
Ġtelecom unicaciÃ³n
Ġpropag ation
Ġpopulation s
Ġdiscus s
Ġfocus ing
ĠCOMMUN ITIES
Ġgain s
Ġdiscre pan
ĠBu ilding
Medi ante
Ġfurn iture
Ġinstitut os
irts chafts
ĠAM END
ĠStand ards
Ġdeshues ada
ĠÎ±ÏĢÏĮÏĨÎ± ÏĥÎ·ÏĤ
ĠINS TITU
Ġdescentral izada
Ġparale lo
ĠKomisi ja
Ġiso lation
Ġsolda dura
ĠintÃ© z
A IN
f low
p ac
z h
ci mo
Ġb rin
Ġan ular
Ġre aring
ĠI G
ĠI ET
ir s
Ġar ises
im um
Ġcom ma
Ġpres crito
fer as
iz arÃ¡n
ĠF AS
Ġmar cos
ven s
ĠIn cre
Ġfinan zas
ĠEU FOR
lic as
Ġgo ing
Ïģ Î±ÏĦ
19 8
Ġrealiz aron
18 4
AT OM
27 2
Ġtransform adas
ĠAc ciones
Ġ48 6
Ġpermiti rse
ang hai
Ġproporcion en
ĠCOMP ET
REG ULATION
Ġdiscrimin atoria
Ġinfring ed
Ġprom ue
biliz ar
ĠBal kans
Ġconsor tium
far ers
ĠAra b
Ġcau tivas
ĠDet on
ĠDubl in
Ġexplot ar
Ġexcel encia
C AP
D B
I ED
O rgan
e per
r un
s tig
or ial
ci di
ar ge
it era
ĠE in
ĠA Ã±a
ĠS hort
Ġprodu tos
Ã¡n ÃŃ
Ġ7 90
ĠF reedom
clu sion
ĠAn t
Ġ10 58
les wig
Ġpu Ã²
ph en
Ġcar cin
Ġman z
ĠAg ent
man agement
ator i
Ġsustitu idos
13 8
Ġmes ure
ati e
Î¼ Î·Î½
Ã©d icos
Ġtom ada
Ġtransform aciones
Ġpersonal ity
Ġwa ar
Ġren der
Ġlimit ing
Ïĩ ÎµÎ¯
Ġemple os
Ãį FIC
dor f
Ġpi ro
Ġdepos itar
Ġradi aciÃ³n
Ġanticip ated
Ġsubvencion adas
ĠefectÃº an
IF IC
Ġsupon en
Ġdama ged
Ġseman ales
Ġcelebr arÃ¡n
ĠCi u
ĠWITH IN
Ġog getto
Ġenga Ã±os
Ġeas tern
Pre via
ÏģÎ¸ ÏģÏī
Ġyi elds
ĠÏĥÏħÎ½ Î¸Î®ÎºÎ·ÏĤ
Ġhabili tadas
ĠÃª Ã¡
ĠÎµÎ»Î»Î·Î½Î¹Îº ÎŃÏĤ
Ġdispar idades
ĠMI EMB
Ġrespira toria
Î´Î¹ Î¬
ĠArrange ment
grat ula
ĠTamp ere
ĠintÃ©z ked
D IS
F ollowing
G u
K E
M IT
R ecom
d le
Î Ŀ
Ġs ard
Ġs izes
ta re
Ġy ou
ÃŃ p
ter o
ĠR A
lo aded
ari us
Ġ4 69
ect ar
Ġcu enca
Ġ8 15
ĠEurope os
Ġdis rup
ĠCon tribuciÃ³n
Ġinter ference
ado p
Ġr ue
men s
Ġcer rado
Ġbas tante
Ġcar s
ĠV es
Ġli qui
ES OS
her n
IN ES
Ġespecial istas
Ġespeci fique
Ġconf usiÃ³n
Ġmejor ado
Ġ43 6
dic tion
ĠprÃ¡c ticos
Ġ75 6
Ġprej uz
Ġnormal izado
ĠPol ska
Ġ55 7
Ġcabo taje
Ġrecep tores
Ġnor th
Ġsosten ibles
Ġrecip iente
ĠSE PD
Ġsubmission s
SA INT
Ġsafegu arding
Ġaero portu
ĠperiÃ³d ico
So lici
Ġacord ar
Ġperjud ica
Ġtrip ulaciÃ³n
Ġcounterfe iting
Ġisola ted
Ġexcell ence
Ġencefal opat
Ġileg ales
Î¹ÎºÎ¿Î½ Î¿Î¼
Espa Ã±a
s ist
Ã Ĭ
Î Ĵ
in ten
er n
Ġc ette
Ġin wes
Ġpro ves
Ġcom mand
Ġ19 61
Ġ5 58
Ġme l
ĠEC E
ion i
Ġdi visiones
Ġ11 38
Ġfinan cia
Ġoper en
Ġu w
ÏĦ Î¬
Ġ16 98
Ġab u
Ġop tical
Ġdur um
Ġ21 25
Ġ60 704
Ġsal mÃ³n
Ġinf ecciÃ³n
gu ientes
Ġvol tage
Ġ50 3
16 7
Î» Î¯Î¿Ïħ
Î» Î¿Î³
Ġpresup uestos
28 1
Ġemb a
ĠCON SIDER
ĠFran k
Î¸ Î¿ÏįÎ½
Ġph en
TIV AS
Ġlimi tadas
Î¹Îº Î®ÏĤ
Ġoportun os
Ġespecifica ciÃ³n
Ġextern as
Ġavo ided
Ġdirig idos
Ġpl omo
Ġsatisfact orio
Ġargu mento
Ġweigh ting
met h
ĠÏĢÏģÎ¿ Ïĥ
Ġdesi gual
ĠFIN AL
ĠÏĩ Ïģ
Ġexplos ive
Ġasum irÃ¡
ÏģÎ¸ ÏģÎ¿
Ġemis ores
ĠGN SS
Ġsigui Ã³
Ġinstitut ed
Ġdenunci antes
Ġcambi ar
ĠCoordin ation
Ġinul in
Ġligh ters
Ġantigu os
ĠVien na
Ġrehabili taciÃ³n
ĠAnn ul
Ġafron tar
Ġhabitu ales
ĠÎ±Î³Î¿ ÏģÎ¬
2 19
G B
O UR
p ack
ar re
al o
qu el
ĠCom ments
ĠR ot
Ġon eros
Ġno venta
tÃŃcul os
fica ciones
st om
ĠState ment
Ġli br
Ġk V
ĠEUR ATOM
rech t
Ġmon taÃ±a
14 1
Ġmil li
OS E
Ġinterven ir
Ġsustan ciales
Ġinsta lados
ĠÃ© tn
23 2
Ġsoci etÃł
Ġconven cional
ĠY outh
Ġesti p
ĠAd hesiÃ³n
ĠZ a
Ġampli amente
Ġorden ante
Ġacces sibility
Ġcerti fique
Ġear marked
Ġreach ing
ĠAR TICLES
Ġproceder Ã¡n
SA U
ĠRepresenta tives
ĠTen ders
Par t
Ġindispens ables
Ġmacro econÃ³m
Ġscho ols
Ġjara bes
Applica tion
Ġcorrup tion
ethyl ene
Product os
Aut or
Ġcaute lares
ĠUl tra
Ġtrig ger
Ġrout ine
jst Ã¡n
ĠOly mpic
ĠAlt mark
Ġidone idad
Anex o
Ġenve je
R o
g at
j unto
Å ±
Ġs Ãº
Ġo to
is mos
ed o
ĠE cu
ĠA Ã©
Ġd it
eg uridad
Ġor o
Ġar queo
Ġma m
Ġpres cripciÃ³n
enta dos
Ġ6 33
Ġdis cu
con dition
ĠÎ ¥
Ġne um
Ġplan ted
Ġsec uring
pi dez
Ġden omina
ĠW il
ll s
Ġconstitu tivos
Ġinf ection
Ġdesign a
tor i
Ar t
Ġ92 3
Ġmin ist
60 7
16 3
Ġadd resse
Ġcoordin ada
Ġrecei vable
47 3
Ġejerci do
ĠlÃŃ quido
Ïį Î¸Î¼Î¹
Ġ58 0
Ġlimi tados
Ġreun idos
po dos
ĠMon et
Ġencar gar
Î´ Î¹Îº
Î´ Î¹Î¿
Ġapor te
Ġexpi rado
Ġkilogra m
Ġweigh tings
ĠÏĢÏģÎ¿ Îº
Ġlea ves
ĠautÃ©n tica
ĠPRES ID
Ġdistingu ish
ett lement
Ġimpar cial
Ġhaz ards
ĠScot land
ĠÏģ ÏįÎ¸Î¼Î¹
ĠcÃ©l ulas
ĠÎ½ÏĮÎ¼ Î¿Ïħ
icotrÃ³p icas
Ġaprovecha miento
ÏģÎ¿ÏĢÎ¿ ÏĢÎ¿
ĠSubra ya
I taly
L V
O r
S pa
S UR
b id
u ve
Ġin ha
Ġel usiÃ³n
ĠA di
Ġun ter
Ġv cprd
ĠT RE
Ġac cede
Ġg am
ĠP EN
Ġ5 000000
Ġ6 49
Ġpre g
ĠB en
ĠB ir
cu erdo
je tas
Ġaccor ded
ill os
Ġsolici tarÃ¡
Ġten encia
sign ed
Ġ24 94
Ġoblig atory
IS SAU
Ġcorrespon dence
Ġconstitu idas
erg er
work s
14 5
ĠtÃ©cn icamente
15 8
Ġau ction
Ġ40 64
Ġinde fin
Ġfu eran
Ġregula riz
Ġ36 65
IT Ãī
Ġsur ro
Ġsel ect
Ġtrabaj an
Ġwa ges
ÅĤ os
Ġge la
van Ã©
Ġaccep ts
Ġvac a
Ġ55 000
Ġorden adores
Äį nÃŃ
ĠSch ed
Ã¨ res
Ġabon adas
mark et
Ġimplica ciÃ³n
Ġimpres cindi
Ġperf il
Ġbanc aria
Ġpare cen
mor Ã¡n
ĠRES UL
Ġrestring ida
Ġtro zos
ĠANIM O
Ġconverti rse
Ġcumula tive
ĠIniti ative
Ġswitch gear
Ġfedera do
Ġevacu aciÃ³n
Ġparliament ary
Ġbiofuel s
Tech nical
3 42
C ER
F ICI
S pecific
a menta
e ment
s una
u is
la t
Ġs pongiform
ent ena
ĠC irc
Ġn ale
Ġn Ã£o
ra d
res o
Ġdel im
Ġbe ings
eg as
ĠD iss
ĠR onda
ĠP osta
ĠM OD
Ġby Äĩ
Ġcont ras
ist entes
Ġ8 69
co tic
Ġdis ability
Ġinform Ã¡tica
Ġmedi aciÃ³n
ĠU s
me z
go la
Ġ22 04
Ġgran o
Ġover sight
Ġ95 8
Ġge mÃ¤ÃŁ
loc ot
Ġban das
Ġsee m
Ġciudad ano
Ġflex ibles
Ġmanifies ta
Ġmuest ran
Ġ040 5
Ġreac ciones
Ġprecise ly
Ġprivi leges
Ġinfec tious
Ġencon tra
Ġarbit ration
Ãļ N
ĠclÃŃn ico
ĠFI LE
Ġhydro carbons
ĠPROP UES
Ġascen derÃ¡
ĠCOS TS
ĠAID S
Ġzoon osis
Ġchlor ide
ĠÃ¶ ver
ĠBes ch
ĠÎµÏĢÎ¹ÏĩÎµÎ¹ÏģÎ® ÏĥÎµÎ¹ÏĤ
ĠÎºÎ± Î¸
ÏĢÎµ Î¶
ĠprzystÄħpien ia
Ġsummar ised
ĠContract s
Ġinunda ciones
Ġsinies tros
Ġconfisc ation
ĠBUD GET
Ġelectrom Ã©dicos
ĠTRAN SP
H asta
V i
d re
l ÃŃn
in n
or ÃŃas
Ġs Ã©
Ġla menta
Ã³ b
Ġen ri
Ġor u
Ġg old
tu ri
Ġ6 27
tr icos
Ġ8 23
Ġ8 65
Ġ7 28
Ġ7 45
des t
ĠCon tact
Ġdo u
hor e
Ġins crito
ĠV ar
Ġra pidez
Ġmark ings
fin a
tin o
Ġmerc ancias
Î± Îº
ba u
Ġposi tivas
Ġconstitu ent
Ġfo cal
hol ding
Ġprofes iones
Ġaccoun ted
Ġacep tÃ³
Ġanalys ing
Ġsen ior
jes zky
Ġdepen da
Ġfirma da
AG AS
ĠEslo vaca
Ġlead s
Ġseman al
EX O
Ġsupervis ed
Ac cording
Ġbelong s
Ġreflect ing
Ġgri ega
ĠCC R
ĠÅ ½
Ġaband ono
Ġestipula do
ostic hus
Ġsugges ted
ĠBudget ary
Ġtelev isi
Ġmotiv aciÃ³n
Ġpercib ir
Ġligh ting
Ġesco lar
ĠKaza jstÃ¡n
ĠPak istÃ¡n
ĠdinÃ¡m ica
Ġinvoc ados
Î®Î¸Î·Îº Îµ
ESTI G
Ġsubyac entes
ĠMÃ© xico
Ġeval Ãº
ĠDiss ostichus
5 0000
A IS
I mplementation
f an
h la
p lica
in ated
er d
un kt
ĠC ases
ec tu
Ġfor o
ĠS AN
ot ropic
ĠT B
ĠT ipo
ĠI TS
Ġcomp uesta
Ġcu Ã¡les
cial e
Ġ7 37
Ġinter acciÃ³n
Ġme locot
ĠB T
Ġsub zona
Ġrefer ido
ĠPar lamentos
titu des
Ġcer can
tal ecer
Ġpo or
Ġpo ol
Ġle ase
Ġ13 42
Ġz Ã¡
ess a
Ġall ÃŃ
ens is
Ġ28 08
ÏĢ Î¬Î½
Ġsuper se
ĠtÃ© lex
Ġdesarrol lando
50 4
Ġactual izarÃ¡
Ġtransport ing
Ġte lex
Ġdistin tivo
Ġtransform ation
Ġacep tarse
Ġ44 4
Ġcompren der
ĠSch leswig
Ġst ran
ĠWh at
Ġcuar entena
IG N
Ġdeg rees
Ad ditional
ĠOper ational
ĠdesempeÃ± an
Ġage ing
ĠMeas urement
ĠConsi ders
Ġdomin io
Ġextre mo
Ġllama do
Ġllama das
ĠOCT s
Ġsuministra dos
Ġeth nic
Ġclim Ã¡ticas
ĠVol umen
Ġgratu i
ĠBet ween
ĠMÃ©to do
Ġencen dedores
LEMENT ATION
Ġweak nesses
Ġdivul gar
Ġwur de
ĠÎĨ ÏģÎ¸ÏģÎ¿
liwo ÅĽci
Ġherb Ã¡ceos
A ustria
D en
H ols
M er
k Ã¡
o vers
en ced
Ġp om
os Ã©
Ġs ca
Ġs quare
as ide
Ġf es
Ġre marks
te ment
le mentos
Ġy ute
Ġap lazamiento
Ġco Ã»
li v
ĠR ecu
ĠP LA
ida de
Ġpor tion
Ġcont ribuido
Ġaut en
Ġ8 36
ĠG ew
lic arÃ¡n
ric as
Ġsta bil
ĠK al
Ġoblig adas
20 1
20 4
AN TI
Ġmin ors
Ġmil ÃŃmetros
ĠIII a
Ġro ugh
Ġbenefici an
Ġbenefici arias
Ġgu ÃŃa
IT AL
43 7
Ġasign arÃ¡
Ġdese quili
Ġalloc ating
Ġavi ones
ass ing
Ġassist ing
Ġradi aciones
Deci sions
Ġport foli
Ã´ te
ĠSh anghai
ĠXX I
Ġacumula dores
Ġdedica ted
ĠCOMUN IT
Ġcomplex ity
Ġattes tation
Ġderiva tives
Ġconduci r
sub si
ĠMejor a
Ġnov embre
ÄĹ s
Ġhum edad
Ġentab lar
Ġunila teral
Ġbiode grada
ĠMIEMB ROS
D ie
M ON
j iang
p is
p ical
r d
s ol
en ig
Ġde ro
Ġc ards
re f
Ġcon exos
Ġre tros
Ġqu o
ĠS y
ĠD ra
Ġv ide
ot eca
Ġg es
ĠP agos
ĠI CC
ir ty
ĠM io
ver sa
Ġag li
Ġ11 65
Ġra ted
Ġsec os
ĠK i
za ÅĦ
Ġcal enta
Ġ26 01
19 1
ms ung
Ġcla ros
Ġvir al
OR K
25 4
TION AL
pro fit
Ġadap tados
ĠEx emp
Ġfix es
Ġesti Ã©r
Ġ45 000
De fini
Ġmill Ã³n
No tice
Ġ48 7
Ġlan ds
Ġban ds
Ġcompar tida
Ġcomprob Ã³
Ġreti rarse
Ġintrodu ces
Ġmanda tos
Ġbi cicletas
ĠMe tal
Ġremo ving
Ġven didas
Ġbar reras
Ġproteg idos
ĠSE K
Ġvisi bilidad
Ġsupervis ing
ĠÏĢÎ± ÏģÎ¿Ïį
Ġinforma zioni
ÏĨÎ± ÏģÎ¼
ĠTAR GET
CP T
Ġsupedi tado
Ġdeliber ate
ĠHuman os
ĠAu jeszky
ĠExper ts
Ġintroduct oria
ĠCEN TR
Ġperturb aciÃ³n
ĠHol ding
bbe an
Ġverte bra
ĠSERV ICI
park ling
Ġfinaliz Ã³
ĠexistÃŃ an
ĠSex ta
Ġfues e
Ġpodsta wie
ĠCiu dad
V II
j usti
Ġs un
Ġs ponsor
ci c
ed ing
Ġl iter
Ġan uncia
Ġan omal
00 5
ĠE qu
te i
si eron
Ġes que
ĠS ir
ĠT Ã©l
ĠReg las
Ġres table
Ġ6 26
Ġpre vailing
Ġ8 45
Ġ7 33
Ġob so
ĠF aro
um es
rom isos
Ġdi arias
me as
mo val
ore tical
ĠV ig
ĠRe levant
Ġra ting
Ġ16 0000
Ġestableci endo
Ġ22 02
Ġexpor ta
Ġwork place
AR IA
Ġgra des
40 8
Ġincre mentado
Ġcontro lados
del se
ĠLA ID
Ġ46 3
Ġ66 1
Ġglobal mente
ĠPo lo
ĠEM P
Ġ2200 00
Ġmor tal
ĠElect ro
ĠMil k
Ġacorda das
Ġpil lar
Ġestipula das
ĠDepar tamento
Ġmos trÃ³
Ġduplica tion
omet ric
Do cu
Pod rÃ¡n
ĠEng land
Ġidi omas
Ġsilv icultura
ĠINGR ESOS
ĠestiÃ©r col
O A
a bly
v re
ti bles
ĠE th
Ġto xi
Ġpro iz
[...]
