{"<s>":0,"<pad>":1,"</s>":2,"<unk>":3,"<mask>":4,"!":5,"\"":6,"#":7,"$":8,"%":9,"&":10,"'":11,"(":12,")":13,"*":14,"+":15,",":16,"-":17,".":18,"/":19,"0":20,"1":21,"2":22,"3":23,"4":24,"5":25,"6":26,"7":27,"8":28,"9":29,":":30,";":31,"<":32,"=":33,">":34,"?":35,"@":36,"A":37,"B":38,"C":39,"D":40,"E":41,"F":42,"G":43,"H":44,"I":45,"J":46,"K":47,"L":48,"M":49,"N":50,"O":51,"P":52,"Q":53,"R":54,"S":55,"T":56,"U":57,"V":58,"W":59,"X":60,"Y":61,"Z":62,"[":63,"\\":64,"]":65,"^":66,"_":67,"`":68,"a":69,"b":70,"c":71,"d":72,"e":73,"f":74,"g":75,"h":76,"i":77,"j":78,"k":79,"l":80,"m":81,"n":82,"o":83,"p":84,"q":85,"r":86,"s":87,"t":88,"u":89,"v":90,"w":91,"x":92,"y":93,"z":94,"{":95,"|":96,"}":97,"~":98,"¡":99,"¢":100,"£":101,"¤":102,"¥":103,"¦":104,"§":105,"¨":106,"©":107,"ª":108,"«":109,"¬":110,"®":111,"¯":112,"°":113,"±":114,"²":115,"³":116,"´":117,"µ":118,"¶":119,"·":120,"¸":121,"¹":122,"º":123,"»":124,"¼":125,"½":126,"¾":127,"¿":128,"À":129,"Á":130,"Â":131,"Ã":132,"Ä":133,"Å":134,"Æ":135,"Ç":136,"È":137,"É":138,"Ê":139,"Ë":140,"Ì":141,"Í":142,"Î":143,"Ï":144,"Ð":145,"Ñ":146,"Ò":147,"Ó":148,"Ô":149,"Õ":150,"Ö":151,"×":152,"Ø":153,"Ù":154,"Ú":155,"Û":156,"Ü":157,"Ý":158,"Þ":159,"ß":160,"à":161,"á":162,"â":163,"ã":164,"ä":165,"å":166,"æ":167,"ç":168,"è":169,"é":170,"ê":171,"ë":172,"ì":173,"í":174,"î":175,"ï":176,"ð":177,"ñ":178,"ò":179,"ó":180,"ô":181,"õ":182,"ö":183,"÷":184,"ø":185,"ù":186,"ú":187,"û":188,"ü":189,"ý":190,"þ":191,"ÿ":192,"Ā":193,"ā":194,"Ă":195,"ă":196,"Ą":197,"ą":198,"Ć":199,"ć":200,"Ĉ":201,"ĉ":202,"Ċ":203,"ċ":204,"Č":205,"č":206,"Ď":207,"ď":208,"Đ":209,"đ":210,"Ē":211,"ē":212,"Ĕ":213,"ĕ":214,"Ė":215,"ė":216,"Ę":217,"ę":218,"Ě":219,"ě":220,"Ĝ":221,"ĝ":222,"Ğ":223,"ğ":224,"Ġ":225,"ġ":226,"Ģ":227,"ģ":228,"Ĥ":229,"ĥ":230,"Ħ":231,"ħ":232,"Ĩ":233,"ĩ":234,"Ī":235,"ī":236,"Ĭ":237,"ĭ":238,"Į":239,"į":240,"İ":241,"ı":242,"Ĳ":243,"ĳ":244,"Ĵ":245,"ĵ":246,"Ķ":247,"ķ":248,"ĸ":249,"Ĺ":250,"ĺ":251,"Ļ":252,"ļ":253,"Ľ":254,"ľ":255,"Ŀ":256,"ŀ":257,"Ł":258,"ł":259,"Ń":260,"Ġa":261,"de":262,"Ġt":263,"en":264,"on":265,"Ġde":266,"es":267,"in":268,"Ġp":269,"er":270,"la":271,"ti":272,"Ġc":273,"or":274,"os":275,"Ġs":276,"ci":277,"Ġth":278,"mp":279,"Ġ1":280,"re":281,"ar":282,"Ġ,":283,"Ġthe":284,"Ġ;":285,"Ġo":286,"ta":287,"Ġla":288,"Ġe":289,"amp":290,"al":291,"Ġ.":292,"is":293,"Ġ&":294,"ro":295,"an":296,"Ġ#":297,"Ġin":298,"ent":299,"as":300,"Ġm":301,"Ġ12":302,"Ã³":303,"ic":304,"Ġof":305,"Ġ124":306,"Ġf":307,"Ġ)":308,"un":309,"ed":310,"Ã³n":311,"ĠC":312,"it":313,"qu":314,"Ġl":315,"tion":316,"om":317,"Ġb":318,"Ġ2":319,"Ġen":320,"Ġcon":321,"Ġan":322,"do":323,"Ġre":324,"00":325,"Ġel":326,"Ġn":327,"ciÃ³n":328,"ĠE":329,"da":330,"ra":331,"Ġqu":332,"ec":333,"ing":334,"Ġto":335,"Ġpro":336,"te":337,"ment":338,"le":339,"res":340,"Ġy":341,"Ġ(":342,"Ġ/":343,"Ġand":344,"Ã¡":345,"ĠA":346,"ÃŃ":347,"Ġw":348,"si":349,"Ġdel":350,"Ġd":351,"Ġlos":352,"ul":353,"Ġse":354,"Ġque":355,"Ġap":356,"tiv":357,"Ġlas":358,"ica":359,"ĠCom":360,"Ġsu":361,"Ġpar":362,"ter":363,"mb":364,"Ġun":365,"Ġh":366,"Ġfor":367,"Ġes":368,"Ġ200":369,"Ġ9":370,"ri":371,"tic":372,"Ġco":373,"Ġbe":374,"to":375,"cion":376,"ce":377,"eg":378,"ĠS":379,"ĠD":380,"li":381,"ĠR":382,"dos":383,"du":384,"ur":385,"at":386,"Ġ3":387,"Ġv":388,"ot":389,"emb":390,"Ġ:":391,"ĠT":392,"Ġsh":393,"di":394,"Ġex":395,"Ġor":396,"Ġac":397,"ut":398,"Ġg":399,"all":400,"Ġi":401,"ation":402,"Ġ%":403,"lo":404,"ula":405,"aciÃ³n":406,"Ġal":407,"pe":408,"us":409,"ĠP":410,"et":411,"ĠI":412,"ct":413,"ida":414,"ir":415,"Ã©":416,"Ġar":417,"ciones":418,"im":419,"Ġpor":420,"orm":421,"Ġon":422,"sion":423,"ĠReg":424,"Ġpara":425,"ĠComm":426,"das":427,"Ġcom":428,"ĠM":429,"ari":430,"Ġshall":431,"sta":432,"Ġno":433,"ire":434,"der":435,"Ġas":436,"ol":437,"ch":438,"ig":439,"ith":440,"isi":441,"Ġ4":442,"tu":443,"bl":444,"ĠL":445,"se":446,"Ġcomp":447,"ĠN":448,"ble":449,"Ġper":450,"Ġby":451,"cul":452,"Ġwith":453,"he":454,"form":455,"vi":456,"Ġres":457,"ente":458,"tes":459,"ity":460,"Ġprodu":461,"ere":462,"tÃŃ":463,"Ġma":464,"ve":465,"Ġimp":466,"Ġquot":467,"Ġwh":468,"ect":469,"ran":470,"Ġso":471,"tÃŃcul":472,"Ġ19":473,"uro":474,"ĠAr":475,"Ġis":476,"Ġpres":477,"Ġ5":478,"fica":479,"Ġcu":480,"il":481,"Ã¡n":482,"ĠartÃŃcul":483,"Ġcont":484,"por":485,"ĠArtic":486,"cial":487,"Ġesta":488,"ich":489,"mento":490,"ist":491,"ĠCE":492,"enta":493,"Ġ6":494,"od":495,"ex":496,"ember":497,"irec":498,"fer":499,"per":500,"ly":501,"ĠartÃŃculo":502,"Ġaut":503,"urope":504,"Ġapp":505,"tr":506,"ĠArticle":507,"min":508,"ient":509,"fi":510,"Ġha":511,"tive":512,"cia":513,"iz":514,"Ġpre":515,"Ġ8":516,"ver":517,"idad":518,"Ġ7":519,"ĠSta":520,"tado":521,"ĠEsta":522,"Ġreg":523,"ulation":524,"Ġuna":525,"âĢ":526,"lamento":527,"Ġthat":528,"gra":529,"ĠEurope":530,"Ġmi":531,"edi":532,"ales":533,"isiÃ³n":534,"ission":535,"ĠDirec":536,"co":537,"ĠâĢ":538,"Ġdis":539,"des":540,"Ãº":541,"pos":542,"Ġmiemb":543,"ĠThe":544,"Ġ0":545,"ma":546,"Ġob":547,"ted":548,"lu":549,"ced":550,"th":551,"ĠCon":552,"Ġinter":553,"lica":554,"ts":555,"ĠNo":556,"ado":557,"ces":558,"Ġme":559,"Ġ93":560,"ĠF":561,"Ġ91":562,"den":563,"Ġser":564,"ĠRegulation":565,"Ġinform":566,"tiva":567,"ue":568,"Ġproduct":569,"ros":570,"ĠMember":571,"Ġfin":572,"Ġcons":573,"Ġca":574,"ĠComisiÃ³n":575,"Ġad":576,"Ġ199":577,"ded":578,"Ġdes":579,"um":580,"Ġapar":581,"bre":582,"ĠReglamento":583,"ĠCommission":584,"ties":585,"tions":586,"ĠO":587,"Ġit":588,"id":589,"ues":590,"ia":591,"fic":592,"ure":593,"lan":594,"Ġdo":595,"ĠEC":596,"ĠB":597,"clu":598,"rom":599,"Ġwhich":600,"rans":601,"Ġimpor":602,"Ġpa":603,"Ġare":604,"ĠCommun":605,"mente":606,"Ġlo":607,"cer":608,"ge":609,"tos":610,"Ġapartado":611,"arÃ¡":612,"Ġthis":613,"Ġrela":614,"Ġr":615,"oun":616,"Ġmar":617,"ion":618,"Ġtrans":619,"iento":620,"Ġent":621,"jo":622,"cu":623,"ados":624,"Ġsub":625,"ding":626,"Ġmedi":627,"ance":628,"men":629,"Ġdeb":630,"ments":631,"io":632,"ven":633,"ten":634,"Ġmo":635,"EC":636,"ĠU":637,"ĠÂ":638,"dad":639,"Ġmiembros":640,"Ġdi":641,"Ġrefer":642,"ĠDe":643,"ĠCommunity":644,"ĠEstados":645,"tan":646,"ular":647,"Ġag":648,"Ġfrom":649,"Ġda":650,"Ġtra":651,"ĠAn":652,"ary":653,"pon":654,"ĠStates":655,"el":656,"ĠIn":657,"Ġ2005":658,"ĠâĢĶ":659,"ard":660,"Ġpresente":661,"Ġpr":662,"ando":663,"Ġnot":664,"ores":665,"ĠG":666,"ĠPar":667,"red":668,"Ġrequ":669,"Ġcas":670,"eces":671,"gan":672,"Ã±":673,"me":674,"Ġj":675,"Ġmay":676,"Ġapos":677,"cor":678,"Ġ10":679,"200":680,"encia":681,"titu":682,"Ġta":683,"Ġproced":684,"Ġat":685,"Ġneces":686,"ad":687,"Ġsobre":688,"ish":689,"les":690,"Ġef":691,"up":692,"hor":693,"tifica":694,"Ġestabl":695,"low":696,"Ġexp":697,"Ġ2004":698,"cil":699,"ech":700,"Ġautor":701,"ate":702,"bi":703,"entes":704,"Ġunder":705,"siÃ³n":706,"Ġins":707,"Ġsig":708,"ision":709,"Ġter":710,"port":711,"ĠEuropean":712,"Ġpartic":713,"Ġsus":714,"ÃŃa":715,"uld":716,"mo":717,"Ġus":718,"Ġauthor":719,"dop":720,"ther":721,"st":722,"Ġfa":723,"Ġadop":724,"Ġaplica":725,"cip":726,"tas":727,"ario":728,"Ġcer":729,"ures":730,"Ġpu":731,"Ġparticular":732,"con":733,"vision":734,"je":735,"ĠÎ":736,"Ġbas":737,"Ġsi":738,"pec":739,"rol":740,"Ġrep":741,"ĠJ":742,"idades":743,"ph":744,"ĠDirectiva":745,"ould":746,"ĠComun":747,"Ġcomun":748,"ĠDeci":749,"tal":750,"wn":751,"ĠConse":752,"adas":753,"ĠDirective":754,"qui":755,"Ġcomo":756,"ada":757,"Ġinclu":758,"ust":759,"ĠConsejo":760,"ui":761,"Ġ11":762,"Ġpos":763,"ouncil":764,"miento":765,"ante":766,"Ġpo":767,"ore":768,"ĠLa":769,"ero":770,"Ġcar":771,"ĠEl":772,"anti":773,"ves":774,"Ġcompet":775,"Ġconsi":776,"Ġfinan":777,"Ġaccor":778,"ting":779,"ree":780,"ĠCouncil":781,"arÃ¡n":782,"nex":783,"Ġcondi":784,"Ġ2006":785,"Ġprovi":786,"ollow":787,"ĠEEC":788,"ĠUn":789,"graph":790,"Ġman":791,"tru":792,"taciÃ³n":793,"ac":794,"rit":795,"ĠCEE":796,"cio":797,"Ġ15":798,"Ã¡s":799,"posi":800,"Ġorgan":801,"ÃŃs":802,"rÃ¡":803,"Ġfollow":804,"rib":805,"ities":806,"Ġdeci":807,"Ġle":808,"stan":809,"Ġpers":810,"ud":811,"va":812,"Ġprovision":813,"val":814,"Ġmeas":815,"ke":816,"gn":817,"ener":818,"ĠAnnex":819,"peci":820,"so":821,"tra":822,"arse":823,"Ġemp":824,"ĠV":825,"Ġ13":826,"tivo":827,"Ġpod":828,"Ġhas":829,"tain":830,"Ġ14":831,"Ġshould":832,"mit":833,"Ġseg":834,"Ġparti":835,"Ġother":836,"Ġreferred":837,"ca":838,"exo":839,"pa":840,"termin":841,"ĠComunidad":842,"ene":843,"ational":844,"Ġperson":845,"Ġfi":846,"ĠH":847,"Ġpri":848,"Ġproduc":849,"ĠEn":850,"000":851,"Ġprogra":852,"Ġ2003":853,"ĠEU":854,"Ġmodi":855,"Ãºn":856,"ys":857,"vis":858,"Ġaccord":859,"ĠRe":860,"Ġna":861,"ers":862,"Ġaccordance":863,"par":864,"Ġits":865,"Ġoper":866,"Ġdetermin":867,"Ġcontra":868,"Ġentre":869,"Wh":870,"Ġmedidas":871,"Ġappro":872,"go":873,"Ġra":874,"Ġmark":875,"lici":876,"The":877,"pues":878,"Ġu":879,"ĠState":880,"Ġcor":881,"cep":882,"yu":883,"ear":884,"teri":885,"Ġdich":886,"era":887,"cern":888,"Ġdisposi":889,"arios":890,"fin":891,"mi":892,"ant":893,"aciones":894,"blic":895,"ie":896,"Ġmeasures":897,"Ġ20":898,"we":899,"Ġ17":900,"ĠPro":901,"ations":902,"Ġch":903,"Ġapplica":904,"izaciÃ³n":905,"Ġconcern":906,"ON":907,"Ġleg":908,"ĠII":909,"Ġproductos":910,"fici":911,"iÃ³n":912,"Ġout":913,"Ġaf":914,"Ġthere":915,"ug":916,"Ġconform":917,"Ġpla":918,"ence":919,"Ġfollowing":920,"lic":921,"ÏĦ":922,"Ġmer":923,"Ġsa":924,"ĠEstado":925,"Ġmen":926,"aria":927,"rÃ¡n":928,"Î¿":929,"Ġestable":930,"Ġ31":931,"ura":932,"Ġve":933,"bles":934,"vo":935,"tivos":936,"ice":937,"istra":938,"Where":939,"Ġ16":940,"ual":941,"dica":942,"ĠAg":943,"ork":944,"Ġab":945,"tin":946,"Î¹":947,"Ġany":948,"ĠaplicaciÃ³n":949,"Ġsup":950,"menta":951,"Ġ-":952,"Ġestableci":953,"Ġhave":954,"lig":955,"Ġmarket":956,"Ġ30":957,"Ġz":958,"arias":959,"Ġmerc":960,"Ġne":961,"EN":962,"Ġayu":963,"Ġcomunit":964,"Ġtheir":965,"Ġparagraph":966,"no":967,"Ġproducts":968,"Ġfun":969,"Ġpur":970,"Ġdeber":971,"Î±":972,"Ġ2002":973,"Ġli":974,"Ġest":975,"ill":976,"Ġform":977,"Ġsolici":978,"ric":979,"Ġmiembro":980,"erdo":981,"ving":982,"Ġnorm":983,"unt":984,"ba":985,"Ġsta":986,"cios":987,"Ġdisposiciones":988,"Ġorig":989,"Ġactiv":990,"OM":991,"Ġestablish":992,"Ġ18":993,"ty":994,"tro":995,"Ġinformation":996,"Ġdown":997,"Ġamen":998,"Ġwhere":999,"man":1000,"ĠÂ°":1001,"reg":1002,"ach":1003,"oper":1004,"Ġcaso":1005,"Ġrequire":1006,"Ġten":1007,"ina":1008,"Ġval":1009,"liz":1010,"Ġdefin":1011,"las":1012,"ES":1013,"Ġcertifica":1014,"tec":1015,"Ġcontrol":1016,"10":1017,"Ġanexo":1018,"ĠLos":1019,"ip":1020,"mon":1021,"ras":1022,"ess":1023,"Ġplan":1024,"Ġprocedim":1025,"Ġ2001":1026,"est":1027,"vel":1028,"pri":1029,"Ġinto":1030,"tivas":1031,"derando":1032,"ose":1033,"cias":1034,"Ġsec":1035,"Ġmodifica":1036,"ries":1037,"Ġspeci":1038,"Ġsuch":1039,"Ġk":1040,"Ġestablec":1041,"Ġinves":1042,"Ġprogram":1043,"Ã©s":1044,"na":1045,"Ġ1999":1046,"ya":1047,"duc":1048,"tem":1049,"ministra":1050,"ical":1051,"Ġprovided":1052,"Ġ22":1053,"ural":1054,"Ġop":1055,"Ġresul":1056,"Ġpol":1057,"jec":1058,"Ġ2000":1059,"uciÃ³n":1060,"Ġall":1061,"ĠpaÃŃs":1062,"Ġyear":1063,"Ġregard":1064,"our":1065,"Ġwithin":1066,"ĠaÃ±":1067,"bili":1068,"Ġbeen":1069,"cla":1070,"Ġanim":1071,"TI":1072,"ds":1073,"siderando":1074,"blica":1075,"ated":1076,"Î½":1077,"ĠinformaciÃ³n":1078,"ory":1079,"ĠmÃ¡s":1080,"teg":1081,"fied":1082,"Ġperi":1083,"Ġprovisions":1084,"ĠEUR":1085,"ine":1086,"cional":1087,"tados":1088,"ien":1089,"Ġgener":1090,"zo":1091,"mpli":1092,"Ġconte":1093,"ios":1094,"Ġbet":1095,"Ġobje":1096,"Con":1097,"age":1098,"Ġaid":1099,"Ġ23":1100,"Ġ25":1101,"Ġdur":1102,"uiente":1103,"Ġgo":1104,"Ġrec":1105,"king":1106,"Ġ21":1107,"ase":1108,"ĠDecisiÃ³n":1109,"ĠDecision":1110,"xim":1111,"ector":1112,"Ġorganis":1113,"tig":1114,"que":1115,"Ġuti":1116,"ÃŃas":1117,"Ġconformidad":1118,"rech":1119,"tar":1120,"cess":1121,"Ġindica":1122,"ese":1123,"Whereas":1124,"Ġrepres":1125,"ject":1126,"Ġequi":1127,"Ġcos":1128,"Ġexpor":1129,"Ġimple":1130,"Ġempres":1131,"su":1132,"ay":1133,"Ġset":1134,"Ġposi":1135,"Ġnecess":1136,"tee":1137,"her":1138,"int":1139,"ĠEuropea":1140,"Ġlet":1141,"reement":1142,"Ġens":1143,"ber":1144,"itÃ©":1145,"ico":1146,"mentos":1147,"ween":1148,"tud":1149,"ĠK":1150,"sign":1151,"ved":1152,"ER":1153,"incip":1154,"itos":1155,"Ġprotec":1156,"Ġperiod":1157,"Ġnecessary":1158,"Ġdocu":1159,"ĠEN":1160,"Ġbetween":1161,"Ġadministra":1162,"Ġacco":1163,"Ġcooper":1164,"dera":1165,"ices":1166,"Ġci":1167,"Ġmon":1168,"Îµ":1169,"embre":1170,"pi":1171,"Ġdestin":1172,"Ġfinanci":1173,"pect":1174,"Ġwas":1175,"Ġass":1176,"Ïģ":1177,"Ġorigin":1178,"Ġ24":1179,"Ã©n":1180,"Ġgar":1181,"Ġprevis":1182,"pecial":1183,"Ġrespon":1184,"cionales":1185,"Ġayuda":1186,"ht":1187,"cy":1188,"mpla":1189,"Ġderech":1190,"of":1191,"ga":1192,"Ġecon":1193,"Ġefec":1194,"Ġapply":1195,"12":1196,"Ġarreg":1197,"tica":1198,"Ġmean":1199,"fore":1200,"Ġarreglo":1201,"Ġ*":1202,"ally":1203,"Ġutiliz":1204,"Ġprincip":1205,"Ġfir":1206,"Ġcondiciones":1207,"Ïĥ":1208,"Ġoblig":1209,"try":1210,"ito":1211,"ĠSe":1212,"itu":1213,"Ġservi":1214,"za":1215,"Ġgran":1216,"Ġcual":1217,"ĠCommit":1218,"Ġcal":1219,"Ġden":1220,"ido":1221,"ĠTh":1222,"Ġ29":1223,"Ġserv":1224,"Ġrespec":1225,"Ġ27":1226,"ens":1227,"Ġreal":1228,"ĠComitÃ©":1229,"ks":1230,"Ġotr":1231,"bor":1232,"ĠW":1233,"Ġthan":1234,"Ġmis":1235,"Ġsiguiente":1236,"Ġnational":1237,"Ġauthorities":1238,"emp":1239,"Ġregion":1240,"Ġcomer":1241,"ren":1242,"ĠRep":1243,"ĠCommittee":1244,"0000":1245,"Ġ28":1246,"ila":1247,"bil":1248,"truct":1249,"isla":1250,"ĠLas":1251,"ods":1252,"reat":1253,"Î·":1254,"ÃŃo":1255,"Ġsector":1256,"esti":1257,"echa":1258,"unto":1259,"ules":1260,"Ġappropri":1261,"velo":1262,"mbi":1263,"Ġsin":1264,"Ġterrit":1265,"ÏĢ":1266,"ĠÂ»":1267,"able":1268,"Ġmust":1269,"El":1270,"velop":1271,"Ġpresent":1272,"Ġtex":1273,"valu":1274,"Ġapplication":1275,"ru":1276,"Ġlaid":1277,"mos":1278,"Ġhe":1279,"Ġparticip":1280,"ies":1281,"IS":1282,"Ġeff":1283,"Ġ26":1284,"eti":1285,"Considerando":1286,"Ġconcerned":1287,"Ġcontempla":1288,"Ġup":1289,"Ġparte":1290,"als":1291,"Ġdecision":1292,"Ġautoridades":1293,"Ġaplic":1294,"ll":1295,"Ġacu":1296,"Ġlim":1297,"ff":1298,"mber":1299,"log":1300,"Ġni":1301,"lev":1302,"Ġprocedimiento":1303,"lia":1304,"Ġindu":1305,"Ġcuenta":1306,"out":1307,"19":1308,"Ġlegisla":1309,"Ġinc":1310,"tis":1311,"Ġinvestig":1312,"pen":1313,"ribu":1314,"Ġconditions":1315,"respon":1316,"Ġdist":1317,"Ġprocedure":1318,"Ġprim":1319,"Ġsuper":1320,"Ġbene":1321,"Ġthose":1322,"Ġrules":1323,"ĠAcu":1324,"ystem":1325,"Ġcorrespon":1326,"Ġdecla":1327,"ĠDE":1328,"Ġam":1329,"Ġsitu":1330,"Ġorder":1331,"ms":1332,"Ġini":1333,"ĠpodrÃ¡":1334,"puesto":1335,"uri":1336,"bilidad":1337,"Ġrepresenta":1338,"AL":1339,"Ġuse":1340,"ĠTra":1341,"Ġproce":1342,"ĠperÃŃo":1343,"Ġindi":1344,"Ġcada":1345,"Ġevalu":1346,"ÃŃn":1347,"ĠAcuerdo":1348,"Ġcan":1349,"taciones":1350,"ĠAgreement":1351,"ry":1352,"ĠtÃ©":1353,"ista":1354,"ating":1355,"eda":1356,"ÏĤ":1357,"estiÃ³n":1358,"ticas":1359,"Ġmercado":1360,"La":1361,"ĠCh":1362,"rig":1363,"Ġone":1364,"11":1365,"Ġensure":1366,"Ġmed":1367,"Ġapro":1368,"arrol":1369,"Ġcla":1370,"Ġconstitu":1371,"Ġver":1372,"Ġconclu":1373,"Ġcompetent":1374,"Ġgas":1375,"enti":1376,"dades":1377,"Ġ60":1378,"Ġvig":1379,"ĠpodrÃ¡n":1380,"erv":1381,"Ġfinal":1382,"Ġwill":1383,"Ġsal":1384,"Ġthey":1385,"Ġcuando":1386,"Ġpes":1387,"Ġcomple":1388,"imen":1389,"Ġnormas":1390,"Ġwork":1391,"Ġinteres":1392,"ator":1393,"20":1394,"bility":1395,"Ġdevelop":1396,"mission":1397,"ĠpaÃŃses":1398,"Ġeach":1399,"tional":1400,"mun":1401,"Ġpropos":1402,"Ã³m":1403,"Ġmade":1404,"Ġconsul":1405,"ĠEuropeo":1406,"ges":1407,"Ġappropriate":1408,"Ġsis":1409,"get":1410,"ectos":1411,"ĠperÃŃodo":1412,"raf":1413,"Ġref":1414,"Ġnue":1415,"Ġdu":1416,"Ã©g":1417,"ime":1418,"sible":1419,"ientos":1420,"ord":1421,"Ġmencion":1422,"Ġamended":1423,"ĠCo":1424,"Ġfinancial":1425,"Ġlist":1426,"Ġdatos":1427,"Ġsystem":1428,"Ġamoun":1429,"irect":1430,"Ġnu":1431,"Ġinf":1432,"CI":1433,"Ġsustitu":1434,"ficial":1435,"Ġpublic":1436,"Ġdesign":1437,"Ġcomercial":1438,"ken":1439,"Ġpresenta":1440,"tives":1441,"Ġrequirements":1442,"ĠCOM":1443,"Ġgeneral":1444,"ĠÃ":1445,"Ġeste":1446,"Ġletra":1447,"iden":1448,"Ġdispuesto":1449,"fa":1450,"Ġcertain":1451,"Ġcre":1452,"Ġfij":1453,"Ġ100":1454,"Ġdesarrol":1455,"Ġrefi":1456,"zar":1457,"Ġmateri":1458,"ientes":1459,"Ġdefini":1460,"ap":1461,"Ġbasis":1462,"In":1463,"ĠDec":1464,"ress":1465,"erg":1466,"tor":1467,"ĠEs":1468,"fy":1469,"Ġbo":1470,"Ġrepla":1471,"Ġtotal":1472,"jer":1473,"Ġexist":1474,"Ġtercer":1475,"icos":1476,"Ġcount":1477,"IN":1478,"Ġexcep":1479,"Ġservicios":1480,"encias":1481,"Ġnom":1482,"Ġnotifica":1483,"Ġcountries":1484,"ird":1485,"ye":1486,"Ïħ":1487,"omic":1488,"Ġcover":1489,"Ġhan":1490,"Ġade":1491,"Ġfig":1492,"ones":1493,"Ġpurpos":1494,"Ġpue":1495,"Ġif":1496,"end":1497,"ĠasÃŃ":1498,"Ġpartir":1499,"Ġalso":1500,"Ġlevel":1501,"Ġreco":1502,"Ġcanti":1503,"Ġtraba":1504,"Ġlaw":1505,"Ġtime":1506,"Ġpart":1507,"Ġthese":1508,"los":1509,"Ġsigu":1510,"miti":1511,"Ġinten":1512,"irÃ¡":1513,"Ar":1514,"Ġplazo":1515,"Ġadopt":1516,"Ġactu":1517,"anto":1518,"AN":1519,"uman":1520,"ous":1521,"ĠÂ«":1522,"oci":1523,"ters":1524,"Ġconsidera":1525,"Ġmore":1526,"Ġdirec":1527,"Ġbu":1528,"Ġtake":1529,"icas":1530,"Ġmeans":1531,"ited":1532,"itor":1533,"uridad":1534,"Ġdebe":1535,"Ġbase":1536,"Ġdate":1537,"Ġtech":1538,"car":1539,"ne":1540,"Ġthird":1541,"AR":1542,"Ġquanti":1543,"mentation":1544,"Ġauthority":1545,"Ġveh":1546,"ency":1547,"Ġdurante":1548,"Ġautoriz":1549,"idos":1550,"Ġcase":1551,"Ã©gimen":1552,"13":1553,"Ġtranspor":1554,"Ġfe":1555,"one":1556,"Ġsiguientes":1557,"Ġprocess":1558,"ĠConven":1559,"ĠTH":1560,"Ġnat":1561,"ong":1562,"Ġnew":1563,"Ġfecha":1564,"Ġcualqui":1565,"ĠÏĦ":1566,"Ġelect":1567,"Ġgro":1568,"Ġexa":1569,"tation":1570,"Ġdeclara":1571,"ÃŃfic":1572,"Ġ198":1573,"irc":1574,"Ġiden":1575,"work":1576,"Ġfirst":1577,"ult":1578,"Ġthereof":1579,"br":1580,"Ãºblica":1581,"Ġenti":1582,"50":1583,"jor":1584,"Ġintern":1585,"2005":1586,"uros":1587,"Ġ92":1588,"anc":1589,"medi":1590,"Ġgaranti":1591,"Ġpropues":1592,"Ġnoti":1593,"Ġinstru":1594,"terior":1595,"ised":1596,"lar":1597,"Ġmin":1598,"ĠÃ¡":1599,"stri":1600,"vidu":1601,"14":1602,"Ġforma":1603,"ustom":1604,"Ġconsider":1605,"reaty":1606,"che":1607,"ĠTratado":1608,"Ġinstitu":1609,"Ġespecial":1610,"Ġreplaced":1611,"riter":1612,"Ġmil":1613,"ifica":1614,"cri":1615,"Ġimplementation":1616,"ĠrÃ©gimen":1617,"Ġsea":1618,"ĠTreaty":1619,"Ġvir":1620,"ior":1621,"ĠPor":1622,"land":1623,"ome":1624,"Ġdata":1625,"Ġloc":1626,"ron":1627,"und":1628,"Ġexper":1629,"Ġused":1630,"Ġrefiere":1631,"cn":1632,"Ġsocial":1633,"Ġcontribu":1634,"Ġrespect":1635,"ĠdeberÃ¡":1636,"Ġsubject":1637,"tad":1638,"ĠIII":1639,"Ġ90":1640,"Ġcriter":1641,"Ġsign":1642,"mping":1643,"Ġenv":1644,"Ġcualquier":1645,"vent":1646,"Ġimportan":1647,"Ġindividu":1648,"Ã¡r":1649,"Ġconc":1650,"Ġhaya":1651,"mes":1652,"Ġespec":1653,"aving":1654,"Ġlic":1655,"amiento":1656,"Ġmet":1657,"Ġservices":1658,"ĠTo":1659,"gen":1660,"Ġcontract":1661,"Ġunderta":1662,"Ġmes":1663,"Ġcarri":1664,"ĠserÃ¡":1665,"Ġhere":1666,"Ġejec":1667,"Ġconcerning":1668,"II":1669,"Ġmarco":1670,"Ġneg":1671,"Ġcontin":1672,"Ġpay":1673,"mÃ¡s":1674,"Ġterritor":1675,"ral":1676,"ĠtÃ©cn":1677,"ugh":1678,"Ġgi":1679,"Ġcumpli":1680,"Ġempresas":1681,"vol":1682,"toc":1683,"Ġproduction":1684,"gu":1685,"Ġforce":1686,"isitos":1687,"tema":1688,"ĠâĢĵ":1689,"ĠpolÃŃ":1690,"ĠDecember":1691,"Ġba":1692,"Ġcirc":1693,"Ġtaken":1694,"Ġadopted":1695,"ety":1696,"Ġrig":1697,"30":1698,"Ġconsum":1699,"estion":1700,"Ġmediante":1701,"Ġjur":1702,"Ġdesarrollo":1703,"ĠproducciÃ³n":1704,"ciembre":1705,"yan":1706,"Ġacuerdo":1707,"Ġdiciembre":1708,"Ġsupp":1709,"Ġnumber":1710,"ulo":1711,"Ġexport":1712,"Ġamount":1713,"Ã¤":1714,"Ġdicho":1715,"Ġespeci":1716,"Ġotros":1717,"Ġintro":1718,"Ãºm":1719,"duan":1720,"sel":1721,"Los":1722,"Ġpas":1723,"Ġonly":1724,"ĠUniÃ³n":1725,"Ġantes":1726,"Ġefectu":1727,"15":1728,"Ġsubmit":1729,"ell":1730,"ond":1731,"ĠMar":1732,"Ġdif":1733,"Ġro":1734,"Ġrealiz":1735,"ĠTHE":1736,"rac":1737,"Ġ96":1738,"Ġconta":1739,"Ġvol":1740,"uesto":1741,"35":1742,"ona":1743,"ĠdeberÃ¡n":1744,"aÃ±":1745,"Ġ32":1746,"idas":1747,"IC":1748,"Ġau":1749,"its":1750,"Ġnacionales":1751,"En":1752,"Ġcoun":1753,"alth":1754,"Ġreci":1755,"Ġindustri":1756,"Ġautoridad":1757,"tadas":1758,"tamente":1759,"Ġgra":1760,"ĠprotecciÃ³n":1761,"Ġstan":1762,"Ġfish":1763,"Ġaccount":1764,"Having":1765,"ĠmÃ¡":1766,"tern":1767,"Ġdeben":1768,"ise":1769,"Ġ50":1770,"ÃŃt":1771,"Ġaduan":1772,"Ġderechos":1773,"Ġcapa":1774,"Ġ40":1775,"og":1776,"Ġspecific":1777,"Ġpursu":1778,"ustoms":1779,"60":1780,"Ġcr":1781,"ĠAs":1782,"Ġafter":1783,"Ġsolicitud":1784,"leg":1785,"Ġprograma":1786,"Ġtexto":1787,"ings":1788,"Ġgoods":1789,"Ġestablecer":1790,"liament":1791,"ĠThis":1792,"ĠnÃºm":1793,"2006":1794,"omin":1795,"Ġestablished":1796,"OR":1797,"ecu":1798,"tura":1799,"Ġrelativa":1800,"Ġtodos":1801,"vos":1802,"Reg":1803,"ĠÃº":1804,"Ġhuman":1805,"bo":1806,"Com":1807,"agement":1808,"Ġanti":1809,"ĠUnion":1810,"68":1811,"Ġali":1812,"Ġbenefici":1813,"Ġaddi":1814,"Ġincluding":1815,"ĠArticles":1816,"ast":1817,"dap":1818,"Ġover":1819,"ĠgestiÃ³n":1820,"Ġinde":1821,"inion":1822,"Ġcommon":1823,"ĠParliament":1824,"labor":1825,"OS":1826,"Ġ38":1827,"Ġseguridad":1828,"Ġ95":1829,"Ġqual":1830,"Ġdos":1831,"ĠParlamento":1832,"Ġnecesario":1833,"icaciÃ³n":1834,"ĠartÃŃculos":1835,"Ġcent":1836,"Ġobjeto":1837,"sa":1838,"vern":1839,"Ġdirect":1840,"AS":1841,"ĠAnexo":1842,"ible":1843,"25":1844,"ĠcomÃºn":1845,"Ġdispon":1846,"Ġexclu":1847,"Ġpublica":1848,"Ġorganiz":1849,"ino":1850,"TION":1851,"ĠimportaciÃ³n":1852,"nical":1853,"Ġfu":1854,"ĠSec":1855,"rog":1856,"ĠÃ¡mb":1857,"Ġ37":1858,"Ġproducto":1859,"Ġmedio":1860,"Ġefectos":1861,"40":1862,"pro":1863,"isation":1864,"ĠnÃºmero":1865,"Ġrece":1866,"Ġsubstan":1867,"Ġfo":1868,"Ġrelev":1869,"Ġaprob":1870,"Ġadap":1871,"ordin":1872,"ain":1873,"Ġactividades":1874,"Ġson":1875,"Ġproducer":1876,"Ġcomunitaria":1877,"Ġ97":1878,"Ġejer":1879,"Ġinterven":1880,"igh":1881,"lied":1882,"Ġce":1883,"Ġrespecto":1884,"lti":1885,"teria":1886,"bra":1887,"mas":1888,"urs":1889,"ĠEcon":1890,"siones":1891,"Ġcorrespondi":1892,"Ġcontain":1893,"99":1894,"ite":1895,"Ġconf":1896,"Ġreport":1897,"ction":1898,"ences":1899,"Ġrelating":1900,"ENT":1901,"Ã¡rraf":1902,"Ġmonth":1903,"Ġinspec":1904,"Ġincre":1905,"ĠpÃ¡rraf":1906,"Ġpunto":1907,"Ġtanto":1908,"Ġmateria":1909,"Ġimporte":1910,"hi":1911,"Ġagric":1912,"Ġcateg":1913,"Ġ87":1914,"ceso":1915,"Ġimplement":1916,"Ġsistema":1917,"Ġindividual":1918,"Ġreferencia":1919,"ĠIt":1920,"Ġ98":1921,"Ġpe":1922,"Ġprogramme":1923,"Ġpursuant":1924,"ĠJun":1925,"wo":1926,"Ġjun":1927,"ĠinvestigaciÃ³n":1928,"mis":1929,"Ġwere":1930,"Ġderecho":1931,"Ġele":1932,"ag":1933,"Ġ34":1934,"be":1935,"Ġdevelopment":1936,"Ãĵ":1937,"edad":1938,"rup":1939,"ĠmÃ¡xim":1940,"ED":1941,"Ġcompan":1942,"adores":1943,"udget":1944,"Ġexamin":1945,"Ġhayan":1946,"fes":1947,"Ġvigor":1948,"ards":1949,"ati":1950,"Ġprevi":1951,"Ġcompetentes":1952,"Ġeurope":1953,"anu":1954,"Ġ35":1955,"by":1956,"Ġobjec":1957,"Ġnon":1958,"Ġprotection":1959,"itar":1960,"ĠÃºlti":1961,"Ġ33":1962,"ĠeconÃ³m":1963,"Ġanimal":1964,"Ġdicha":1965,"mbiÃ©n":1966,"eros":1967,"Ġproy":1968,"ipo":1969,"vaila":1970,"Ġobs":1971,"Ġ197":1972,"Ġactivities":1973,"Ġcapaci":1974,"Ġnecesarias":1975,"ung":1976,"Ġopinion":1977,"ublic":1978,"Ġnacional":1979,"Ġstand":1980,"Ġestablece":1981,"tail":1982,"Ġgastos":1983,"18":1984,"Ġregula":1985,"Ġvirtud":1986,"ĠpÃ¡rrafo":1987,"98":1988,"Ġty":1989,"ew":1990,"Ġperj":1991,"uly":1992,"Ġundertaking":1993,"icta":1994,"Ġhealth":1995,"Ġmod":1996,"Ġprovide":1997,"Ġenter":1998,"Ġtherefore":1999,"Ġlegal":2000,"ÃĵN":2001,"Ġbefore":2002,"ĠaÃ±o":2003,"EG":2004,"17":2005,"2004":2006,"90":2007,"tico":2008,"Ġpoint":2009,"oment":2010,"ected":2011,"tical":2012,"ĠJune":2013,"Ġduring":2014,"Î¼":2015,"duci":2016,"ĠrelaciÃ³n":2017,"Ġmu":2018,"COM":2019,"Ġjunio":2020,"agraph":2021,"16":2022,"cili":2023,"CEN":2024,"Ġtal":2025,"Th":2026,"Ãºblic":2027,"Ġestablecido":2028,"Ġavaila":2029,"Ġfra":2030,"Ġtransporte":2031,"Ġful":2032,"tric":2033,"Ġadd":2034,"Ġsame":2035,"gos":2036,"ultural":2037,"Ġsche":2038,"Ġsido":2039,"iron":2040,"Ġgarantizar":2041,"Ġtipo":2042,"Ġprior":2043,"Ġapplicable":2044,"Ã¡c":2045,"ĠX":2046,"Ġtechnical":2047,"Ġafec":2048,"ĠpÃºblic":2049,"Ġtrade":2050,"ugar":2051,"Ġwe":2052,"ĠejecuciÃ³n":2053,"Ġcountry":2054,"cula":2055,"Ġ94":2056,"op":2057,"ĠEx":2058,"til":2059,"Ã©d":2060,"tada":2061,"Îº":2062,"ÃŃtulo":2063,"Ġsan":2064,"Ġrecon":2065,"ĠRepÃºblica":2066,"Ġ1998":2067,"Ġsubpar":2068,"pu":2069,"ĠespecÃŃfic":2070,"Ġrequisitos":2071,"duct":2072,"ĠIV":2073,"Ġempresa":2074,"Ġpropuesta":2075,"Ġinterna":2076,"Ġrelevant":2077,"Ġcustoms":2078,"Ġsupport":2079,"Ġwithout":2080,"Ġprepar":2081,"Î¯":2082,"ines":2083,"Ġmember":2084,"bier":2085,"Ġconten":2086,"ight":2087,"Ġregional":2088,"Ġrelativo":2089,"antes":2090,"Ġcarried":2091,"Ġti":2092,"Ġcur":2093,"ictamen":2094,"cen":2095,"Ġmejor":2096,"tÃŃculo":2097,"LA":2098,"Ġnivel":2099,"yo":2100,"ĠOF":2101,"Ġimports":2102,"Ġsustan":2103,"Ġtodas":2104,"Ġbien":2105,"Ġlugar":2106,"24":2107,"Ġcommun":2108,"icy":2109,"93":2110,"ĠcooperaciÃ³n":2111,"Ġtom":2112,"Ġ36":2113,"mar":2114,"osi":2115,"Ġinsta":2116,"Ġpropor":2117,"ow":2118,"Ġcomunitario":2119,"antÃŃ":2120,"ĠSo":2121,"ÏĮ":2122,"ÃŃnim":2123,"ii":2124,"ĠdecisiÃ³n":2125,"ĠmÃŃnim":2126,"cto":2127,"Ġequip":2128,"Ġprevisto":2129,"Ġadj":2130,"ĠaÃ±os":2131,"ĠRepublic":2132,"rea":2133,"Ġmeet":2134,"ĠsegÃºn":2135,"ĠjurÃŃ":2136,"Ġ88":2137,"usti":2138,"ĠexportaciÃ³n":2139,"Ġprovisional":2140,"Ġmismo":2141,"ducciÃ³n":2142,"Ġprocedures":2143,"Ġyears":2144,"Ġayudas":2145,"Ġthem":2146,"ĠJanu":2147,"fact":2148,"ficar":2149,"Ġhasta":2150,"Ġprocedimientos":2151,"Ġgranted":2152,"Ġmain":2153,"terin":2154,"Ġ1997":2155,"Ġcompetente":2156,"Ġavailable":2157,"ĠCu":2158,"Ġenero":2159,"Ġneed":2160,"ĠJanuary":2161,"Ġinte":2162,"Ġgu":2163,"Ġcap":2164,"AT":2165,"Ġterceros":2166,"Ġprevistas":2167,"Ġwho":2168,"ticle":2169,"Ġissu":2170,"ĠâĢĻ":2171,"Ġactual":2172,"Ġrelativas":2173,"Ġcontro":2174,"ĠÃ©":2175,"ĠtambiÃ©n":2176,"Ġ89":2177,"Ġtransfer":2178,"Ġeffect":2179,"ange":2180,"len":2181,"una":2182,"Î»":2183,"Ġrequest":2184,"23":2185,"Ġaj":2186,"range":2187,"Ġexpedi":2188,"Ġmeth":2189,"Ġ70":2190,"Ġcoordin":2191,"Ġequival":2192,"Ġcompeti":2193,"ticos":2194,"mental":2195,"Ġimportaciones":2196,"tance":2197,"Ġmercanc":2198,"Ġfact":2199,"Ġotras":2200,"Ġadecu":2201,"stante":2202,"Ġfar":2203,"Ġanimales":2204,"Ġwhen":2205,"Ġinver":2206,"ĠIN":2207,"mework":2208,"Ġtwo":2209,"Ġcontinu":2210,"uicio":2211,"ja":2212,"Ġmenos":2213,"Ġrecei":2214,"Ġnatural":2215,"Ġmedida":2216,"tice":2217,"ĠFin":2218,"Ġtransport":2219,"66":2220,"Ã¡l":2221,"are":2222,"58":2223,"isto":2224,"UN":2225,"hol":2226,"Ġcomb":2227,"iew":2228,"Ġresi":2229,"eld":2230,"27":2231,"fety":2232,"Ġtender":2233,"Ġpromo":2234,"Ġjul":2235,"Ġpurposes":2236,"cas":2237,"Ġreference":2238,"Ġiniti":2239,"urity":2240,"ĠautorizaciÃ³n":2241,"Ġpen":2242,"Ġ43":2243,"ture":2244,"Ġcertificado":2245,"Ġries":2246,"acter":2247,"trateg":2248,"Ġpresup":2249,"Ġchar":2250,"Î¿Ïħ":2251,"Ġsoci":2252,"ĠÃ¡mbito":2253,"Ġcategor":2254,"Ġsubparagraph":2255,"ĠevaluaciÃ³n":2256,"Ġpersonas":2257,"Ġview":2258,"owe":2259,"istro":2260,"Ġmanagement":2261,"Ġventa":2262,"Ġassess":2263,"Ġenerg":2264,"Ġjulio":2265,"ques":2266,"dic":2267,"28":2268,"Ġwould":2269,"ĠSu":2270,"47":2271,"ĠPR":2272,"Ġchec":2273,"Ġvalor":2274,"Ġalg":2275,"Ġend":2276,"ĠJuly":2277,"nual":2278,"IT":2279,"Ġanal":2280,"Ġhol":2281,"Ġexplo":2282,"enda":2283,"ĠAC":2284,"Ġcorre":2285,"Ġcosts":2286,"Ġte":2287,"urther":2288,"Ġterritorio":2289,"use":2290,"Ġreas":2291,"Ġinforme":2292,"ĠFor":2293,"ring":2294,"Ġobstante":2295,"26":2296,"uring":2297,"mer":2298,"Ġproductores":2299,"owever":2300,"Ġperjuicio":2301,"Ġbudget":2302,"Ġprofes":2303,"ĠserÃ¡n":2304,"ĠprÃ¡c":2305,"ĠPart":2306,"ide":2307,"Ġelabor":2308,"ION":2309,"ĠPres":2310,"Ġris":2311,"can":2312,"Ġmayor":2313,"ĠDO":2314,"ister":2315,"Ġcooperation":2316,"Ġsur":2317,"Ġdistin":2318,"ĠUE":2319,"iver":2320,"Ïī":2321,"48":2322,"rough":2323,"ĠAl":2324,"ÃŃco":2325,"Ġimport":2326,"Ġcapi":2327,"Ġenviron":2328,"endo":2329,"Ġamend":2330,"ĠEuro":2331,"Ġprohi":2332,"ĠOf":2333,"Ġagr":2334,"ara":2335,"Ġexce":2336,"ban":2337,"Ġejerci":2338,"Ġresidu":2339,"Ġderog":2340,"Ġconven":2341,"Ġproposal":2342,"Ġtransform":2343,"ĠmercancÃŃas":2344,"led":2345,"ora":2346,"Ġtemp":2347,"Ġcommunica":2348,"Ġ39":2349,"Ġeconomic":2350,"Ġabo":2351,"Ġ75":2352,"Ġleast":2353,"Ġthrough":2354,"rada":2355,"eras":2356,"vil":2357,"Ġidenti":2358,"Ġallow":2359,"Ġvis":2360,"Ġsean":2361,"29":2362,"iture":2363,"Ġaction":2364,"dio":2365,"Ġcantidades":2366,"ck":2367,"edan":2368,"Ġconsecu":2369,"del":2370,"Ġbut":2371,"dies":2372,"Ġconside":2373,"Ġsecond":2374,"ciales":2375,"Ġrecom":2376,"Ġaplicables":2377,"This":2378,"Ġobjetivos":2379,"hes":2380,"ĠlÃŃ":2381,"Ġpossible":2382,"Ġpuede":2383,"ĠAc":2384,"Ġtrabajo":2385,"lement":2386,"Ġfuncion":2387,"Ġperman":2388,"Ġ80":2389,"Ġ1995":2390,"eneral":2391,"Ġdiffer":2392,"ĠY":2393,"Ġ2007":2394,"ining":2395,"Ġsatis":2396,"Ġsegun":2397,"loy":2398,"Ġrequired":2399,"Ġscheme":2400,"Ã¶":2401,"Ġcommit":2402,"Ġdichas":2403,"ĠFe":2404,"ĠsÃ³":2405,"Ġ85":2406,"Ġexten":2407,"Ã³g":2408,"Ġadministrative":2409,"77":2410,"Ġpersonal":2411,"ĠOJ":2412,"ĠÃºn":2413,"Ġintended":2414,"gres":2415,"ĠÎµ":2416,"ors":2417,"Las":2418,"Ġsel":2419,"Ġmat":2420,"enci":2421,"Ġpolicy":2422,"SE":2423,"ĠTO":2424,"Ġlista":2425,"Ġuso":2426,"Ġtras":2427,"Ã©to":2428,"Ġaccording":2429,"Ġlisted":2430,"43":2431,"Ġveterin":2432,"lear":2433,"ased":2434,"Ġ1996":2435,"ĠGo":2436,"lion":2437,"Ġterritory":2438,"Ġhereby":2439,"soci":2440,"Ġfigur":2441,"Ġfix":2442,"hts":2443,"fice":2444,"Reglamento":2445,"Ġabove":2446,"ether":2447,"Article":2448,"Ġair":2449,"ying":2450,"Ġya":2451,"sifica":2452,"laciÃ³n":2453,"Ã±a":2454,"Î¬":2455,"ĠParte":2456,"Ġagain":2457,"Ġgroup":2458,"Ġorigen":2459,"Ġinternational":2460,"Ġobten":2461,"ximum":2462,"isis":2463,"Ġcovered":2464,"ged":2465,"45":2466,"Ġprac":2467,"dia":2468,"Ġprogramas":2469,"67":2470,"ective":2471,"Ġsim":2472,"ĠcomercializaciÃ³n":2473,"Ġdictamen":2474,"Ġdetail":2475,"Ġpartes":2476,"Ġemb":2477,"ĠRes":2478,"gar":2479,"Ġcalidad":2480,"ĠmodificaciÃ³n":2481,"Ġlocal":2482,"Ġexig":2483,"Ġvari":2484,"Ġsubmitted":2485,"Ġnet":2486,"Ġaplicable":2487,"ÃŃan":2488,"Ġmake":2489,"65":2490,"Ġadi":2491,"Ġmaterial":2492,"Ġexpend":2493,"Visto":2494,"Ġintegra":2495,"Ġvehic":2496,"ÃŃcul":2497,"Ġesti":2498,"Ġotra":2499,"Ġpueden":2500,"Ġfacili":2501,"ĠlegislaciÃ³n":2502,"Ġgiven":2503,"Ġminim":2504,"Ġofficial":2505,"cha":2506,"ĠaÃ±a":2507,"ents":2508,"Ġeuros":2509,"Ġarrange":2510,"Ġ45":2511,"Ġcasos":2512,"Ġrestric":2513,"Ġapartados":2514,"Ġimpro":2515,"Ġexpenditure":2516,"Ġnombre":2517,"crip":2518,"Ġservice":2519,"Ġcuya":2520,"Ġmanten":2521,"Ġtoda":2522,"irÃ¡n":2523,"hip":2524,"Ġplace":2525,"Ġcases":2526,"Ġdeterminados":2527,"Ġquestion":2528,"ĠÏĢ":2529,"Ġproject":2530,"Commission":2531,"echo":2532,"Ġmarketing":2533,"ĠvehÃŃcul":2534,"De":2535,"Ġprev":2536,"Ġpreci":2537,"tocol":2538,"Ġnego":2539,"tales":2540,"Ġcantidad":2541,"Ġtrabaj":2542,"Ġmill":2543,"Ġdenomin":2544,"Ġmeses":2545,"Ġotro":2546,"imiento":2547,"No":2548,"cing":2549,"Ġapplied":2550,"42":2551,"Ġ48":2552,"fe":2553,"Ã³di":2554,"Ġwa":2555,"AP":2556,"ÅĤ":2557,"Ġlan":2558,"med":2559,"Ġcomply":2560,"ĠcrÃ©d":2561,"Ġanimals":2562,"ĠCent":2563,"Ġquantities":2564,"75":2565,"Ġcomprom":2566,"Ġvolum":2567,"Ġamp":2568,"ĠÎ±":2569,"Ġge":2570,"Ġwhereas":2571,"loc":2572,"Ġareas":2573,"Ġsp":2574,"Ġprice":2575,"ĠâĢ¦":2576,"eng":2577,"Ġconce":2578,"Ġprecios":2579,"Ġfacil":2580,"Ġagainst":2581,"Ġcompens":2582,"Ġestablishing":2583,"Ġarea":2584,"erva":2585,"Ġproceden":2586,"Ġsegu":2587,"ĠAN":2588,"..":2589,"Ġposible":2590,"stry":2591,"ĠlÃŃmit":2592,"ĠdemÃ¡s":2593,"nolog":2594,"ĠpolÃŃtica":2595,"Ġdesde":2596,"ĠsÃ³lo":2597,"Ġown":2598,"Ġreason":2599,"uraciÃ³n":2600,"Ġframework":2601,"Ġpersons":2602,"dent":2603,"ĠmÃ©to":2604,"Ġdifer":2605,"Ġrepresentan":2606,"Ġsol":2607,"70":2608,"ning":2609,"ĠutilizaciÃ³n":2610,"Ġem":2611,"Ġllev":2612,"Ġdra":2613,"Ġdocument":2614,"ĠgarantÃŃ":2615,"ĠPresiden":2616,"Ġspecial":2617,"Ġconfir":2618,"ĠAd":2619,"Ġejercicio":2620,"ID":2621,"Ġdichos":2622,"Ġconj":2623,"EL":2624,"ribun":2625,"Ġapproved":2626,"tment":2627,"ĠWhere":2628,"69":2629,"untos":2630,"rgan":2631,"AD":2632,"MENT":2633,"Ġvi":2634,"udi":2635,"Ġhar":2636,"Ġissued":2637,"arante":2638,"Ġpertin":2639,"Ġtax":2640,"Ġlast":2641,"Ġ77":2642,"lance":2643,"Ġcapital":2644,"Ġfurther":2645,"Ġvalue":2646,"omento":2647,"Ġgovern":2648,"Ġcele":2649,"Ġpurpose":2650,"ctu":2651,"Ġmaximum":2652,"ecto":2653,"Ġthree":2654,"22":2655,"Ġapo":2656,"tudes":2657,"38":2658,"ÃŃsticas":2659,"Ġestos":2660,"Ġdentro":2661,"dumping":2662,"tur":2663,"com":2664,"Ġsecurity":2665,"Ġmembers":2666,"Ġanterior":2667,"Ġprogrammes":2668,"Ġtempor":2669,"Ã¼":2670,"Ġcump":2671,"Ġer":2672,"Ġrights":2673,"ardar":2674,"mientos":2675,"ador":2676,"Ġmonths":2677,"duction":2678,"Ġmillion":2679,"Ġprue":2680,"Ġaccoun":2681,"Ġves":2682,"Ġprej":2683,"omp":2684,"ection":2685,"bs":2686,"istance":2687,"Ġacciones":2688,"Ġtres":2689,"view":2690,"Ġequipment":2691,"Ġuno":2692,"Ġsolicitudes":2693,"Ġparties":2694,"Ġning":2695,"Ġmanu":2696,"ĠConvention":2697,"Ġpayment":2698,"ĠdÃŃas":2699,"ursos":2700,"dido":2701,"Ġajus":2702,"Ġcertificados":2703,"ĠIta":2704,"Ġofi":2705,"Ġconsidered":2706,"empre":2707,"Ġdoes":2708,"Ġregulation":2709,"omo":2710,"49":2711,"uty":2712,"portun":2713,"Î®":2714,"van":2715,"Ġquality":2716,"ĠSocial":2717,"Ġren":2718,"Ġfollows":2719,"Ġnormal":2720,"Ġmillones":2721,"temas":2722,"Ġincor":2723,"Ġ68":2724,"Ġorganismos":2725,"Ġsuf":2726,"Ġlabor":2727,"nes":2728,"ional":2729,"Ġhab":2730,"Ġregistra":2731,"Ġpago":2732,"Ġagricultural":2733,"olÃ³g":2734,"Ġsiempre":2735,"derÃ¡":2736,"Ġtype":2737,"ĠEE":2738,"Ġprop":2739,"Ġinvol":2740,"tante":2741,"Ġcl":2742,"table":2743,"Ġaccep":2744,"Ġinterca":2745,"ĠCON":2746,"ential":2747,"ulti":2748,"Ġindustry":2749,"ribunal":2750,"Ġpuedan":2751,"Ġdeterminadas":2752,"Ġapplic":2753,"ĠMay":2754,"iones":2755,"blish":2756,"Ġpues":2757,"Ġmanufact":2758,"Ġorganismo":2759,"Ġello":2760,"Ġmonitor":2761,"ribuciÃ³n":2762,"Ġpesca":2763,"ĠCuando":2764,"Ġbeing":2765,"ĠsituaciÃ³n":2766,"ders":2767,"ĠComunidades":2768,"Ġ1994":2769,"Ġlimit":2770,"puÃ©s":2771,"ently":2772,"crib":2773,"Ġadded":2774,"Ġtardar":2775,"Ġtrate":2776,"ĠConsiderando":2777,"uest":2778,"Ġarrangements":2779,"visiÃ³n":2780,"gual":2781,"ĠCommunities":2782,"Ġpermit":2783,"ost":2784,"Ġfree":2785,"Ïĩ":2786,"Ġanual":2787,"Ġoperaciones":2788,"Ġestablecidas":2789,"CE":2790,"ĠÎº":2791,"ril":2792,"Ġhaving":2793,"Ġgui":2794,"ÎŃ":2795,"Ġlegislation":2796,"Ġvo":2797,"Ġvessel":2798,"Ġcamp":2799,"Ġvac":2800,"Ġfinanciera":2801,"Ġtener":2802,"Ġtodo":2803,"ArtÃŃculo":2804,"Ġemple":2805,"Ġir":2806,"96":2807,"Ġcivil":2808,"Ġim":2809,"ĠFran":2810,"Ġaddress":2811,"act":2812,"ĠNor":2813,"ĠsustituirÃ¡":2814,"ctober":2815,"Ġ1993":2816,"33":2817,"vas":2818,"tics":2819,"ĠOctober":2820,"oth":2821,"Ġresultados":2822,"Ġcriterios":2823,"Ġtrata":2824,"Ġentry":2825,"Ġdumping":2826,"Ġcumplimiento":2827,"Ġproducers":2828,"Ġcarry":2829,"Ġcorrespondientes":2830,"ctubre":2831,"media":2832,"aron":2833,"bal":2834,"Ġvan":2835,"Ġresponsible":2836,"Ġreques":2837,"itle":2838,"Ġcomunic":2839,"Ġaccess":2840,"Ġregards":2841,"Ġiss":2842,"Ġindepen":2843,"ĠagrÃŃco":2844,"Ġestas":2845,"pr":2846,"Ġoctubre":2847,"ĠProgra":2848,"ins":2849,"ĠProtocol":2850,"sive":2851,"ĠPara":2852,"mbio":2853,"Ġderi":2854,"ĠLA":2855,"Ġprocessing":2856,"Ġpriv":2857,"Î³":2858,"Ġke":2859,"Ġwell":2860,"Ġduty":2861,"toco":2862,"Ġestu":2863,"Ġpersona":2864,"OP":2865,"Ġcriteria":2866,"ĠMa":2867,"ĠIEC":2868,"Ġstate":2869,"centa":2870,"Ġmarzo":2871,"ĠPol":2872,"ĠConvenio":2873,"Ġ78":2874,"ĠaplicarÃ¡":2875,"peal":2876,"pti":2877,"Ġwhether":2878,"Ġaff":2879,"Ġdie":2880,"ĠMarch":2881,"Ġregla":2882,"ota":2883,"Ġacep":2884,"Ġpot":2885,"Ġ55":2886,"Ġcontroles":2887,"Ġsimila":2888,"Ã©r":2889,"Ġminimum":2890,"ĠNov":2891,"Ġestablecidos":2892,"ĠestÃ¡":2893,"ĠSa":2894,"ĠZ":2895,"Ġ65":2896,"Ġambi":2897,"92":2898,"TU":2899,"dings":2900,"Ġclas":2901,"Ġ46":2902,"97":2903,"Ġacceso":2904,"ĠorganizaciÃ³n":2905,"Ġcomunitarias":2906,"Ġobjectives":2907,"Ġigual":2908,"Ġinterest":2909,"Ġapplications":2910,"ĠcuestiÃ³n":2911,"Ġprecio":2912,"Ġresponsa":2913,"Ġmayo":2914,"08":2915,"ha":2916,"TR":2917,"Ġraz":2918,"95":2919,"Ġproble":2920,"Ġspecified":2921,"Ġquantity":2922,"tocolo":2923,"Ġlici":2924,"ĠdÃŃa":2925,"ĠUnited":2926,"Ġefica":2927,"vor":2928,"Ġlong":2929,"ulaciÃ³n":2930,"Ġ+":2931,"Ġadditional":2932,"Ġlu":2933,"hesiÃ³n":2934,"ea":2935,"Ġrecursos":2936,"Ġalgun":2937,"ward":2938,"Ġban":2939,"ĠmÃ¡ximo":2940,"Ġhis":2941,"Ġcompany":2942,"Ġdefined":2943,"37":2944,"Ġdise":2945,"oint":2946,"Ġconsecuencia":2947,"Ġsome":2948,"Ġrecogn":2949,"ĠformaciÃ³n":2950,"ĠEuropeas":2951,"02":2952,"ING":2953,"dom":2954,"tom":2955,"Ġdom":2956,"Ġ76":2957,"Ġet":2958,"Ġequ":2959,"cal":2960,"Ġpon":2961,"Ġbased":2962,"Ġcontemplados":2963,"Ġimplementing":2964,"Ġfishing":2965,"Ġguarante":2966,"Ġeffective":2967,"Ġsegundo":2968,"Ġsystems":2969,"Äħ":2970,"Ġprejud":2971,"Ġcabo":2972,"Ġeuro":2973,"Ġidentifica":2974,"Ġfut":2975,"Ġindustria":2976,"Ġdocuments":2977,"00000":2978,"Ġbasic":2979,"ĠTribunal":2980,"Ġincorpor":2981,"Ġinclude":2982,"Ġexceed":2983,"cciÃ³n":2984,"ĠGeneral":2985,"IR":2986,"ources":2987,"bri":2988,"tract":2989,"Ġ44":2990,"ĠSi":2991,"Ġvez":2992,"Ġsustancias":2993,"Ġoriginating":2994,"Ġ1992":2995,"Ġsuspen":2996,"Ġname":2997,"Ġcomunitarios":2998,"Ġconstituye":2999,"01":3000,"Ġevent":3001,"Ġreview":3002,"Ãį":3003,"ĠPartes":3004,"Ġprices":3005,"earch":3006,"Ġservicio":3007,"ĠCour":3008,"rar":3009,"Ġasi":3010,"Ġassistance":3011,"tantes":3012,"2003":3013,"dor":3014,"ĠdespuÃ©s":3015,"Ġestablecen":3016,"lies":3017,"Ġdocumentos":3018,"Ġprejudice":3019,"Ġjo":3020,"Ġrelacion":3021,"21":3022,"Ġsistemas":3023,"zion":3024,"Ġtas":3025,"ĠmÃŃnimo":3026,"Ġconces":3027,"rob":3028,"Ġnotified":3029,"ladas":3030,"ĠTotal":3031,"Ġaqu":3032,"Ġtend":3033,"Ġinmedia":3034,"Ġampli":3035,"Ġconserv":3036,"Ġway":3037,"ints":3038,"Ġsafety":3039,"Ġprimer":3040,"ian":3041,"Ġlar":3042,"ĠÏĥ":3043,"edades":3044,"Ġglo":3045,"Ġmomento":3046,"Ġagreement":3047,"ĠQ":3048,"Ġaud":3049,"erdos":3050,"ret":3051,"fter":3052,"reed":3053,"ĠProtocolo":3054,"iendo":3055,"Ġcertificate":3056,"rupo":3057,"Ġmanera":3058,"pril":3059,"34":3060,"Ġentrada":3061,"ĠcÃ³di":3062,"ĠCourt":3063,"bas":3064,"Ġfon":3065,"Ġresol":3066,"Ġestad":3067,"Ġauthoriz":3068,"ĠÏĦÎ·":3069,"Ġstandards":3070,"Ġcoll":3071,"Ġorganizaciones":3072,"vement":3073,"for":3074,"Ġsepar":3075,"ĠApril":3076,"Ġaz":3077,"Ġtari":3078,"ĠEconomic":3079,"54":3080,"iness":3081,"Ġcompetencia":3082,"Ġrisk":3083,"ĠparticipaciÃ³n":3084,"Ġsubven":3085,"Ġobligaciones":3086,"ronter":3087,"Î¸":3088,"ĠDi":3089,"Ġsent":3090,"onas":3091,"Ġresiduos":3092,"oli":3093,"Ġvia":3094,"ĠpÃºblico":3095,"ka":3096,"and":3097,"Ġtraining":3098,"Ġalma":3099,"viene":3100,"mil":3101,"Ġresources":3102,"ĠInter":3103,"Ġsubstances":3104,"ling":3105,"Ġcontex":3106,"tember":3107,"mpan":3108,"vers":3109,"Ġproyectos":3110,"ĠInform":3111,"Ïį":3112,"Ġhigh":3113,"ising":3114,"sequ":3115,"Ġcompon":3116,"Ġmeasure":3117,"Ġabril":3118,"Ġconcent":3119,"Ġ58":3120,"Ġpublish":3121,"tadores":3122,"Ġbus":3123,"Ġresults":3124,"ET":3125,"cter":3126,"change":3127,"sions":3128,"Ġbro":3129,"istencia":3130,"arÃ¡cter":3131,"Ġ47":3132,"Ġph":3133,"Ġfixed":3134,"Ġobjetivo":3135,"Ġton":3136,"Ġbor":3137,"05":3138,"Ġaspect":3139,"Ġobtain":3140,"39":3141,"ĠcarÃ¡cter":3142,"ither":3143,"Ġagu":3144,"ivo":3145,"31":3146,"Ġrate":3147,"unds":3148,"pp":3149,"Ġresiden":3150,"ÎµÎ¹":3151,"Ġ00":3152,"Ġcompar":3153,"ĠIntern":3154,"raft":3155,"ĠdeclaraciÃ³n":3156,"ptember":3157,"Ġagree":3158,"Ġefecto":3159,"Ġemploy":3160,"ĠpresentaciÃ³n":3161,"Ġ66":3162,"Ġpow":3163,"Ġregister":3164,"Ġcostes":3165,"ĠDirect":3166,"Ġriesgo":3167,"Ġapplicant":3168,"Ġannual":3169,"ĠaÃ©":3170,"Ġassessment":3171,"Ġfunda":3172,"Ġdocumento":3173,"ias":3174,"ĠBo":3175,"ĠEura":3176,"ound":3177,"Ġsuperior":3178,"Ġpermiti":3179,"ĠjurÃŃd":3180,"ria":3181,"Ġzona":3182,"anis":3183,"Ġhor":3184,"iemp":3185,"Ġbuques":3186,"An":3187,"AM":3188,"Ġcaus":3189,"ĠÃ³":3190,"Ġcol":3191,"Ġsupply":3192,"ĠSeptember":3193,"Ġsubsi":3194,"ĠtÃ©r":3195,"Ġday":3196,"Ġorden":3197,"Ġdays":3198,"ĠEuratom":3199,"laciones":3200,"ĠÃºltima":3201,"Ġmode":3202,"Ġinvi":3203,"ĠCO":3204,"Ġ72":3205,"Ġcurr":3206,"Ġfiguran":3207,"ficient":3208,"82":3209,"ĠVII":3210,"Ġsalud":3211,"Ã¡lisis":3212,"tut":3213,"crit":3214,"mbios":3215,"Ġreconoci":3216,"Ġredu":3217,"Ġnorma":3218,"Ġdeman":3219,"Ġrestitu":3220,"ĠAut":3221,"Ġless":3222,"Ġlaws":3223,"ĠacciÃ³n":3224,"Ġexperi":3225,"Ġtales":3226,"Ġ86":3227,"ĠParties":3228,"Ġmot":3229,"ptiembre":3230,"tiz":3231,"Ġjusti":3232,"Ġestablishment":3233,"tioned":3234,"urance":3235,"CIÃĵN":3236,"Ġseptiembre":3237,"Ġfigura":3238,"Ġopen":3239,"Ġrepresent":3240,"ania":3241,"ĠSin":3242,"UR":3243,"ports":3244,"Ġduties":3245,"tug":3246,"Ġsituation":3247,"Ġlater":3248,"Ġ67":3249,"Ġprocedentes":3250,"Ġpueda":3251,"Ġdetailed":3252,"Ġconver":3253,"TIV":3254,"36":3255,"ĠDer":3256,"Ġconfi":3257,"Ġworking":3258,"ific":3259,"Ġcelebra":3260,"Ġoc":3261,"Ġdeliver":3262,"Ġmulti":3263,"Ġles":3264,"ases":3265,"lian":3266,"Ġlimi":3267,"cienti":3268,"Ġpreven":3269,"edings":3270,"Ġregistro":3271,"Ġcompren":3272,"exos":3273,"Se":3274,"Ġoperations":3275,"ÏĥÎ·":3276,"ÏģÎ¿":3277,"cientific":3278,"Ġundertakings":3279,"Ġconforme":3280,"Ġadoptar":3281,"Ġobligations":3282,"91":3283,"ĠfinanciaciÃ³n":3284,"tivamente":3285,"Ġcient":3286,"dence":3287,"Ġcontempladas":3288,"read":3289,"irse":3290,"Ġnuevos":3291,"atch":3292,"Ġach":3293,"LE":3294,"Ġbodies":3295,"Ġuntil":3296,"ĠnotificaciÃ³n":3297,"ĠNovember":3298,"apter":3299,"eron":3300,"viembre":3301,"ĠImp":3302,"Ġoperation":3303,"ody":3304,"Ġinvestment":3305,"94":3306,"55":3307,"ĠAND":3308,"Ġsanit":3309,"Ġred":3310,"ĠREG":3311,"ĠOn":3312,"Ġcombin":3313,"onia":3314,"Ġfavor":3315,"Ġ57":3316,"Ġstatis":3317,"ecom":3318,"Ġur":3319,"Ġnoviembre":3320,"ĠEconÃ³m":3321,"ĠvehÃŃculos":3322,"less":3323,"osiciÃ³n":3324,"Member":3325,"dida":3326,"ĠanÃ¡lisis":3327,"icamente":3328,"Ġcomprob":3329,"istos":3330,"Ġreduci":3331,"Ġacuerdos":3332,"ĠWhereas":3333,"Ġglobal":3334,"Ġec":3335,"Ġmethods":3336,"Ġchecks":3337,"Ġterms":3338,"Ġexisting":3339,"Ġder":3340,"Ġbenef":3341,"Ġregar":3342,"menes":3343,"Ġtaking":3344,"Ġbis":3345,"Ġreun":3346,"Ġvin":3347,"Ġoperator":3348,"alf":3349,"ately":3350,"Ġarance":3351,"ĠACP":3352,"Ġconting":3353,"Ġachie":3354,"Ġprevia":3355,"Ġprimera":3356,"Ġtiemp":3357,"64":3358,"Ġexpres":3359,"Ġnuevo":3360,"Ġcompati":3361,"Ġacomp":3362,"TA":3363,"Ġauthorised":3364,"Ġinternacional":3365,"Ġzonas":3366,"Es":3367,"ni":3368,"Ġrecur":3369,"Ġfall":3370,"Ġprohib":3371,"Ġestablecimiento":3372,"Ġdestinados":3373,"TER":3374,"Ġship":3375,"Ġpaid":3376,"ĠespecÃŃficas":3377,"Ġmodific":3378,"Ġmencionados":3379,"ĠestÃ¡n":3380,"Ġrecor":3381,"raciÃ³n":3382,"Ġwor":3383,"ired":3384,"ĠacompaÃ±":3385,"Ġactividad":3386,"Ġcompromis":3387,"Ġstor":3388,"rÃ³n":3389,"Ġlab":3390,"Ġconsulta":3391,"ĠMin":3392,"IÃĵN":3393,"ang":3394,"Ġtone":3395,"Ġright":3396,"jos":3397,"bru":3398,"ĠintervenciÃ³n":3399,"Ġcalcula":3400,"Ġinternal":3401,"Ġresearch":3402,"Ġmisma":3403,"Ġtiempo":3404,"Ġcapacidad":3405,"very":3406,"Ġacces":3407,"Ġeduc":3408,"Â«":3409,"Ġste":3410,"Ġconsist":3411,"rim":3412,"ĠTa":3413,"Ġcul":3414,"ative":3415,"liance":3416,"LO":3417,"Ġfield":3418,"Ġcomplement":3419,"Ġinstitutions":3420,"ĠKing":3421,"Ġpermanente":3422,"Î¹Îº":3423,"Ġ05":3424,"ĠFon":3425,"Ġsom":3426,"Ġfuncionamiento":3427,"Ġambiente":3428,"ĠpublicaciÃ³n":3429,"44":3430,"07":3431,"Ġcompanies":3432,"Ġmonitoring":3433,"Ġcontrato":3434,"ĠaplicarÃ¡n":3435,"ESC":3436,"ĠexplotaciÃ³n":3437,"Ġabs":3438,"Ġmedios":3439,"ĠRE":3440,"Ġsimpli":3441,"erman":3442,"ĠDEL":3443,"Ġ71":3444,"ep":3445,"Ġcorrespondiente":3446,"Ġmodificado":3447,"Ġfran":3448,"ĠKingdom":3449,"Ġbov":3450,"ĠlicitaciÃ³n":3451,"Ġasign":3452,"Ġcaracter":3453,"ĠinterÃ©s":3454,"reas":3455,"88":3456,"Ġcli":3457,"ĠPa":3458,"Ġrespe":3459,"encla":3460,"Ġregular":3461,"sibility":3462,"Ġproyecto":3463,"tre":3464,"umer":3465,"cimiento":3466,"Ġnotification":3467,"Ġprojects":3468,"Ġrevis":3469,"Î±Î¹":3470,"Ġagentes":3471,"ÏīÎ½":3472,"other":3473,"Ġdifferent":3474,"Ġoficial":3475,"ĠAgency":3476,"ĠtÃ©rmin":3477,"dose":3478,"To":3479,"po":3480,"sia":3481,"ĠChina":3482,"ficiente":3483,"Ġlicences":3484,"Ġtes":3485,"Ġaplicar":3486,"Ġanalys":3487,"ross":3488,"Ġinfer":3489,"Ġrelated":3490,"Ġrelativos":3491,"Ġcarne":3492,"ĠfunciÃ³n":3493,"ub":3494,"TAL":3495,"Ġbusiness":3496,"ĠFR":3497,"ÏĨ":3498,"Ġorganisations":3499,"wa":3500,"ilan":3501,"stitu":3502,"Ġperform":3503,"Ġlaying":3504,"ading":3505,"Ġconstru":3506,"ze":3507,"zos":3508,"Ġeither":3509,"ĠFebru":3510,"Äį":3511,"Ġofer":3512,"Ġcould":3513,"Ġparagraphs":3514,"ĠgarantÃŃa":3515,"Ġii":3516,"brero":3517,"ĠÃ©s":3518,"Ġdese":3519,"Ġdetermined":3520,"Ġkno":3521,"lex":3522,"Ġcontribution":3523,"Ġcontratos":3524,"ked":3525,"Ġapproval":3526,"57":3527,"Ġboth":3528,"ĠMan":3529,"Ġfebrero":3530,"Ġgenerales":3531,"Ġsen":3532,"Ġstr":3533,"Ġconsign":3534,"Ġimpact":3535,"ulares":3536,"yuda":3537,"Ġprevista":3538,"ĠCN":3539,"Ġfisher":3540,"ef":3541,"Ġelig":3542,"ĠIS":3543,"tador":3544,"Ġaccompan":3545,"ĠFebruary":3546,"Ġbody":3547,"32":3548,"sito":3549,"ĠaÃ±adi":3550,"imin":3551,"Ġreceived":3552,"Ġinno":3553,"Ġmut":3554,"Ġmercados":3555,"Ġsimilar":3556,"Ġinvestigation":3557,"ĠdisposiciÃ³n":3558,"ps":3559,"lus":3560,"ÃŃfica":3561,"46":3562,"Ġhacer":3563,"Ġalmacen":3564,"ful":3565,"Ġlicence":3566,"Ġimpos":3567,"ĠadopciÃ³n":3568,"dis":3569,"Ġproper":3570,"uel":3571,"atory":3572,"estruct":3573,"Ġestruct":3574,"Ġrespecta":3575,"ATION":3576,"Ġcompliance":3577,"ĠcampaÃ±":3578,"teriores":3579,"Ġinicia":3580,"Ġplant":3581,"Ġproposed":3582,"Ġ04":3583,"ulari":3584,"Ġpresupuesto":3585,"inas":3586,"Ġreti":3587,"udicial":3588,"lation":3589,"Ġresult":3590,"ĠinversiÃ³n":3591,"SION":3592,"Ġil":3593,"Ġinmediatamente":3594,"Ġante":3595,"Ġcumplir":3596,"ĠIf":3597,"iform":3598,"iente":3599,"Ġche":3600,"ort":3601,"gresos":3602,"Ġtermin":3603,"Ġcop":3604,"Ġmeaning":3605,"Ġnetwork":3606,"ĠSeg":3607,"dores":3608,"Ġcontemplado":3609,"Ġese":3610,"ĠtÃ©cnicas":3611,"04":3612,"mn":3613,"Ġcapacity":3614,"ĠDes":3615,"Ġanother":3616,"Ġfres":3617,"Ġpublication":3618,"Ġorganisation":3619,"Ġspecies":3620,"Ġproporcion":3621,"Ġsos":3622,"zione":3623,"Ġpesqu":3624,"Ġalloc":3625,"Ġ1991":3626,"Ġstaff":3627,"ĠâĢĿ":3628,"Ġ79":3629,"ĠReino":3630,"ners":3631,"ĠmÃ©todos":3632,"ege":3633,"Ġalter":3634,"Ġactions":3635,"uer":3636,"Ġrequi":3637,"Ġagreements":3638,"Ġqued":3639,"Ġ83":3640,"Ġclaim":3641,"ingle":3642,"ile":3643,"Ġcomercio":3644,"dra":3645,"Ġ42":3646,"Ġtranspar":3647,"ule":3648,"Ġtran":3649,"Ġconoci":3650,"inal":3651,"Ġ81":3652,"Ġvehicles":3653,"06":3654,"Ġembar":3655,"ana":3656,"Ġmeat":3657,"Ġoli":3658,"Ġmodo":3659,"Ġobserv":3660,"ĠNC":3661,"ĠestÃ©n":3662,"urales":3663,"Ġdecidi":3664,"ants":3665,"Ġenfer":3666,"Ġregulations":3667,"ĠVI":3668,"Ġstandard":3669,"Ġpoder":3670,"Pro":3671,"Ġtransac":3672,"fying":3673,"ĠcrÃ©dito":3674,"cre":3675,"quen":3676,"Ġevi":3677,"ĠestÃ©":3678,"Ġtariff":3679,"tt":3680,"Ġsugar":3681,"Ġauthorisation":3682,"Ġentr":3683,"2000":3684,"ĠadoptarÃ¡n":3685,"Ġrecommen":3686,"Ġenvironment":3687,"ectores":3688,"Ġelimin":3689,"Ġfer":3690,"Ġbajo":3691,"ign":3692,"Ġstruct":3693,"Ġwaste":3694,"Ãºcar":3695,"Ġpoints":3696,"ler":3697,"Ġcall":3698,"ets":3699,"Ġinternacionales":3700,"Ġeconom":3701,"Ã±o":3702,"Ġassoci":3703,"crimin":3704,"cidad":3705,"Ġindustrial":3706,"eca":3707,"Ġapoyo":3708,"ĠSch":3709,"Ġsignific":3710,"ises":3711,"AC":3712,"Ġdecisiones":3713,"Ġmodificaciones":3714,"uales":3715,"ĠLt":3716,"ĠBan":3717,"air":3718,"tras":3719,"ego":3720,"ĠprÃ¡cticas":3721,"nal":3722,"Ġ99":3723,"Ġcuales":3724,"Ġcontracts":3725,"tuff":3726,"ĠAgencia":3727,"ĠES":3728,"Ġsigue":3729,"Ġrema":3730,"59":3731,"Ġpresentar":3732,"rÃŃa":3733,"71":3734,"ĠLi":3735,"ciden":3736,"ĠÃ©sta":3737,"Ġaim":3738,"pre":3739,"Ġsamp":3740,"Ġrecog":3741,"Ġmotor":3742,"Ġenferm":3743,"eness":3744,"ĠestarÃ¡":3745,"ĠjurÃŃdica":3746,"Vista":3747,"ĠtransformaciÃ³n":3748,"cur":3749,"Ġincluidos":3750,"ĠFinan":3751,"ĠLtd":3752,"ĠDerecho":3753,"Ġarmon":3754,"mismo":3755,"ĠOfficial":3756,"Ġexemp":3757,"Ġjus":3758,"ĠpÃºblica":3759,"Ġconviene":3760,"Ġsuje":3761,"Ġ1990":3762,"ates":3763,"Ġeje":3764,"Ġprincipios":3765,"Ġexchange":3766,"Ġsuces":3767,"ĠcapÃŃtulo":3768,"Ġintrodu":3769,"Ġrepeal":3770,"lado":3771,"Ġinterior":3772,"Ġindic":3773,"Ġtreat":3774,"Ġmanda":3775,"Ġdeterminar":3776,"Ġcontamin":3777,"Ġsustituye":3778,"Ġconsumid":3779,"ĠPortug":3780,"alidades":3781,"Ġamending":3782,"Ġcontemplada":3783,"ĠdirecciÃ³n":3784,"mption":3785,"alta":3786,"ental":3787,"ecciÃ³n":3788,"Ġobserva":3789,"Ġcontenido":3790,"ĠazÃºcar":3791,"Ġissue":3792,"Ġcuyo":3793,"OL":3794,"ibles":3795,"Ġess":3796,"Ġproduci":3797,"Ġinser":3798,"Ġrepresentative":3799,"Ġpropi":3800,"ĠelectrÃ³n":3801,"62":3802,"51":3803,"Ġaccounts":3804,"lari":3805,"Ġoffice":3806,"Ġreasons":3807,"Ġadoption":3808,"Ġprimero":3809,"Ġvalid":3810,"Ġprincipio":3811,"Ġmajor":3812,"Ġfulf":3813,"Ġintereses":3814,"Ġintervention":3815,"Ġamendments":3816,"Ġfabr":3817,"ĠAt":3818,"Ġasistencia":3819,"Ġenvironmental":3820,"war":3821,"guiente":3822,"Ġliber":3823,"Ġclear":3824,"Ġdue":3825,"Ġprincipal":3826,"ĠpolÃŃticas":3827,"Ġcuestion":3828,"61":3829,"Ġinstrumentos":3830,"tique":3831,"Ġpresupuest":3832,"Ġempleo":3833,"ĠJour":3834,"pes":3835,"Ġproceso":3836,"ĠWith":3837,"Ġinspection":3838,"Ġtext":3839,"Ġsignificant":3840,"Ġtipos":3841,"ho":3842,"ĠtÃŃtulo":3843,"Ġvessels":3844,"ĠJournal":3845,"ĠagrÃŃcolas":3846,"ĠIs":3847,"Ġpass":3848,"ĠHowever":3849,"ISIÃĵN":3850,"78":3851,"Ġdisp":3852,"Ġprinciples":3853,"ĠPL":3854,"ĠDirector":3855,"Ġdeclaration":3856,"unda":3857,"ulg":3858,"Ġposition":3859,"Ġpat":3860,"Ġlibre":3861,"tial":3862,"Ġpertinentes":3863,"anges":3864,"Ġconsumo":3865,"Î±ÏĦ":3866,"oma":3867,"Ġenumer":3868,"Ġelementos":3869,"ĠprÃ¡ctica":3870,"ux":3871,"Ġprevistos":3872,"Ġfacilitar":3873,"Ġdestino":3874,"Ġconduct":3875,"ĠMo":3876,"Ġhad":3877,"ĠThey":3878,"Ġnecesaria":3879,"Ġconcluded":3880,"Ġnomencla":3881,"ution":3882,"Ġeuropea":3883,"63":3884,"Ġmodificar":3885,"Ġbalance":3886,"Ġsee":3887,"Ġnature":3888,"Ġprovides":3889,"mentaciÃ³n":3890,"Ġbeh":3891,"cope":3892,"Ġ603":3893,"ĠCOMP":3894,"ĠBe":3895,"Re":3896,"Ġtit":3897,"Ġmun":3898,"Ġsociedad":3899,"misiÃ³n":3900,"Ġcode":3901,"Ġpropuestas":3902,"ĠPRO":3903,"Ġmencionadas":3904,"cho":3905,"Ġstrateg":3906,"Ġconsiguiente":3907,"Ġestudi":3908,"ĠGerman":3909,"Ġ54":3910,"ĠconcesiÃ³n":3911,"egu":3912,"ĠcomunicaciÃ³n":3913,"gress":3914,"80":3915,"Ġsurve":3916,"uras":3917,"Ġamounts":3918,"Ġcentral":3919,"ication":3920,"Ġoportun":3921,"ultura":3922,"Ġpero":3923,"atorio":3924,"ĠVer":3925,"Ġ...":3926,"Ġsumin":3927,"Ġinstruments":3928,"Ġeligible":3929,"ĠCan":3930,"ĠOficial":3931,"Ġimportante":3932,"MIS":3933,"Ġcommer":3934,"puesta":3935,"Ġtec":3936,"erci":3937,"Ġadoptadas":3938,"ready":3939,"ĠAnnexes":3940,"crito":3941,"illa":3942,"ength":3943,"Ġ64":3944,"Ob":3945,"ÅĽ":3946,"rela":3947,"Ġequivalent":3948,"Ġavi":3949,"Ġnuevas":3950,"Ġpermi":3951,"Ġtratamiento":3952,"Ġalready":3953,"Ġ49":3954,"Ġdecisions":3955,"Ġsingle":3956,"yen":3957,"Ġ_":3958,"ans":3959,"ĠcientÃŃfic":3960,"Ġofre":3961,"Ġhu":3962,"Ġpeti":3963,"Ġclasifica":3964,"ĠreducciÃ³n":3965,"Ġgrupo":3966,"Ġbi":3967,"ĠChapter":3968,"Ġfinanciero":3969,"rÃ¡fic":3970,"gg":3971,"Ġ53":3972,"Ġincrease":3973,"Ġpuntos":3974,"Ġdef":3975,"Ġ82":3976,"ĠProgram":3977,"Ġoriginal":3978,"Ġuniform":3979,"Ġaseg":3980,"Ġprevious":3981,"Ġmues":3982,"umption":3983,"Ġverifica":3984,"Ġpruebas":3985,"Ġstoc":3986,"Ġlia":3987,"ĠTOTAL":3988,"CH":3989,"Ġmencionado":3990,"ner":3991,"Ġfood":3992,"leman":3993,"Ġfines":3994,"ĠÎ¼":3995,"ĠÃºltimo":3996,"Ġinferior":3997,"Ġpack":3998,"ĠCa":3999,"uestos":4000,"Ġtiene":4001,"IB":4002,"Ġextra":4003,"ĠlÃŃmite":4004,"Ġfla":4005,"cos":4006,"Ġcharacter":4007,"Ġimmedi":4008,"isti":4009,"ft":4010,"Ġhaber":4011,"voluciÃ³n":4012,"amente":4013,"ĠComp":4014,"ught":4015,"ĠMe":4016,"ĠadhesiÃ³n":4017,"Ġfis":4018,"Ġlen":4019,"Ġevaluation":4020,"mall":4021,"Ġace":4022,"ale":4023,"Ġalco":4024,"Ġposterior":4025,"Aid":4026,"Ġtar":4027,"Ġproduced":4028,"tuffs":4029,"85":4030,"ld":4031,"otas":4032,"Ġlimits":4033,"Ġbehalf":4034,"Ġcircum":4035,"Ġoverall":4036,"Ġenergy":4037,"Ġ=":4038,"Ġadministrativas":4039,"Ġaddition":4040,"Ġlike":4041,"difica":4042,"Ġespecialmente":4043,"Ġprinciple":4044,"Ġaduanero":4045,"Ġscientific":4046,"ration":4047,"Ġradio":4048,"istas":4049,"Ġcompetition":4050,"Ġetique":4051,"Ġgen":4052,"TS":4053,"Ġtri":4054,"Ġ01":4055,"Ġtreatment":4056,"ĠMon":4057,"ched":4058,"uration":4059,"Ġregarding":4060,"81":4061,"CO":4062,"Ġprefer":4063,"gi":4064,"teral":4065,"Ġcomerciales":4066,"US":4067,"Ġconveniente":4068,"Ġdon":4069,"Ġencar":4070,"Ġinnov":4071,"Ġseed":4072,"Ġmaintain":4073,"Ġgrant":4074,"Ġharmon":4075,"Ġfru":4076,"Ġcour":4077,"posal":4078,"Ġfronter":4079,"gin":4080,"with":4081,"2002":4082,"ÃŃti":4083,"Ġvege":4084,"Ġpublished":4085,"Ġcurrent":4086,"eren":4087,"Ġdar":4088,"mend":4089,"ronic":4090,"Ġteniendo":4091,"Ġgarantiz":4092,"Ġlight":4093,"ÄĻ":4094,"Ġreform":4095,"ild":4096,"ares":4097,"Ġletras":4098,"EM":4099,"ĠLe":4100,"ses":4101,"Ġfre":4102,"Ã±os":4103,"Âº":4104,"Ġveri":4105,"Ġderiv":4106,"cribed":4107,"Ġlevels":4108,"Ġfinancieros":4109,"For":4110,"Ġplen":4111,"Ġdem":4112,"ĠRequ":4113,"ĠJoint":4114,"tracting":4115,"ĠDiario":4116,"Å¼":4117,"IA":4118,"Ġcomunica":4119,"Ġfull":4120,"ouse":4121,"inos":4122,"Ġcost":4123,"ĠBoard":4124,"Ġvolumen":4125,"iza":4126,"Ġprevent":4127,"Ġcere":4128,"tively":4129,"test":4130,"Ġincluded":4131,"Ġpi":4132,"Ġentidades":4133,"87":4134,"Ġenvi":4135,"ega":4136,"Ġespecies":4137,"Ġaccordingly":4138,"Ġregistered":4139,"ĠcaracterÃŃsticas":4140,"Ġconjunto":4141,"Ġproceedings":4142,"Ġacqu":4143,"Ġsometi":4144,"erse":4145,"ĠGovern":4146,"Ġincluidas":4147,"dation":4148,"Ġtoneladas":4149,"verage":4150,"Ġcier":4151,"Ġespeciales":4152,"Ġ000":4153,"ĠrealizaciÃ³n":4154,"Ġprot":4155,"encial":4156,"delines":4157,"Ġprocede":4158,"Ġconcre":4159,"ĠEuropa":4160,"Ġespecifica":4161,"ĠSecret":4162,"Ġmejorar":4163,"Ġdescrip":4164,"stances":4165,"lor":4166,"ciaciones":4167,"Ġscope":4168,"Ġequipos":4169,"jes":4170,"Ġregiones":4171,"ĠcampaÃ±a":4172,"Ġrequested":4173,"Ayuda":4174,"ĠGre":4175,"03":4176,"Ã§":4177,"Î´":4178,"Ġhomo":4179,"Ġtonnes":4180,"Ġoil":4181,"lin":4182,"Ġfacilita":4183,"MISSION":4184,"Ġantidumping":4185,"ĠfÃŃs":4186,"Ġtrabajadores":4187,"Ã¡ndose":4188,"Ġsolicitante":4189,"ial":4190,"demÃ¡s":4191,"Ġusu":4192,"Ġstorage":4193,"Ġpeso":4194,"Ġ73":4195,"Ġconsumption":4196,"Ġequal":4197,"ĠexcepciÃ³n":4198,"Ġexerci":4199,"ming":4200,"Ġsti":4201,"Ġjuris":4202,"kes":4203,"ko":4204,"ople":4205,"zy":4206,"vÃ©s":4207,"Ġ?":4208,"Ġesca":4209,"Ġadv":4210,"tors":4211,"TH":4212,"Ġsum":4213,"ĠOffice":4214,"Ġobservaciones":4215,"ĠCommon":4216,"Cu":4217,"cement":4218,"Ġmateriales":4219,"Ġestar":4220,"pel":4221,"Ġriesgos":4222,"74":4223,"Ġconcedi":4224,"Ġcri":4225,"Ġ62":4226,"Ġlangu":4227,"Ġnecesidad":4228,"Ġlocales":4229,"ĠBE":4230,"Ġtechnolog":4231,"Ġmec":4232,"Ġsucesivo":4233,"ĠâĢľ":4234,"ULA":4235,"Ġwithdra":4236,"ĠtravÃ©s":4237,"osition":4238,"Ġrepresentantes":4239,"Ġprogress":4240,"lay":4241,"Ġher":4242,"Ġextern":4243,"ĠÎ´":4244,"Ġprohibi":4245,"Ġremo":4246,"ĠdeberÃŃa":4247,"encies":4248,"Ġfondos":4249,"ĠTur":4250,"ĠUN":4251,"Ġtur":4252,"Ġact":4253,"Ġexamen":4254,"way":4255,"Ġfour":4256,"Ġmodelo":4257,"Ġ41":4258,"Ġposibilidad":4259,"Ġpayments":4260,"ficul":4261,"Ġpag":4262,"Ġaffect":4263,"Ġ60335":4264,"cum":4265,"Ġdev":4266,"izar":4267,"Ġ74":4268,"Ġeuropeo":4269,"Ġmodalidades":4270,"Ġintra":4271,"Ġhomolog":4272,"tory":4273,"76":4274,"Ġevidence":4275,"Ġnegoti":4276,"Ġdistribu":4277,"Ġdrawn":4278,"ĠlÃŃmites":4279,"Ġcontent":4280,"atos":4281,"ĠcÃ³digo":4282,"84":4283,"Ġst":4284,"Ġcalc":4285,"side":4286,"Ġext":4287,"Ġimportes":4288,"Ġpagos":4289,"Ġaves":4290,"Ġnecesarios":4291,"gether":4292,"Ġdep":4293,"Ġcred":4294,"ned":4295,"Ġ84":4296,"lidad":4297,"Ġcin":4298,"ĠAp":4299,"Ġexpress":4300,"ĠdÃ©":4301,"Ġinvitation":4302,"Ġcommercial":4303,"UE":4304,"Ġanalysis":4305,"Ġsales":4306,"Ġev":4307,"visory":4308,"Ġdistintos":4309,"83":4310,"lada":4311,"rices":4312,"Ġemployment":4313,"72":4314,"Ġinco":4315,"Ġlegales":4316,"Ġdirectly":4317,"ĠParty":4318,"Ġobjective":4319,"Ġindire":4320,"Ġinstituciones":4321,"Ġlog":4322,"Ġpoli":4323,"ĠtÃ©cnica":4324,"ĠGobier":4325,"Ġlod":4326,"ociaciÃ³n":4327,"--":4328,"Ġdraw":4329,"ĠexpediciÃ³n":4330,"Ġninguna":4331,"ĠHe":4332,"Ġformal":4333,"Ġconfiden":4334,"Ġmeeting":4335,"rse":4336,"ĠAust":4337,"Ġdepen":4338,"Ġoffer":4339,"ĠobligaciÃ³n":4340,"inafter":4341,"09":4342,"ied":4343,"not":4344,"clear":4345,"Ġwater":4346,"Ġalcan":4347,"86":4348,"Ġguarantee":4349,"reo":4350,"Ġinj":4351,"logical":4352,"ĠpeticiÃ³n":4353,"jet":4354,"Ġconceder":4355,"Ġestrateg":4356,"REG":4357,"Ġrelation":4358,"ĠinspecciÃ³n":4359,"bric":4360,"licies":4361,"52":4362,"Ġrefund":4363,"Ġconsoli":4364,"ĠFondo":4365,"Ġirreg":4366,"Ġmost":4367,"Ġholding":4368,"ĠÃºnicamente":4369,"Ġbio":4370,"Ġwrit":4371,"Ġreglament":4372,"ror":4373,"Ġtogether":4374,"Ġactivity":4375,"Ġanexos":4376,"Ïİ":4377,"Ġsmall":4378,"Ġ61":4379,"Ġund":4380,"posiciÃ³n":4381,"ĠOrgan":4382,"Ġinstalaciones":4383,"Ġdetal":4384,"ĠFund":4385,"sidad":4386,"Ġnueva":4387,"ĠÃ³rgan":4388,"Ġessential":4389,"tat":4390,"zas":4391,"Ġregions":4392,"Ġmencionada":4393,"Ġpelig":4394,"ĠOfic":4395,"Ġfoods":4396,"Ġconfer":4397,"Ġdiscrimin":4398,"Ġfunds":4399,"Ġderogation":4400,"Ã¶r":4401,"ULATION":4402,"ats":4403,"ilancia":4404,"IM":4405,"Ġsemil":4406,"Ġimprove":4407,"Ġincu":4408,"ages":4409,"Ġopera":4410,"Ġembargo":4411,"Ġlin":4412,"Ã©l":4413,"isiones":4414,"Ġnotify":4415,"73":4416,"Ġredes":4417,"Ġlimited":4418,"Ġstar":4419,"entaciÃ³n":4420,"Ġproductor":4421,"79":4422,"Ġobtained":4423,"Ġrecibi":4424,"Ġ03":4425,"Ġindicated":4426,"Ġhereinafter":4427,"56":4428,"ĠArtÃŃculo":4429,"ĠContracting":4430,"Ġestim":4431,"Ġsectores":4432,"Ġcargo":4433,"line":4434,"Ġconformity":4435,"Ġsignifica":4436,"Ġtradi":4437,"Ġlatest":4438,"Ġlow":4439,"Ġcomunes":4440,"Ġentit":4441,"Ġpolicies":4442,"Ġaguas":4443,"Ġelectronic":4444,"Ġkg":4445,"SP":4446,"adro":4447,"sk":4448,"Ġenco":4449,"Ġenten":4450,"am":4451,"Ġapplying":4452,"Ġ69":4453,"ĠOficina":4454,"dar":4455,"Ġactive":4456,"ĠcreaciÃ³n":4457,"Ġconcep":4458,"Ġdetermine":4459,"Ġaverage":4460,"tiveness":4461,"Ġshow":4462,"Ġlengu":4463,"Ġcircumstances":4464,"Ġfirma":4465,"Ġupon":4466,"Ġseguimiento":4467,"Ġwhose":4468,"Ġgive":4469,"ĠSer":4470,"ĠrestituciÃ³n":4471,"Ġ51":4472,"Ġcambio":4473,"Ġrepro":4474,"ass":4475,"ĠPortugal":4476,"Ġdepar":4477,"Ġmotivos":4478,"Ġcuanto":4479,"Ġusing":4480,"Ġexporting":4481,"53":4482,"eu":4483,"ious":4484,"wled":4485,"cado":4486,"zcan":4487,"Ġporcenta":4488,"Ġvalores":4489,"Ġjurisdic":4490,"ĠeconÃ³mica":4491,"mple":4492,"Ġintercambios":4493,"Ġsemillas":4494,"ĠAct":4495,"Ġinflu":4496,"Ġbuen":4497,"Ġquota":4498,"ĠHa":4499,"Ġrecep":4500,"Ġinterests":4501,"Ġjudicial":4502,"zca":4503,"iter":4504,"Ġciu":4505,"Ġvarios":4506,"Ġesa":4507,"Ġcoher":4508,"Ġcerti":4509,"Ġencarg":4510,"Ġ02":4511,"Ġvincula":4512,"Ġbienes":4513,"cin":4514,"Ġvenci":4515,"Ġresponsabilidad":4516,"ELEC":4517,"Ġcertificates":4518,"Ġfuera":4519,"Ġtransi":4520,"Ġalcohol":4521,"ACIÃĵN":4522,"idamente":4523,"hen":4524,"Ġ06":4525,"ĠespecÃŃfica":4526,"Ġregistration":4527,"sable":4528,"Ġimported":4529,"Ġpuesta":4530,"Ġconclusiones":4531,"Ġchange":4532,"ize":4533,"ĠinformarÃ¡":4534,"Ġfinancing":4535,"ĠadministraciÃ³n":4536,"Ġmedic":4537,"Ġvehicle":4538,"moc":4539,"Ġfinancieras":4540,"UNCI":4541,"Ġaument":4542,"Ġimportant":4543,"Ġfunciones":4544,"Ġcircun":4545,"ĠTrans":4546,"Ġrele":4547,"ĠcategorÃŃas":4548,"Ġsuperfici":4549,"Ġreduction":4550,"Ġquali":4551,"ĠespecÃŃficos":4552,"Ġagency":4553,"ĠningÃºn":4554,"MENTO":4555,"cus":4556,"Ġ56":4557,"ÏĢÎ¿":4558,"ĠInternational":4559,"Ġinformes":4560,"Ġput":4561,"ables":4562,"ulgaria":4563,"Ġpropon":4564,"Ġneeds":4565,"Ġrepealed":4566,"Ġreports":4567,"ĠNote":4568,"Ġcandida":4569,"Ġafectado":4570,"Ġjustifica":4571,"ĠcirculaciÃ³n":4572,"ĠFrance":4573,"Ġline":4574,"Ġparticipation":4575,"ĠIP":4576,"Ġsix":4577,"Ġjoint":4578,"TO":4579,"ben":4580,"Ġaprobado":4581,"Ġtransmiti":4582,"Ġconclusion":4583,"Ġcubri":4584,"Ġdisease":4585,"Ġcuentas":4586,"Ġmaterials":4587,"ĠAustria":4588,"89":4589,"Ġbring":4590,"Ġpob":4591,"istics":4592,"ĠGro":4593,"Ġmodificada":4594,"ECTIV":4595,"enomin":4596,"Ġaso":4597,"Ġcontinue":4598,"menti":4599,"ĠtendrÃ¡":4600,"titut":4601,"Ġparty":4602,"Ġgranting":4603,"41":4604,"Ġtenga":4605,"Ġdesignated":4606,"ĠnÂº":4607,"Ġadjud":4608,"ĠtÃ©rminos":4609,"culo":4610,"RE":4611,"ĠRegulations":4612,"Ġvigilancia":4613,"amen":4614,"Ġ63":4615,"lands":4616,"ĠBa":4617,"Ġhig":4618,"lemania":4619,"anit":4620,"Ġfive":4621,"ych":4622,"roz":4623,"ĠcoordinaciÃ³n":4624,"ier":4625,"Ġcinco":4626,"ured":4627,"arious":4628,"Ġconstitutivo":4629,"the":4630,"Ġadjust":4631,"Ġdraft":4632,"Ġtengan":4633,"tments":4634,"LAMENTO":4635,"ĠWh":4636,"ÃŃm":4637,"ĠREGULATION":4638,"Ġpresentado":4639,"wards":4640,"Ġgrow":4641,"ĠGermany":4642,"Ġhace":4643,"ĠCooper":4644,"Ġexistentes":4645,"Ġentered":4646,"Ġ300":4647,"Ġconn":4648,"tera":4649,"Ġparticulares":4650,"Ġinvolved":4651,"Ġdiferentes":4652,"ficio":4653,"ĠguiÃ³n":4654,"Ġestado":4655,"Ġintroduci":4656,"Ġcontext":4657,"own":4658,"Ġconced":4659,"Ġexped":4660,"Ġaspectos":4661,"PL":4662,"Ġshare":4663,"ĠBulgaria":4664,"Ġvacun":4665,"Ġmedica":4666,"ury":4667,"rupos":4668,"2001":4669,"ĠComunicaciÃ³n":4670,"Ġasegur":4671,"ulos":4672,"Ġori":4673,"Ġoperators":4674,"Ġqueda":4675,"Ġdirectamente":4676,"Ġcontaining":4677,"Ġdele":4678,"Ġaduaneras":4679,"tus":4680,"Ġprove":4681,"Ġdestinadas":4682,"ĠcompaÃ±":4683,"Ġutilizados":4684,"ĠfabricaciÃ³n":4685,"Ġheld":4686,"Ġsaid":4687,"Ġnotific":4688,"lados":4689,"Ġenmi":4690,"ĠsecciÃ³n":4691,"ÏģÎ¹":4692,"CENELEC":4693,"Ġindent":4694,"Ġresponsable":4695,"Ġrepresentante":4696,"ĠestadÃŃs":4697,"Ġmilk":4698,"Ġpromote":4699,"Ġprofesional":4700,"redi":4701,"Ġconjun":4702,"Ġpenal":4703,"Ã¥":4704,"ols":4705,"ĠSection":4706,"Ã©tica":4707,"stancias":4708,"UNCIL":4709,"osto":4710,"fo":4711,"Ġsuficiente":4712,"ak":4713,"Ġevitar":4714,"ĠEspa":4715,"Ġaduana":4716,"ĠProgramme":4717,"Ġdecide":4718,"ĠThese":4719,"Ġcommunication":4720,"bon":4721,"ition":4722,"Ġpermitir":4723,"Ġbila":4724,"ĠcategorÃŃa":4725,"Ġprueba":4726,"ĠEst":4727,"ĠÃł":4728,"Ġarancelari":4729,"tividad":4730,"Ġinfring":4731,"ĠFinancial":4732,"ute":4733,"Ġescala":4734,"entas":4735,"Ġemerg":4736,"Ġindependi":4737,"zado":4738,"Ġnor":4739,"Ġvarious":4740,"fies":4741,"Ġven":4742,"ĠISO":4743,"Ġpros":4744,"Ġfound":4745,"Ġprivate":4746,"ĠduraciÃ³n":4747,"Ġsusta":4748,"Ġimposed":4749,"ger":4750,"Ġsuc":4751,"ĠCons":4752,"Ġrecu":4753,"ĠDich":4754,"Ġdemand":4755,"ĠRequisitos":4756,"anza":4757,"Ġproposals":4758,"Ġporc":4759,"Ġmismas":4760,"Ġsince":4761,"ĠeconÃ³micos":4762,"ĠelaboraciÃ³n":4763,"Ġaccompanied":4764,"Ġalmacenamiento":4765,"egal":4766,"Ġensay":4767,"ĠcrÃ©ditos":4768,"Ġbar":4769,"Ġmethod":4770,"enominaciÃ³n":4771,"eded":4772,"Ġear":4773,"ĠPlan":4774,"Ġnecesidades":4775,"Ġprofession":4776,"Ã¨":4777,"Ġhand":4778,"ĠcontribuciÃ³n":4779,"ĠLis":4780,"Ġappe":4781,"ĠNota":4782,"Ġfabric":4783,"Ġincreased":4784,"Ġproviding":4785,"Ġabon":4786,"Ġasimismo":4787,"Ġsosten":4788,"jetos":4789,"vin":4790,"Ġimmediately":4791,"Ġchanges":4792,"Ã£":4793,"munity":4794,"Ġinsurance":4795,"Ġpurch":4796,"ĠadoptarÃ¡":4797,"tuto":4798,"ĠaprobaciÃ³n":4799,"Ġafectados":4800,"Ġveterinary":4801,"Ġalgunos":4802,"Ġprogres":4803,"Ġsubstance":4804,"Ġ414":4805,"ĠCOMISIÃĵN":4806,"Ġsale":4807,"Ġoff":4808,"ĠAlemania":4809,"ĠUnido":4810,"Ġsour":4811,"Ġmentioned":4812,"ĠÏĦÎ·ÏĤ":4813,"TE":4814,"Title":4815,"eran":4816,"city":4817,"nia":4818,"ĠSlo":4819,"Ġhecho":4820,"ĠKom":4821,"Ġdestination":4822,"ĠItalia":4823,"Ġfr":4824,"ĠFecha":4825,"bilidades":4826,"aging":4827,"Ġrural":4828,"ĠtÃ©cnico":4829,"ĠGobierno":4830,"ĠÎķ":4831,"Ġpartners":4832,"Ġajustan":4833,"ĠevoluciÃ³n":4834,"ĠGu":4835,"Ġfalling":4836,"Ġ52":4837,"ĠAgric":4838,"ĠoperaciÃ³n":4839,"Ġdella":4840,"Ġdesp":4841,"Ġpeque":4842,"Ġalterna":4843,"Ġforward":4844,"ĠÃºnico":4845,"Ġbear":4846,"ĠDate":4847,"Ġsubs":4848,"Ġeffects":4849,"Ġintermedi":4850,"Ġterm":4851,"Ġconsultation":4852,"Ġexamination":4853,"Ġauditor":4854,"ME":4855,"Ġmarkets":4856,"tices":4857,"Ġregist":4858,"Ġcorresponding":4859,"Ġregionales":4860,"Ġrecomenda":4861,"Direc":4862,"Ġ2008":4863,"izada":4864,"Ġaproxim":4865,"TULO":4866,"Ġpercenta":4867,"ĠÂº":4868,"ĠEnerg":4869,"Ġapproach":4870,"bilities":4871,"ĠentrarÃ¡":4872,"Ġdee":4873,"voc":4874,"Ġparticularly":4875,"Ġgroups":4876,"Total":4877,"Ġtable":4878,"Ġassist":4879,"Ãł":4880,"uncia":4881,"ĠPr":4882,"IRECTIV":4883,"Ġliqu":4884,"Ġnuclear":4885,"ĠmÃ©todo":4886,"ĠEconÃ³mico":4887,"ĠManagement":4888,"Ġcumplan":4889,"Ġaten":4890,"Ġfuture":4891,"Ġreglamentarias":4892,"wledge":4893,"Ġciudad":4894,"Ġlec":4895,"Ġartic":4896,"ĠpresentarÃ¡":4897,"ĠAdministra":4898,"Ġadecuada":4899,"deraciÃ³n":4900,"tarÃ¡":4901,"Ġmani":4902,"Ġclari":4903,"ĠjurÃŃdico":4904,"Ġsubsidi":4905,"Ġstrength":4906,"echos":4907,"Ġdivers":4908,"Ġcompetencias":4909,"Ã½":4910,"Ġsk":4911,"Ġexpired":4912,"Ġconsumidores":4913,"Ġzo":4914,"Ġguidelines":4915,"ĠhomologaciÃ³n":4916,"Ġinterpre":4917,"eza":4918,"Ġdimen":4919,"ĠmarÃŃti":4920,"standing":4921,"Ġvolume":4922,"ita":4923,"anos":4924,"Ġinterno":4925,"Ġexen":4926,"Ġoriginarios":4927,"ĠSA":4928,"Î¹Î±":4929,"Ġexcept":4930,"Ġshe":4931,"ribut":4932,"Ġhtt":4933,"ĠHung":4934,"mendment":4935,"Ġcontained":4936,"ĠPresidente":4937,"Ġparcial":4938,"Ġgrupos":4939,"Ġcannot":4940,"Ġmatters":4941,"ĠcomunicarÃ¡n":4942,"ĠdefiniciÃ³n":4943,"Ġgoverning":4944,"Ġaquel":4945,"Ġoperational":4946,"ĠaÃ±adirÃ¡":4947,"Ġobligation":4948,"Ġelectri":4949,"Ġadequ":4950,"Ġhttp":4951,"mical":4952,"iner":4953,"Ġinversiones":4954,"Ġcontr":4955,"DenominaciÃ³n":4956,"oc":4957,"Ġreach":4958,"Ġretur":4959,"Ġopportun":4960,"ĠcontinuaciÃ³n":4961,"Ġinfrac":4962,"Ġoffic":4963,"Ġsalvo":4964,"Ġbenefit":4965,"Ġfue":4966,"Ġmecanis":4967,"lizaciÃ³n":4968,"ĠlÃŃn":4969,"Ġexpir":4970,"Ġrecip":4971,"ĠPAR":4972,"Ġdecided":4973,"Ġaccepted":4974,"ĠResol":4975,"Ġincluir":4976,"ÃįTULO":4977,"amending":4978,"Ġamendment":4979,"Ġstatistical":4980,"Ġremain":4981,"Ġ104":4982,"Ġreduced":4983,"logo":4984,"ĠSeguridad":4985,"Ġinformed":4986,"Ġimplemented":4987,"Ġeducation":4988,"ultry":4989,"Ġasunto":4990,"Ġurg":4991,"Ġnormativa":4992,"uxemb":4993,"Ġexternal":4994,"Ġmech":4995,"Ġprever":4996,"Ġencoura":4997,"Ġ59":4998,"Ġpresented":4999,"ĠDevelop":5000,"Ġingresos":5001,"Ġproteg":5002,"Ġrequer":5003,"Î²":5004,"Ġshown":5005,"Ġrealizar":5006,"Ġrelacionados":5007,"Ġdepos":5008,"bly":5009,"Ġpertinente":5010,"Ġinteg":5011,"Ġcolu":5012,"Ġcross":5013,"Ġprima":5014,"acto":5015,"Ġllevar":5016,"Ġwine":5017,"Ġdet":5018,"Ġapli":5019,"Ġstatus":5020,"Ġemiti":5021,"Ġradi":5022,"Ġejemp":5023,"Ġcharacteristics":5024,"pt":5025,"Ġreserv":5026,"ĠBr":5027,"Ġdocum":5028,"ĠmÃ¡xima":5029,"Ġperio":5030,"Ex":5031,"Ġserious":5032,"Ġnaturaleza":5033,"ĠEuros":5034,"PR":5035,"Ġweight":5036,"Ġinteresadas":5037,"Ġsufficient":5038,"ĠRegion":5039,"Ġadqui":5040,"Ġexclusi":5041,"Ġvistas":5042,"rÃ¡nsito":5043,"Ġexpertos":5044,"Ġmic":5045,"Ġvista":5046,"Ġacting":5047,"Ġsubsequ":5048,"ctions":5049,"Ġtien":5050,"Ġcomments":5051,"ĠSpa":5052,"mium":5053,"fr":5054,"Ġappear":5055,"ĠIT":5056,"Ġcommittee":5057,"ĠEEA":5058,"ĠestadÃŃsticas":5059,"Ġfacul":5060,"Ġoperating":5061,"Ġanuales":5062,"BP":5063,"ĠBy":5064,"ĠSub":5065,"ĠCar":5066,"Ġporcentaje":5067,"Ġfoment":5068,"Ġâ":5069,"iste":5070,"char":5071,"Ġpreciso":5072,"Ġpost":5073,"Ġavo":5074,"AG":5075,"Ġescrito":5076,"ĠÃ¡mbitos":5077,"ok":5078,"ĠSafety":5079,"Ġplante":5080,"Ġresulting":5081,"ĠtrÃ¡nsito":5082,"Ġki":5083,"ji":5084,"ÎµÎ¯":5085,"Ġtemporal":5086,"Ġite":5087,"Ġsustaina":5088,"estic":5089,"Ġintercambio":5090,"Ġeficaz":5091,"Ġautorizados":5092,"Ġpractice":5093,"ĠAdemÃ¡s":5094,"Ġmaking":5095,"roma":5096,"ĠdistribuciÃ³n":5097,"Ġalimentos":5098,"Ġunless":5099,"olÃ³gica":5100,"Ġfundamental":5101,"oting":5102,"Ġcualifica":5103,"Ġlle":5104,"Ġagosto":5105,"Ġapor":5106,"Ġmovement":5107,"Ġpoultry":5108,"Ġabout":5109,"Ġtypes":5110,"Ġsustancia":5111,"Cuando":5112,"ĠAug":5113,"ĠMedi":5114,"mentales":5115,"mark":5116,"ĠrevisiÃ³n":5117,"ece":5118,"tel":5119,"Ġflu":5120,"Ġrazones":5121,"Ġcircunstancias":5122,"Ġfase":5123,"izado":5124,"Ġimportancia":5125,"jas":5126,"Ġespa":5127,"ĠÏĦÎ¿Ïħ":5128,"Ġtre":5129,"Ġincur":5130,"venue":5131,"ĠeconÃ³mico":5132,"Ġmejora":5133,"Ġvela":5134,"Ġfores":5135,"Ġcuestiones":5136,"ĠindicaciÃ³n":5137,"eccion":5138,"Ġinstitution":5139,"Community":5140,"Ġaliment":5141,"AND":5142,"Ġestrategia":5143,"bu":5144,"Ġdri":5145,"Ġexportadores":5146,"Ġworkers":5147,"ame":5148,"Ġcredit":5149,"Ã¡logo":5150,"ĠmayorÃŃa":5151,"rue":5152,"Ġindicaciones":5153,"enciales":5154,"Ġnav":5155,"Ã£o":5156,"ograph":5157,"Ġing":5158,"ki":5159,"dencia":5160,"Ġconsiders":5161,"Ġconsequ":5162,"atro":5163,"Ġeficacia":5164,"sity":5165,"ĠÃ©ste":5166,"ueda":5167,"Ġfacilitate":5168,"TIC":5169,"Ġforth":5170,"porte":5171,"ack":5172,"outh":5173,"ambi":5174,"ĠSw":5175,"Ġpasa":5176,"Ãª":5177,"ĠTitle":5178,"ĠsupervisiÃ³n":5179,"Ġamon":5180,"Ġacer":5181,"ĠPo":5182,"Ġlargo":5183,"Ġhowever":5184,"Ġ296":5185,"Ġcompromiso":5186,"ĠAugust":5187,"ĠgarantÃŃas":5188,"IV":5189,"ĠEESC":5190,"yn":5191,"Ġrecital":5192,"Ġalimenti":5193,"Ġcurso":5194,"Ġcategories":5195,"sification":5196,"bia":5197,"Ġentidad":5198,"ĠCentre":5199,"Ġadicionales":5200,"Ġconsolida":5201,"Ġencu":5202,"Ġsociales":5203,"Ġprom":5204,"ĠStan":5205,"Ġexercise":5206,"Ġaplicarse":5207,"Ġdisponibles":5208,"Ġcoordination":5209,"Ġsenti":5210,"ĠBel":5211,"Ġfijado":5212,"Ġcompra":5213,"Ġconsumer":5214,"Ġmach":5215,"ĠCESE":5216,"Ġdebido":5217,"ĠED":5218,"Ġdeleted":5219,"Ġenfermedad":5220,"long":5221,"veles":5222,"Esta":5223,"Ġses":5224,"Ġplacing":5225,"ĠquedarÃ¡":5226,"via":5227,"Ġtransmit":5228,"Ġtest":5229,"ĠComÃºn":5230,"ano":5231,"ĠFOR":5232,"landia":5233,"Ġventas":5234,"iores":5235,"Ġtel":5236,"Ġprincipales":5237,"Ġbuque":5238,"ĠPresident":5239,"ĠRa":5240,"ĠCommunication":5241,"ĠThere":5242,"Ġsectors":5243,"ismo":5244,"mate":5245,"ĠEach":5246,"ĠNew":5247,"Ġefectuar":5248,"Ġpercentage":5249,"ĠseÃ±a":5250,"ĠAD":5251,"ĠasociaciÃ³n":5252,"Ġgood":5253,"Ġbelow":5254,"ÏĢÏĮ":5255,"Ġinteresados":5256,"Ġsupplement":5257,"Ġpasseng":5258,"Ġacog":5259,"ĠademÃ¡s":5260,"ĠidentificaciÃ³n":5261,"Ġestablecida":5262,"Ġadicional":5263,"Ġsever":5264,"Ġtemporary":5265,"Ġperformance":5266,"Å¾":5267,"ulture":5268,"Ġunit":5269,"ĠAG":5270,"ÏĢÎ¹":5271,"rate":5272,"Ġtransit":5273,"ĠIndu":5274,"Ġremiti":5275,"Ġmismos":5276,"ĠIns":5277,"Ġdeleg":5278,"Ġsimplifica":5279,"Ġcarga":5280,"Ġrepresentatives":5281,"Ã©ct":5282,"It":5283,"fuer":5284,"Ã³s":5285,"Ġdiver":5286,"Ġfunction":5287,"Ġlodged":5288,"dice":5289,"Ġseis":5290,"cup":5291,"Ġensuring":5292,"rÃ¡fico":5293,"Ġju":5294,"Ġai":5295,"tarse":5296,"Ġidentified":5297,"Ġextent":5298,"orts":5299,"Ġnotice":5300,"Ġ468":5301,"ĠLuxemb":5302,"Ġeng":5303,"Ġnota":5304,"jeros":5305,"Ġdia":5306,"Ġ500":5307,"ĠDevelopment":5308,"Ġmix":5309,"ĠposiciÃ³n":5310,"Ġcorrect":5311,"Ġmutu":5312,"Ġinfra":5313,"culos":5314,"Ġtienen":5315,"enses":5316,"Ġreconocimiento":5317,"Ġrecurso":5318,"ÃŃmenes":5319,"Ġcopy":5320,"Ġinserted":5321,"ĠRec":5322,"Ġproblemas":5323,"Ġdomestic":5324,"Ġquotas":5325,"Ġ156":5326,"Ġassets":5327,"Ġbudgetary":5328,"ĠvehÃŃculo":5329,"Ġejemplo":5330,"otes":5331,"ala":5332,"Ġcompara":5333,"REGLAMENTO":5334,"Ġinv":5335,"pia":5336,"Ġfail":5337,"ĠCentral":5338,"warded":5339,"Ġimplica":5340,"Ġcontact":5341,"roga":5342,"Ġplaced":5343,"Ġcontexto":5344,"Ġsuministro":5345,"ness":5346,"JO":5347,"Ġcuadro":5348,"Ġelev":5349,"Ġcommunicate":5350,"Ġanticip":5351,"Ġutilizar":5352,"Ġenterpr":5353,"Ġadquiri":5354,"gas":5355,"Ġmarca":5356,"Ġniveles":5357,"Ġinstal":5358,"inted":5359,"Ġann":5360,"Ġadver":5361,"appro":5362,"ov":5363,"Ġesper":5364,"Ġlleg":5365,"Ġesfuer":5366,"Ġrelations":5367,"Ġmantener":5368,"ĠCase":5369,"COMMISSION":5370,"Ġsentido":5371,"Ġinicial":5372,"Ġoutside":5373,"ĠenergÃŃa":5374,"ĠIndia":5375,"Ġellos":5376,"Ġmodel":5377,"Ġdirig":5378,"Ġdescribed":5379,"atoria":5380,"Ġcomprendido":5381,"2007":5382,"dial":5383,"ĠperiÃ³":5384,"Ġiii":5385,"Ġcubrir":5386,"acciÃ³n":5387,"Ã¡tico":5388,"Ġenable":5389,"5000":5390,"Ġenfor":5391,"Ġmanufactur":5392,"els":5393,"Ġmuy":5394,"ging":5395,"Ġusuarios":5396,"wal":5397,"Ġaumento":5398,"OPE":5399,"Ġtitular":5400,"Ġdeterminado":5401,"ĠSEC":5402,"Ġcif":5403,"Ġwhole":5404,"Ġequivalente":5405,"ĠCF":5406,"orea":5407,"hold":5408,"Ġrepresented":5409,"ĠcÃ¡l":5410,"iss":5411,"Ġhubi":5412,"Ġfiscal":5413,"ĠPre":5414,"Ġfami":5415,"ato":5416,"quisi":5417,"ĠAction":5418,"Ġrap":5419,"pl":5420,"Ã³r":5421,"Ġcalend":5422,"ĠtÃ©cnicos":5423,"Ġroad":5424,"Ġmedicinal":5425,"Ġplazos":5426,"Ġidentification":5427,"Ġofertas":5428,"Ġresponsibility":5429,"Ġsla":5430,"Ġegg":5431,"Ġirregulari":5432,"Ġproveed":5433,"Ġav":5434,"ĠEspaÃ±a":5435,"Ġreser":5436,"Ġrecib":5437,"Ġoperadores":5438,"nos":5439,"ĠcelebraciÃ³n":5440,"Ġfully":5441,"Ġpowers":5442,"Ġreduc":5443,"Ã©ase":5444,"Ġrole":5445,"Ġmantenimiento":5446,"Ġsubvencion":5447,"Ġcumplen":5448,"aries":5449,"ĠSpain":5450,"rastruct":5451,"bras":5452,"ĠCustoms":5453,"Ġautorizado":5454,"Ġtu":5455,"CION":5456,"Ġ1989":5457,"ogue":5458,"Ġcorrec":5459,"UB":5460,"didas":5461,"APTER":5462,"Ġesos":5463,"Ġatta":5464,"ĠpÃºblicos":5465,"Ġexpressed":5466,"vamente":5467,"Ġmaterias":5468,"Ġarti":5469,"Ġzone":5470,"Ġinfringe":5471,"wise":5472,"izados":5473,"Ġdistribution":5474,"Ġcrisis":5475,"Ġmatter":5476,"Ġknowledge":5477,"ono":5478,"Ġpractices":5479,"Ġva":5480,"Ġplants":5481,"ĠDirectives":5482,"Ġpub":5483,"Ġpremium":5484,"Ġtransitor":5485,"ĠCONSE":5486,"Ġparts":5487,"Ġresultado":5488,"ughter":5489,"Ġtasks":5490,"Ġupda":5491,"Ġgeog":5492,"Ġlonger":5493,"tÃ³":5494,"Ġrestruct":5495,"Ġefect":5496,"Ġadvance":5497,"Ġsw":5498,"antÃŃa":5499,"Ġrates":5500,"Ġafect":5501,"Ġfarm":5502,"Ġiniciativa":5503,"dan":5504,"ized":5505,"illed":5506,"Para":5507,"Ġlay":5508,"Ġanteriores":5509,"ĠefectÃº":5510,"muner":5511,"Ġcompromisos":5512,"Ġnomenclatura":5513,"Ã¡li":5514,"Ġgrounds":5515,"Ġcarrying":5516,"landa":5517,"ĠInves":5518,"Ġestudios":5519,"Ġstu":5520,"Ġcolabor":5521,"ĠagrÃŃcola":5522,"Ġmedioambi":5523,"ĠPrograma":5524,"ĠCONSEJO":5525,"Ġaus":5526,"ĠGovernment":5527,"Legal":5528,"Ġgeograph":5529,"ĠÎºÎ±Î¹":5530,"Ġabier":5531,"Ġannex":5532,"Ġconcentra":5533,"Ġavoid":5534,"ĠAR":5535,"Ġtercero":5536,"ĠÏĥÏĦ":5537,"ket":5538,"Ġamb":5539,"uts":5540,"Ġinstrument":5541,"Ġpig":5542,"ĠMed":5543,"ĠalimentaciÃ³n":5544,"ĠFrancia":5545,"Ġinjury":5546,"ficientes":5547,"ĠcertificaciÃ³n":5548,"zi":5549,"Ġflex":5550,"Ġbru":5551,"Ġleche":5552,"finan":5553,"Ġforms":5554,"Ġauthorization":5555,"Ġapropia":5556,"ĠSchen":5557,"ĠbÃ¡s":5558,"Î±Î½":5559,"Ġpapel":5560,"Ġexportador":5561,"Ġrefor":5562,"Ġinstrumento":5563,"ĠItaly":5564,"Ġrisks":5565,"IF":5566,"ĠEG":5567,"Ġclose":5568,"uter":5569,"Ġsigned":5570,"Ġtarget":5571,"Ġamong":5572,"unci":5573,"uevos":5574,"ibilidad":5575,"Ġvarias":5576,"ference":5577,"Ġtecnolog":5578,"Ġvencimiento":5579,"Ġexperience":5580,"ĠON":5581,"Ġreducir":5582,"Ġcuatro":5583,"bserv":5584,"Ġslaughter":5585,"Ġexperts":5586,"ĠestarÃ¡n":5587,"ISION":5588,"Ġauthorized":5589,"ĠSchengen":5590,"bres":5591,"Ġsetting":5592,"Ġnotificada":5593,"Ã¼r":5594,"Ġfulfil":5595,"asing":5596,"Ġoriginarias":5597,"Ġdefinition":5598,"Ġaccession":5599,"Ġemission":5600,"Ġcalculated":5601,"ĠTex":5602,"Ġlucha":5603,"Ġtransf":5604,"Ġstatistics":5605,"Ġencuent":5606,"Ġlegislaciones":5607,"Ġadecuadas":5608,"uestas":5609,"Ġrecuper":5610,"Ġexperiencia":5611,"Ġreceip":5612,"ĠEste":5613,"ÃŃz":5614,"ĠRom":5615,"Ġmedia":5616,"ĠÏĦÎ¿":5617,"Ġimpuesto":5618,"Ġincluida":5619,"Ġraw":5620,"ĠCada":5621,"uda":5622,"Ġpropia":5623,"Ġinci":5624,"Ġfavo":5625,"Ġdeemed":5626,"tection":5627,"Ġstrengthen":5628,"Ġcorral":5629,"idez":5630,"Ġagencies":5631,"Ġexpenses":5632,"ĠAutor":5633,"ĠMi":5634,"Por":5635,"ĠSE":5636,"Ġinteresado":5637,"Ġinfraestruct":5638,"Ġvida":5639,"Ġexpi":5640,"Ġfalta":5641,"Ġcitiz":5642,"Ġbovine":5643,"Ġsac":5644,"ĠexenciÃ³n":5645,"Ġdemoc":5646,"Ġfitos":5647,"Ġissues":5648,"ĠcÃ³digos":5649,"Ġlikely":5650,"rÃ³":5651,"ĠdeberÃŃan":5652,"Ġsustainable":5653,"dy":5654,"Å¡":5655,"time":5656,"Ġbeca":5657,"tros":5658,"APÃįTULO":5659,"ĠEEE":5660,"UD":5661,"ĠAS":5662,"Ġunits":5663,"ĠrÃ¡":5664,"Ġhel":5665,"Ġplanes":5666,"ĠAuthor":5667,"ĠEX":5668,"Ġdirectrices":5669,"aged":5670,"Ġ600":5671,"Ġconfirmed":5672,"uega":5673,"Ġcontribute":5674,"Ġforthwith":5675,"Ġpror":5676,"Ġentrega":5677,"ĠEUROPE":5678,"Ġbre":5679,"Ġprofessional":5680,"Ġdistintas":5681,"ek":5682,"ĠSp":5683,"mentioned":5684,"Ġcategory":5685,"Ġpeligros":5686,"Ġ103":5687,"Ġfisheries":5688,"tades":5689,"Ġobtener":5690,"ĠclasificaciÃ³n":5691,"Ġri":5692,"Regulation":5693,"Ġable":5694,"ĠpÃºblicas":5695,"rug":5696,"Ġexcepciones":5697,"Ġmas":5698,"ĠAll":5699,"ĠprÃ©":5700,"Ġcompleted":5701,"Ġalimenticios":5702,"Ġetc":5703,"ind":5704,"Ġimpacto":5705,"Ġ1987":5706,"Ġpotential":5707,"Ġdelivered":5708,"Ġsection":5709,"usiÃ³n":5710,"ĠNL":5711,"ĠGroup":5712,"bar":5713,"Ġrecognition":5714,"ĠconservaciÃ³n":5715,"Ġadequate":5716,"Ġmicro":5717,"Ġdestinat":5718,"stancia":5719,"ood":5720,"ĠAid":5721,"cession":5722,"2008":5723,"Ġbuil":5724,"ffic":5725,"tage":5726,"ĠÎ¿":5727,"Ġdefine":5728,"ĠRus":5729,"Ġevery":5730,"Ġrepar":5731,"rase":5732,"Ġinterested":5733,"Ġdefinitive":5734,"Ġaccounting":5735,"entales":5736,"Ġplans":5737,"Ġsupervision":5738,"ĠprevÃ©":5739,"term":5740,"ĠFra":5741,"Ġperten":5742,"Ġolive":5743,"Ġsoon":5744,"ĠcondiciÃ³n":5745,"Ġexported":5746,"General":5747,"Ġcultural":5748,"limin":5749,"ionales":5750,"Ġprecis":5751,"ĠconstrucciÃ³n":5752,"Ġmajority":5753,"CT":5754,"Ġfishery":5755,"Ġseveral":5756,"Ġnr":5757,"Ġland":5758,"ĠÏĦÎ·Î½":5759,"Ġpresiden":5760,"000000":5761,"Ġreceiving":5762,"Ġfresh":5763,"CA":5764,"Ġprof":5765,"Ġrene":5766,"Ġaspects":5767,"Ġstrategy":5768,"trol":5769,"ĠtransmisiÃ³n":5770,"Ġ106":5771,"Ġmechanis":5772,"illance":5773,"Ġ09":5774,"Ġsuprim":5775,"ij":5776,"ĠIM":5777,"Ġdenominado":5778,"Ġautorizar":5779,"Fecha":5780,"ough":5781,"lamentos":5782,"Ġuniver":5783,"elling":5784,"Ġrequires":5785,"Ġorienta":5786,"Ġdelay":5787,"Ġagreed":5788,"Ġinfrastruct":5789,"Ġpeople":5790,"ĠtendrÃ¡n":5791,"Ġhuevos":5792,"tter":5793,"Ġproceder":5794,"Ġextended":5795,"Ġserie":5796,"ĠOR":5797,"Ġneeded":5798,"Ġcontingentes":5799,"Ġfoodstuffs":5800,"ĠSup":5801,"Ġpron":5802,"Ġspecifica":5803,"ÏĥÏĦ":5804,"Ġtowards":5805,"Ġza":5806,"Ġperiodo":5807,"Ġremuner":5808,"Ġexplotaciones":5809,"ĠvÃ¡li":5810,"Ġproceda":5811,"ĠSuch":5812,"Ġdevices":5813,"ĠÃŃn":5814,"dern":5815,"Ġcomplete":5816,"Ġdemos":5817,"Ġunidades":5818,"Ġabsence":5819,"zed":5820,"reland":5821,"tral":5822,"Ġru":5823,"Ġfijar":5824,"ĠAny":5825,"Ġblan":5826,"Ġacciden":5827,"Ġapproxim":5828,"ĠRegional":5829,"Ġbrought":5830,"Ġanteriormente":5831,"Ġvisi":5832,"Ġespecie":5833,"Ġindemn":5834,"Ġrecognised":5835,"Mo":5836,"Ġcubier":5837,"ĠintroducciÃ³n":5838,"Ġintroduction":5839,"Ġsubmission":5840,"talidad":5841,"ĠEF":5842,"Ġperspec":5843,"elec":5844,"Ġsolicitar":5845,"atorios":5846,"ĠVIII":5847,"Ġcontrols":5848,"Ġindependent":5849,"ĠProduct":5850,"Ġferro":5851,"Ġexports":5852,"ombre":5853,"Ġejecu":5854,"Ġhy":5855,"Ġprocessed":5856,"Ġkilo":5857,"Date":5858,"Ġbeneficiario":5859,"Ġconcedida":5860,"pula":5861,"ĠGi":5862,"Ġkeep":5863,"Ġreturn":5864,"Ġfomentar":5865,"ĠCro":5866,"Ġsostenible":5867,"Ġsociety":5868,"Ġadoptado":5869,"Ġexportaciones":5870,"Ġoferta":5871,"Ġfil":5872,"Ġov":5873,"Ġfuncionarios":5874,"uls":5875,"However":5876,"Î¿Ïį":5877,"SA":5878,"Ġresulta":5879,"sels":5880,"COUNCIL":5881,"Ġtrabajos":5882,"Ġsil":5883,"Deci":5884,"ĠCor":5885,"Ġotherwise":5886,"Ġadecuado":5887,"Ġrevenue":5888,"IL":5889,"vy":5890,"Ġprepa":5891,"Ġmedicamentos":5892,"Res":5893,"endas":5894,"ĠIr":5895,"Ġfeed":5896,"Ġreestruct":5897,"Ġesas":5898,"ÏģÎ±":5899,"ĠEconÃ³mica":5900,"Ġcodes":5901,"Ġpartida":5902,"Ġcirculation":5903,"Ġaudit":5904,"ĠNaciones":5905,"jective":5906,"ĠTR":5907,"Ġatten":5908,"ĠinclusiÃ³n":5909,"dificaciÃ³n":5910,"Ġpuer":5911,"kt":5912,"unque":5913,"Ġimpon":5914,"Ġbeneficiarios":5915,"Ã¡tica":5916,"Ġclara":5917,"ĠelÃ©ct":5918,"Ġhigher":5919,"ported":5920,"Ġlarge":5921,"Ġusers":5922,"ĠÎ³":5923,"reater":5924,"ison":5925,"Ġrein":5926,"Ġexception":5927,"Ġtransactions":5928,"Ġingredi":5929,"ĠInstitu":5930,"Ġfirm":5931,"Ġappropriations":5932,"Ġstocks":5933,"Ġreceipt":5934,"ĠUnidas":5935,"Ġbenefits":5936,"Ġimpres":5937,"Ġseparate":5938,"ĠBank":5939,"CIONES":5940,"Ġdonde":5941,"ĠDirectivas":5942,"Ġmargen":5943,"rical":5944,"Ġrelaciones":5945,"Ġtransmission":5946,"cz":5947,"aro":5948,"arian":5949,"Ġconflic":5950,"Ġmeetings":5951,"ĠentenderÃ¡":5952,"Ġkilogra":5953,"Ġestablishments":5954,"Ġvigentes":5955,"Ġaward":5956,"Ġplanned":5957,"Ġcompatible":5958,"Ġmig":5959,"Ġtenders":5960,"Ġpl":5961,"Ġincen":5962,"ĠconsiderarÃ¡":5963,"Ġfitosanit":5964,"Ġproblems":5965,"Ġvalues":5966,"Ġeggs":5967,"Ġcuar":5968,"Ġadquisi":5969,"Ġfacilit":5970,"Ġapoy":5971,"bur":5972,"Ġtests":5973,"usted":5974,"Ġutilizarse":5975,"ecer":5976,"Ġfindings":5977,"Ġgrado":5978,"lier":5979,"Cen":5980,"Ġasisti":5981,"enza":5982,"Ġsujetos":5983,"Ġconsiderando":5984,"ĠCode":5985,"Ġconsideration":5986,"Ġpuesto":5987,"ĠCH":5988,"ĠresoluciÃ³n":5989,"Ġsupon":5990,"Ġdebidamente":5991,"Ġsurveillance":5992,"Ġocas":5993,"ĠJusti":5994,"Ġdeneg":5995,"Ġintroduced":5996,"Ġpolitical":5997,"Ġapplies":5998,"Ġcoste":5999,"ĠregÃŃmenes":6000,"Ġcontribuir":6001,"tiles":6002,"Ġlatter":6003,"ites":6004,"Ġinformaciones":6005,"Ġdol":6006,"Ġtele":6007,"Ġresponsables":6008,"Ġenumerados":6009,"SC":6010,"ared":6011,"Ġexpos":6012,"Ġcuy":6013,"Ġtraffic":6014,"Ġseguros":6015,"Ġdeveloping":6016,"Ġsatisf":6017,"Ġpermita":6018,"Ġreemb":6019,"cuencia":6020,"Ġkept":6021,"Ġparticipantes":6022,"arter":6023,"Ġautom":6024,"Ġfuer":6025,"Ġadvan":6026,"Ġmanner":6027,"ICA":6028,"Ġschemes":6029,"Ġpermis":6030,"Ġproportion":6031,"ĠEurostat":6032,"Cenelec":6033,"Ġletter":6034,"alle":6035,"ĠAus":6036,"Ġimportance":6037,"Ġmutual":6038,"ensa":6039,"Ġimportantes":6040,"Ġmandato":6041,"Ġcitizens":6042,"tando":6043,"Ġcontingente":6044,"Ġciudadanos":6045,"fegu":6046,"Ġbec":6047,"Ġconfirm":6048,"Ġappo":6049,"tations":6050,"Ġport":6051,"ĠFa":6052,"Ġincurred":6053,"ĠJusticia":6054,"Ġadopten":6055,"Ġbecause":6056,"ĠregiÃ³n":6057,"Ġderivados":6058,"Ġcompensation":6059,"Ġsupplied":6060,"ĠrecepciÃ³n":6061,"Pres":6062,"Ġje":6063,"ĠcÃ¡lculo":6064,"Ġbeneficiary":6065,"rido":6066,"Ġgreater":6067,"Ġsensi":6068,"Ġindirect":6069,"Ġsanciones":6070,"Ġwel":6071,"ature":6072,"Ġboard":6073,"ĠdenominaciÃ³n":6074,"Ġachieve":6075,"Ġhumanos":6076,"Ġcombusti":6077,"ku":6078,"ĠNa":6079,"Ġterror":6080,"Ġanun":6081,"ĠArt":6082,"Ã¡ticos":6083,"minal":6084,"Ġinitiative":6085,"Ġ120":6086,"Ġchild":6087,"Ġalcanzar":6088,"Ġsuperficie":6089,"over":6090,"ĠIF":6091,"Ġimpuestos":6092,"Ġsegunda":6093,"ĠPosiciÃ³n":6094,"izo":6095,"Ġestablecimientos":6096,"Ġstatement":6097,"Ġcounter":6098,"Ġthus":6099,"nam":6100,"ĠIreland":6101,"Ġpower":6102,"Ġentitled":6103,"Si":6104,"Ġpollu":6105,"Ġmultip":6106,"ÏİÎ½":6107,"pol":6108,"Ġcru":6109,"Ġincluido":6110,"Ġvalidez":6111,"uciones":6112,"ĠdeterminaciÃ³n":6113,"Ġexemption":6114,"hr":6115,"ĠdÃ³":6116,"ĠPop":6117,"Ġrespuesta":6118,"ĠGmb":6119,"tÃ©":6120,"Ġgeographical":6121,"eas":6122,"Ġpropios":6123,"Ġmanufacture":6124,"Ġestructura":6125,"Ġconocimiento":6126,"resenta":6127,"Ġwar":6128,"Ġalc":6129,"Ġcrecimiento":6130,"Ġsatisfact":6131,"ĠÎ¼Îµ":6132,"Ġdefici":6133,"ai":6134,"ceding":6135,"self":6136,"ĠHU":6137,"Ġoficiales":6138,"ĠaÃ©reo":6139,"ĠquÃŃm":6140,"Ġpresentadas":6141,"tically":6142,"ĠpÃ©r":6143,"Ġfrase":6144,"Ġresidencia":6145,"ĠÎ½":6146,"Ġconsiderado":6147,"ick":6148,"ĠprestaciÃ³n":6149,"urities":6150,"Ġveterinario":6151,"Ġdiez":6152,"Ġsiendo":6153,"Ġdirecta":6154,"ĠespecÃŃfico":6155,"Ġdecre":6156,"Ġpromover":6157,"Ġtransitional":6158,"itÃ©s":6159,"ĠRecom":6160,"Ġclaims":6161,"Ġmuestras":6162,"Ġsex":6163,"Ġrail":6164,"uch":6165,"Ġul":6166,"ĠGmbH":6167,"Ġwhile":6168,"Ġcambios":6169,"Ġaumentar":6170,"lations":6171,"Ġfrente":6172,"Ġlays":6173,"ĠÎ±ÏĢÏĮ":6174,"Ġx":6175,"Ġrelacionadas":6176,"ĠeconomÃŃa":6177,"Ġargu":6178,"ĠAssoci":6179,"PE":6180,"nel":6181,"ĠAss":6182,"ism":6183,"Ġdado":6184,"Ġbetter":6185,"As":6186,"Ġfax":6187,"Ġdeclaraciones":6188,"ĠestablecerÃ¡n":6189,"Ġpreparation":6190,"Ġhelp":6191,"ĠPopular":6192,"Ġseguir":6193,"izadas":6194,"ĠcomunicarÃ¡":6195,"Ġwords":6196,"ĠvelarÃ¡n":6197,"ancing":6198,"Ġdipl":6199,"Ġpriority":6200,"Ġholdings":6201,"Ġarising":6202,"Ġrecovery":6203,"Ġwaters":6204,"Ġgrowth":6205,"Ġconstitute":6206,"ÃŃtulos":6207,"Ġproof":6208,"Ġproba":6209,"ĠTech":6210,"Ġcarre":6211,"Ġpermitan":6212,"dolog":6213,"Ġagente":6214,"ĠUna":6215,"Ġrealizadas":6216,"Ġsometer":6217,"Ã³sito":6218,"Ġrestructuring":6219,"Ġdispatch":6220,"tio":6221,"Amendment":6222,"dations":6223,"Ġrequests":6224,"Ġexistencia":6225,"Ġvolunt":6226,"ĠsÃŃ":6227,"Ġrequirement":6228,"Ġposibles":6229,"ĠadaptaciÃ³n":6230,"Ġclassification":6231,"IE":6232,"Ġ2010":6233,"Ġcollection":6234,"ĠAutoridad":6235,"mpe":6236,"Ġaparatos":6237,"ĠOr":6238,"Ġagrup":6239,"pas":6240,"ĠinstalaciÃ³n":6241,"ĠSM":6242,"III":6243,"Ġreuniones":6244,"Ġgene":6245,"Ġdeba":6246,"Ġajust":6247,"Ġofficials":6248,"dones":6249,"venia":6250,"Ġactualmente":6251,"ĠSal":6252,"Ġ1782":6253,"ĠintegraciÃ³n":6254,"Ġagua":6255,"Ġrecogida":6256,"Ġmol":6257,"ĠCentro":6258,"Ġsafegu":6259,"Ġcertification":6260,"Ġalgunas":6261,"Ġdespa":6262,"Este":6263,"Ġinitial":6264,"Ġreduce":6265,"Ġnetworks":6266,"UL":6267,"Î¾":6268,"Ġreserva":6269,"ĠUnidos":6270,"Ġbilateral":6271,"yl":6272,"ÃŁ":6273,"ances":6274,"ĠpoblaciÃ³n":6275,"Ġreper":6276,"ĠST":6277,"ĠconsideraciÃ³n":6278,"Ġbecome":6279,"Ġdama":6280,"Ġpossibility":6281,"Ġdollar":6282,"ath":6283,"Ġseguro":6284,"Ġcontratantes":6285,"Ġtomar":6286,"Ġstill":6287,"Ġcrear":6288,"ĠFramework":6289,"ussels":6290,"Ġdificul":6291,"Ġja":6292,"Ġtransfronter":6293,"ĠreestructuraciÃ³n":6294,"Ġaero":6295,"ĠAm":6296,"ĠOM":6297,"tenance":6298,"ĠGBP":6299,"Ġadministrativa":6300,"Ġrefl":6301,"Ġtareas":6302,"Ġlenguas":6303,"IG":6304,"Ġeven":6305,"anas":6306,"Ġcuota":6307,"Ġdismin":6308,"tarÃŃa":6309,"ĠdÃ³lar":6310,"Ġ136":6311,"Ġformula":6312,"Ġdetails":6313,"Ġ105":6314,"Ġetiquetado":6315,"Ġinfrastructure":6316,"If":6317,"sos":6318,"Ġproc":6319,"ĠmÃ¡ximos":6320,"Ġholder":6321,"tables":6322,"Ġunos":6323,"Ġprelimin":6324,"Ġdisposal":6325,"uselas":6326,"kel":6327,"Ġdig":6328,"Ġcentros":6329,"ĠÃ³rgano":6330,"Î¿Î½":6331,"Ġstage":6332,"Ġallocated":6333,"On":6334,"Ġjud":6335,"Ġreca":6336,"ĠEmp":6337,"Ġtrato":6338,"Ġelements":6339,"Ġincorporated":6340,"Ġdeclared":6341,"Ġdesigned":6342,"Ġobser":6343,"Ã±as":6344,"ĠpodrÃŃa":6345,"Ġpresentada":6346,"ĠEslo":6347,"Ġdic":6348,"Europe":6349,"Ġimportation":6350,"jetivo":6351,"Ġdesarrollar":6352,"Ġnegociaciones":6353,"Ġdesempe":6354,"ined":6355,"lie":6356,"cidas":6357,"utri":6358,"approval":6359,"mig":6360,"Ġdead":6361,"ĠDIRECTIV":6362,"Ġweigh":6363,"Ġesenciales":6364,"ALL":6365,"Ġexcepto":6366,"Ġsell":6367,"Ġmodificarse":6368,"ĠPe":6369,"Ġrice":6370,"Ġemisiones":6371,"Ġcro":6372,"ungs":6373,"Ġexpiry":6374,"Ġtransferencia":6375,"ĠcontaminaciÃ³n":6376,"ĠStanding":6377,"bro":6378,"ĠMr":6379,"Ġcomponentes":6380,"ste":6381,"Ġley":6382,"Ġlanguages":6383,"Ġreferente":6384,"ĠWhen":6385,"Ġliquida":6386,"atives":6387,"ĠOb":6388,"Ġknown":6389,"CN":6390,"Ġperiods":6391,"Ġorganization":6392,"Ġstudies":6393,"ĠLo":6394,"Ġevaluar":6395,"Ġconocimientos":6396,"ĠPer":6397,"Ġrenta":6398,"Ġfunding":6399,"Ġ1988":6400,"Ġconsumers":6401,"Ã©rica":6402,"ĠDEC":6403,"Ġactiva":6404,"Ġmargin":6405,"ĠincluirÃ¡":6406,"Ġdecir":6407,"Ġlead":6408,"Ġmuta":6409,"dero":6410,"ww":6411,"nacional":6412,"comun":6413,"Ġenterprises":6414,"Ġparticulars":6415,"ecutive":6416,"ĠDis":6417,"Ġactivos":6418,"Ġexpedido":6419,"Ġdeg":6420,"Ġtotalidad":6421,"Ġensayo":6422,"echas":6423,"Ġhumana":6424,"Ĥ¬":6425,"tative":6426,"ĠPESC":6427,"Ġpien":6428,"Ġcustom":6429,"unta":6430,"econ":6431,"Ġaffected":6432,"met":6433,"Ġclos":6434,"ĠCZ":6435,"Ġsalva":6436,"Ġsociedades":6437,"Ġcheck":6438,"Ġretirada":6439,"ĠGe":6440,"ĠtrÃ¡fico":6441,"ĠDen":6442,"ĠFED":6443,"Ġdevelopments":6444,"Ġdeal":6445,"Ġpomo":6446,"Ġquin":6447,"Ġprofesionales":6448,"Ġbest":6449,"Ġregulatory":6450,"Ġactos":6451,"rench":6452,"Ġresidence":6453,"ĠÃ©stas":6454,"Ġenforcement":6455,"Ġposibilidades":6456,"Ġconsideran":6457,"Ġdelivery":6458,"Ġmuestra":6459,"Ġallocation":6460,"Ġpreceding":6461,"ĠBas":6462,"Ġequipo":6463,"Ġthroughout":6464,"Ġproces":6465,"ĠRo":6466,"ĠcolaboraciÃ³n":6467,"alogue":6468,"uti":6469,"ÅĽci":6470,"Ġcereales":6471,"round":6472,"ĠReglamentos":6473,"Ġvirus":6474,"Ġsentence":6475,"iling":6476,"ĠâĤ¬":6477,"Ġdestinado":6478,"Ġconnection":6479,"Ġdid":6480,"istan":6481,"Ġalguna":6482,"AF":6483,"ering":6484,"Ã³w":6485,"Ġfijados":6486,"Ġsola":6487,"pag":6488,"ĠfijaciÃ³n":6489,"UC":6490,"Ġpond":6491,"Ġ07":6492,"ĠinformarÃ¡n":6493,"Ġinvestments":6494,"ĠCOMM":6495,"Ġrefieren":6496,"Ġ115":6497,"Ã¡menes":6498,"Ġseman":6499,"ĠDo":6500,"ĠCFSP":6501,"Ġimportadores":6502,"tecciÃ³n":6503,"Ġwritten":6504,"Ġexclusivamente":6505,"eties":6506,"Ġofic":6507,"rales":6508,"xi":6509,"ende":6510,"Ġques":6511,"Ġdeban":6512,"Ġpudi":6513,"Ġverification":6514,"Ġnegotiations":6515,"ata":6516,"Ġinvo":6517,"Ġbeneficio":6518,"iii":6519,"Ġdemanda":6520,"iti":6521,"tida":6522,"ĠSH":6523,"Ġhumano":6524,"ciados":6525,"Ġdischar":6526,"ĠFrench":6527,"TIN":6528,"ÎµÏĤ":6529,"Ġprimas":6530,"ÅĦ":6531,"Ġadministration":6532,"Ġprotect":6533,"Ġindependiente":6534,"Ġsources":6535,"âĢĶ":6536,"Ġrendi":6537,"ĠEL":6538,"Ġfacilities":6539,"Ġrestrictions":6540,"cede":6541,"Ġaleg":6542,"Ġsole":6543,"Ġcalcular":6544,"cido":6545,"Ġenh":6546,"reedom":6547,"Ġdispone":6548,"Ġdisponible":6549,"ĠlÃŃnea":6550,"Ġdeposit":6551,"uido":6552,"Ġinspections":6553,"SI":6554,"Ġcommitments":6555,"Ġwww":6556,"ĠPY":6557,"Ġvery":6558,"ĠcientÃŃficos":6559,"Ġ118":6560,"Ġexclusive":6561,"ĠHealth":6562,"Ġavan":6563,"Ġshort":6564,"Ġcopia":6565,"Ġadmiti":6566,"Ġdefinitivo":6567,"Ġborder":6568,"Ġplenamente":6569,"ĠaproximaciÃ³n":6570,"DP":6571,"visiones":6572,"Ġlanguage":6573,"uf":6574,"Ġblo":6575,"Ġnow":6576,"Ġcomprobar":6577,"Ad":6578,"Ġ150":6579,"Ġconsiderarse":6580,"Ġhoras":6581,"ĠAssociation":6582,"cel":6583,"Ġinici":6584,"Ġnega":6585,"Ġsubsequent":6586,"Ġcharges":6587,"ĠCooperation":6588,"Ġpublici":6589,"ĠadquisiciÃ³n":6590,"quilla":6591,"ivos":6592,"Ġreglamento":6593,"Ġmodified":6594,"Ã³digo":6595,"Ġproperty":6596,"Gas":6597,"Ġarroz":6598,"Ġmutan":6599,"Ġqualified":6600,"ĠAuthority":6601,"Ġprorrog":6602,"mary":6603,"ane":6604,"asta":6605,"Ġutilizado":6606,"Ġcontengan":6607,"ĠWithout":6608,"monst":6609,"Ġpackaging":6610,"ĠIrlanda":6611,"Ġ108":6612,"Ġtelecom":6613,"zer":6614,"itors":6615,"cent":6616,"ĠUK":6617,"retarÃŃa":6618,"Ã¤r":6619,"Ġmutandis":6620,"Ġfuel":6621,"ĠhabÃŃa":6622,"Ġsteps":6623,"relativa":6624,"ĠPYME":6625,"Ġprestaciones":6626,"ĠprevenciÃ³n":6627,"Ġlabelling":6628,"Ġclearly":6629,"Ġmutatis":6630,"AB":6631,"With":6632,"tato":6633,"Ġestrech":6634,"Ġsalida":6635,"Ġnaturales":6636,"Al":6637,"Ġsize":6638,"ancia":6639,"umen":6640,"ÏģÎ¬":6641,"Ġinvent":6642,"antequilla":6643,"Ġstructure":6644,"Ġcompla":6645,"Ġefectiva":6646,"Ġkey":6647,"Ġexceeding":6648,"zech":6649,"Ġtan":6650,"omen":6651,"truk":6652,"arrollo":6653,"Ġeuropeas":6654,"Ġbutter":6655,"ĠfÃ¼r":6656,"ĠECU":6657,"loyment":6658,"ĠsubvenciÃ³n":6659,"Ġdescription":6660,"osta":6661,"Ġcare":6662,"ĠEDF":6663,"Ġappointed":6664,"ificaciÃ³n":6665,"ĠExp":6666,"house":6667,"Ġod":6668,"ĠJus":6669,"ĠProposal":6670,"Ġlicencia":6671,"Ã¤n":6672,"Ġaqua":6673,"ĠinfracciÃ³n":6674,"Ġsuplement":6675,"ĠPaÃŃs":6676,"ĠUnder":6677,"Ġgaran":6678,"Ġpresidente":6679,"App":6680,"Ġtravel":6681,"upuesto":6682,"Ġcharge":6683,"ĠÏĢÏģÎ¿":6684,"Queda":6685,"ibility":6686,"ĠFunda":6687,"Ġefectuadas":6688,"ĠResoluciÃ³n":6689,"Ġenc":6690,"Ġafectadas":6691,"Ġsacri":6692,"ĠprÃ©sta":6693,"talian":6694,"Ġthereto":6695,"Ġrealizados":6696,"Ġworld":6697,"ĠcientÃŃfico":6698,"ĠEM":6699,"legal":6700,"ĠpromociÃ³n":6701,"Ġassociated":6702,"itÃł":6703,"Ġdell":6704,"Ġ388":6705,"Ġconcede":6706,"Ġitalian":6707,"luso":6708,"Ġcovering":6709,"ĠCÃ³digo":6710,"Ġparticipating":6711,"ĠTer":6712,"Ġdemonst":6713,"ĠRuman":6714,"Ġcompr":6715,"Ġpresencia":6716,"Ġemplo":6717,"Ġformulari":6718,"Ġsold":6719,"Ġsanitaria":6720,"Ġasegurar":6721,"Ġentities":6722,"Ġequivalentes":6723,"Ġmedical":6724,"Ġinspecciones":6725,"Ġadministrativos":6726,"ĠRepresenta":6727,"Ġefectuados":6728,"Ġfuentes":6729,"Ġestima":6730,"Ġdisponer":6731,"ĠeducaciÃ³n":6732,"Ġchemical":6733,"Ġdang":6734,"ĠLet":6735,"Ġcontributions":6736,"ÏĥÎµÎ¹":6737,"Ġfruit":6738,"Ġdemocra":6739,"Ġanuncio":6740,"Ġguarantees":6741,"Ġenmienda":6742,"ĠRu":6743,"Ġconstitut":6744,"Ġpop":6745,"ĠeconÃ³micas":6746,"Ġrecomendaciones":6747,"ĠIce":6748,"Ġlive":6749,"Ġcalculation":6750,"Ġrepercu":6751,"icultura":6752,"Ġdisc":6753,"Ġconclusions":6754,"Ġmaintenance":6755,"comunit":6756,"esor":6757,"Ġconse":6758,"ĠAud":6759,"Ġcorona":6760,"Ġissuing":6761,"Ġconfidential":6762,"ĠReport":6763,"udiciales":6764,"ab":6765,"Ġefforts":6766,"sociaciÃ³n":6767,"ĠNO":6768,"Ġcarta":6769,"Ġcondition":6770,"ĠWork":6771,"ĠconclusiÃ³n":6772,"ÃŃcola":6773,"ĠImpor":6774,"Ġrecommendations":6775,"ocer":6776,"Ġ10000":6777,"ĠAP":6778,"licaciÃ³n":6779,"Ġejercer":6780,"Ġrei":6781,"Ġcourse":6782,"ĠObserv":6783,"Ġrespectively":6784,"misi":6785,"ĠSouth":6786,"Ġtranscur":6787,"Ġjunto":6788,"Ġpose":6789,"Ġsupporting":6790,"Ġdiagn":6791,"Ġminor":6792,"Ġsimilares":6793,"Ġbank":6794,"Ġtesting":6795,"ĠRomania":6796,"Ġconti":6797,"urso":6798,"aritime":6799,"Ġprovisionales":6800,"ĠelÃ©ctric":6801,"Ġdemora":6802,"day":6803,"Ġaper":6804,"Ġassign":6805,"Ġperf":6806,"Ġsupri":6807,"Ġsecurities":6808,"Ġnombra":6809,"Ġdiferencia":6810,"Ġenfermedades":6811,"Ġpromoting":6812,"rado":6813,"ĠAsociaciÃ³n":6814,"Ġduration":6815,"Ġmedium":6816,"ficiency":6817,"Ġdifficul":6818,"Ġbanc":6819,"ectiveness":6820,"Ġrecibido":6821,"Ġacerca":6822,"Ġfunctioning":6823,"ĠOther":6824,"ĠFir":6825,"Ã§Ã£o":6826,"Ġadjudica":6827,"ĠIceland":6828,"sp":6829,"utes":6830,"ĠNational":6831,"Ġpresupuestaria":6832,"Ġfabricante":6833,"Ġmantequilla":6834,"Ġfal":6835,"Ġexamine":6836,"ÎŃÏĤ":6837,"Comp":6838,"Ġplantas":6839,"ĠInformation":6840,"ĠDIRECTIVE":6841,"EX":6842,"drÃ¡":6843,"Ġrespectivamente":6844,"ĠeliminaciÃ³n":6845,"lying":6846,"Ġutilic":6847,"ĠÏĦÏīÎ½":6848,"Ġcriminal":6849,"----":6850,"gment":6851,"ĠdiÃ¡logo":6852,"Ġindustriales":6853,"Objetivo":6854,"Ġencourage":6855,"Ġonce":6856,"ĠtÃ©rmino":6857,"Ġvalidity":6858,"Ġpet":6859,"tir":6860,"Ġnutri":6861,"ily":6862,"Ġcontacto":6863,"ĠItalian":6864,"ware":6865,"Ġ110":6866,"1999":6867,"Ġelectrical":6868,"ĠjurÃŃdicas":6869,"Ġran":6870,"Ġfondo":6871,"hesion":6872,"Ġeco":6873,"Ġitself":6874,"Ġpromotion":6875,"posiciones":6876,"Ġincluso":6877,"Ġcreado":6878,"Ġadaptar":6879,"Ġmanufacturer":6880,"Ġexces":6881,"Ġ1493":6882,"Ġintensity":6883,"ĠBanco":6884,"ĠJustice":6885,"ĠSK":6886,"wer":6887,"ÅĻ":6888,"Ġecus":6889,"Ġtecn":6890,"romagn":6891,"rin":6892,"rir":6893,"ĠPod":6894,".`":6895,"ability":6896,"lit":6897,"Ġsy":6898,"Ġpala":6899,"Ġigualdad":6900,"Ġnomenclature":6901,"Ġhead":6902,"Ġcarretera":6903,"Ġtakes":6904,"Ġread":6905,"Ġunas":6906,"Ġimporters":6907,"Ġattached":6908,"Ġom":6909,"Ġindication":6910,"Ġoccur":6911,"ÏĥÎ·ÏĤ":6912,"Ġintegrated":6913,"airman":6914,"Ġpertene":6915,"ĠECB":6916,"Ġcurren":6917,"Ġphys":6918,"Ġdej":6919,"Ġpropag":6920,"Ġintracomunit":6921,"Ġincomp":6922,"Ġacceptance":6923,"ciaciÃ³n":6924,"Ġsupervis":6925,"Ġconsiderable":6926,"Ġcomunicaciones":6927,"Ġsui":6928,"ĠSr":6929,"Ġvon":6930,"Ġdomi":6931,"ĠreuniÃ³n":6932,"Ġspecifications":6933,"gl":6934,"Ġcopi":6935,"ĠGrupo":6936,"Ġstock":6937,"Ġrenew":6938,"Ġalia":6939,"Ġshares":6940,"ÏĦÎ±Î¹":6941,"Ġadecuados":6942,"Ġcommunicated":6943,"etherlands":6944,"Ġcumple":6945,"ĠbasÃ¡ndose":6946,"Ġcurrently":6947,"Ġvariety":6948,"ĠMinist":6949,"Ġpropiedad":6950,"Ġparticipar":6951,"Ġactually":6952,"Ġesencial":6953,"ĠAnexos":6954,"Ġcarnes":6955,"Ġsino":6956,"Ġimproving":6957,"Ġcomponents":6958,"European":6959,"DuraciÃ³n":6960,"Sin":6961,"mbur":6962,"Ġmodern":6963,"ĠVe":6964,"Ġalcance":6965,"olÃ³gicos":6966,"Ġ130":6967,"Ġautorizaciones":6968,"ĠDesarrollo":6969,"wi":6970,"ĠefectuarÃ¡":6971,"fric":6972,"ĠEqui":6973,"Ġacum":6974,"Ġinfluenza":6975,"Duration":6976,"Ġcome":6977,"ÎµÎ½":6978,"viron":6979,"Ġmultila":6980,"ĠÃ©stos":6981,"Ġreda":6982,"Ġrefunds":6983,"Ġexpediente":6984,"ĠEnergy":6985,"Ġeuropeos":6986,"Ġvariedades":6987,"icen":6988,"Ġhet":6989,"ĠÎ³Î¹Î±":6990,"ĠCer":6991,"Ġhacia":6992,"Ġterritorial":6993,"Ġrestricciones":6994,"Ġfuturo":6995,"uto":6996,"icht":6997,"Ġconcerns":6998,"marca":6999,"vak":7000,"Ġprohibited":7001,"ĠaÃºn":7002,"Ġces":7003,"sian":7004,"Ġcho":7005,"Ġreconsi":7006,"Ġintegration":7007,"Ġfronteras":7008,"ĠTrade":7009,"ĠFish":7010,"Ġestablecerse":7011,"ĠÎµÏĢÎ¹":7012,"Council":7013,"tile":7014,"Ġotor":7015,"ĠAL":7016,"END":7017,"ĠÎµÎ½":7018,"Deman":7019,"Ġcelebr":7020,"Ġincumpli":7021,"Ġgestion":7022,"Ġdialogue":7023,"Ġautoriza":7024,"Ġcommitment":7025,"Ġfundamentales":7026,"Ġrelease":7027,"Ġfinales":7028,"ĠBCE":7029,"ĠCzech":7030,"Ġesp":7031,"Ġcuanti":7032,"Ġ109":7033,"laza":7034,"terales":7035,"Ġresponse":7036,"Ġconsultas":7037,"ĠestablecerÃ¡":7038,"ĠpreparaciÃ³n":7039,"ĠaceptaciÃ³n":7040,"Ġponer":7041,"Ġreforzar":7042,"tual":7043,"Ġindicate":7044,"Ġpurchase":7045,"Ġcalendar":7046,"cle":7047,"arily":7048,"Ġdecidir":7049,"Ġ101":7050,"ĠJap":7051,"ourg":7052,"Ġaceite":7053,"ariat":7054,"ĠÃķ":7055,"Inten":7056,"ower":7057,"Ġrestituciones":7058,"enen":7059,"Ġuses":7060,"Ġentire":7061,"Ġprogreso":7062,"ĠCi":7063,"stance":7064,"ĠProced":7065,"Ġnationals":7066,"Ġiniciativas":7067,"ĠBelgi":7068,"ĠÃ©l":7069,"ĠinnovaciÃ³n":7070,"Ġwriting":7071,"ĠStrateg":7072,"Ġpare":7073,"Ġindicados":7074,"Ġarticle":7075,"Ġdetermining":7076,"ĠÃĸ":7077,"Ġclassi":7078,"Ġcalls":7079,"ĠER":7080,"Ġestatales":7081,"Ġhora":7082,"frica":7083,"Ġapertura":7084,"PA":7085,"Ã´":7086,"Ġdesi":7087,"Ġvue":7088,"viles":7089,"Ġcrea":7090,"1998":7091,"selves":7092,"ĠquÃ©":7093,"Ġgrave":7094,"inamarca":7095,"holders":7096,"Ġachieved":7097,"ĠCD":7098,"Ġinteroper":7099,"Ġ107":7100,"ĠPropuesta":7101,"Ġpresentation":7102,"Ġthemselves":7103,"Rec":7104,"Ġworks":7105,"Ġcarrier":7106,"Ġadapted":7107,"ĠconcederÃ¡":7108,"Ġabovementioned":7109,"Ġsuccess":7110,"Ġpopulation":7111,"ĠAdvisory":7112,"ĠelectrÃ³nico":7113,"landes":7114,"Ġmul":7115,"ĠAmer":7116,"Î·Î½":7117,"Ġobst":7118,"key":7119,"mises":7120,"cripciÃ³n":7121,"Ġgovernment":7122,"ĠestadÃŃstica":7123,"ĠatenciÃ³n":7124,"Ã¯":7125,"Ġadoptada":7126,"OD":7127,"ĠDictamen":7128,"Ġcitado":7129,"Ġcontracting":7130,"ĠÃ³rganos":7131,"Ġincompati":7132,"Ġefectuado":7133,"Objective":7134,"Ġ1986":7135,"oria":7136,"Ġ020":7137,"Ġdestinada":7138,"Ġhereto":7139,"Ġaer":7140,"ons":7141,"taliz":7142,"Ġgt":7143,"ĠDebe":7144,"ished":7145,"ĠdeterminarÃ¡":7146,"Ġsituated":7147,"Ġconsultivo":7148,"ĠSecurity":7149,"Ġprotected":7150,"ĠcompaÃ±ÃŃas":7151,"Ġwhat":7152,"Ġhay":7153,"Ġmm":7154,"Ġellas":7155,"cording":7156,"Ġopportunities":7157,"ĠperiÃ³dica":7158,"Ġunidad":7159,"Ġart":7160,"Ġtransportes":7161,"puer":7162,"ĠAccession":7163,"au":7164,"ĠMinister":7165,"Ġmundial":7166,"quinas":7167,"ÃŃci":7168,"Ġconcepto":7169,"ĠConclu":7170,"ĠGran":7171,"Ġfrequ":7172,"ĠBajos":7173,"Ġsend":7174,"alla":7175,"Ġtract":7176,"Ġappropriation":7177,"Ġincome":7178,"Ġsubvenciones":7179,"CON":7180,"gica":7181,"Ġella":7182,"ĠMalta":7183,"ĠâĢĺ":7184,"Ġ08":7185,"Ġdesemb":7186,"elds":7187,"ĠpequeÃ±as":7188,"Ġera":7189,"ITY":7190,"Ġflag":7191,"weden":7192,"Ġlife":7193,"Ġamparo":7194,"Ġlograr":7195,"Î¯Î±":7196,"turas":7197,"ĠNorway":7198,"ĠampliaciÃ³n":7199,"Ġterren":7200,"ĠVi":7201,"Ġ133":7202,"Ġfirms":7203,"cripciones":7204,"Ġcombined":7205,"ĠmodificarÃ¡":7206,"ĠFirst":7207,"reto":7208,"tification":7209,"Ġbeneficios":7210,"Ġcolec":7211,"ĠhÃ¡":7212,"Ġpuestos":7213,"Un":7214,"ÏĮÏĦ":7215,"Ġjurisdiction":7216,"ĠcompaÃ±ÃŃa":7217,"ĠcomisiÃ³n":7218,"Ġdestina":7219,"Ġinvestigaciones":7220,"Ġcompletion":7221,"Ġadoptarse":7222,"Ġreceive":7223,"Ġeconomy":7224,"Ġopened":7225,"Ġsuminist":7226,"Ġmecanismos":7227,"Ġaunque":7228,"Ġformas":7229,"Ġpotencial":7230,"mily":7231,"Ġdificultades":7232,"Ġemploye":7233,"lot":7234,"ĠOper":7235,"ĠUS":7236,"Ġfulfilled":7237,"Ġasociaciones":7238,"ĠFE":7239,"truktur":7240,"just":7241,"Ġentreg":7242,"ĠCuentas":7243,"Ġdemandante":7244,"Ġfija":7245,"Ġpesqueros":7246,"more":7247,"Ġcat":7248,"Ġatt":7249,"rÃ¡fica":7250,"Ġspecify":7251,"Ġpresentarse":7252,"ĠÏĢÎ¿Ïħ":7253,"Ġeleg":7254,"ĠexposiciÃ³n":7255,"Ġdiscus":7256,"dente":7257,"Ġelaborar":7258,"Ġexigencias":7259,"ĠemisiÃ³n":7260,"ĠQu":7261,"ĠGar":7262,"Ġlegislative":7263,"Ġfactors":7264,"Ġmodelos":7265,"Ġesfuerzos":7266,"Ġsubvencionables":7267,"Ġannexed":7268,"Other":7269,"ĠNetherlands":7270,"Ġthres":7271,"ĠÃģ":7272,"Ġurban":7273,"quÃŃa":7274,"ĠNations":7275,"Ġrespective":7276,"mination":7277,"uecia":7278,"Ġcasilla":7279,"ĠÎ·":7280,"Ġdirector":7281,"Ġinitiatives":7282,"Ġcertified":7283,"sibilities":7284,"ĠXS":7285,"ĠEstonia":7286,"Ġapproximation":7287,"wing":7288,"Ġincluye":7289,"Ġ112":7290,"Ġlea":7291,"Ġreferencias":7292,"Ġrealizado":7293,"ĠrÃ¡p":7294,"boa":7295,"ĠSlovak":7296,"ĠPaÃŃses":7297,"Ġenfo":7298,"Ġho":7299,"Ġaduanera":7300,"Ġmuni":7301,"Ġacts":7302,"Ġ102":7303,"ĠHer":7304,"ĠÏĢÎ±":7305,"Ġmanifies":7306,"Ġcolumn":7307,"Budget":7308,"eries":7309,"Ġeffectiveness":7310,"Ġpropone":7311,"Ġclaramente":7312,"Br":7313,"erous":7314,"Ġnames":7315,"Ġflo":7316,"trat":7317,"Ġbordo":7318,"ĠLisboa":7319,"istema":7320,"ÏĥÏĩ":7321,"Ġlists":7322,"Ġprevention":7323,"ĠfÃŃsicas":7324,"ĠNe":7325,"Ġ609":7326,"ically":7327,"Ġsched":7328,"Ġfactor":7329,"Ġtechnology":7330,"ÄĽ":7331,"Ġfreedom":7332,"Ġdeveloped":7333,"ĠasignaciÃ³n":7334,"organ":7335,"Ġallowed":7336,"Ġconstruction":7337,"ĠfÃŃsica":7338,"Ġapliquen":7339,"az":7340,"org":7341,"oung":7342,"ĠVAT":7343,"Ġobtenidos":7344,"Ġitems":7345,"dem":7346,"Ġflig":7347,"ĠSh":7348,"Ġimpu":7349,"ĠFood":7350,"Ġconsult":7351,"Ac":7352,"tificaciÃ³n":7353,"ĠenvÃŃo":7354,"abl":7355,"Ġsoli":7356,"Ġbroad":7357,"Ġrecorded":7358,"tly":7359,"ĠperÃŃodos":7360,"Ġfoot":7361,"ĠXX":7362,"ĠÃºnica":7363,"ĠselecciÃ³n":7364,"Ġinvolving":7365,"Ġ117":7366,"Ġextension":7367,"Ġpiensos":7368,"ĠÏħ":7369,"Ġale":7370,"cientes":7371,"ĠOp":7372,"Ġundertaken":7373,"Ġreporting":7374,"Ġconsidere":7375,"ĠInternacional":7376,"Annex":7377,"Ġreleased":7378,"itary":7379,"ĠimposiciÃ³n":7380,"Ġindicado":7381,"ĠLOS":7382,"pers":7383,"onal":7384,"erÃ¡":7385,"Ġtransparencia":7386,"Ġuniforme":7387,"osla":7388,"Ġ100000":7389,"Ġinfringement":7390,"Ġaeropuer":7391,"ĠdepÃ³sito":7392,"CES":7393,"FOR":7394,"Ġcoe":7395,"Ġ116":7396,"Ġvigente":7397,"Ġvarieties":7398,"Ġclientes":7399,"Ġsujeto":7400,"Ġassisted":7401,"Ġdistor":7402,"ĠSan":7403,"ĠDecla":7404,"Ġautorizada":7405,"Ġcalled":7406,"ferencia":7407,"ĠaÃ±ade":7408,"Ġporcina":7409,"Presupuesto":7410,"icÃŃa":7411,"ĠIX":7412,"Ġrenov":7413,"Ġconservation":7414,"ĠIndustri":7415,"Ã¡g":7416,"Ġpartnership":7417,"Ġreten":7418,"Ġajuste":7419,"ĠÏĥÏħ":7420,"ĠSMEs":7421,"ĠdesempeÃ±":7422,"MO":7423,"coun":7424,"Ġ113":7425,"Ġdiseases":7426,"GO":7427,"jÄħ":7428,"nÃŃ":7429,"Ġdebt":7430,"Ġprohibit":7431,"eno":7432,"Ġsound":7433,"Ġconfidencial":7434,"ĠLisbon":7435,"IP":7436,"aste":7437,"Ġperci":7438,"Ġexistencias":7439,"ĠInforme":7440,"onom":7441,"ĠsustituirÃ¡n":7442,"Ġlabour":7443,"ĠobstÃ¡":7444,"Ã¸":7445,"Ġrefle":7446,"ĠÎķÎ":7447,"ĠConfe":7448,"Ġheading":7449,"Ġassociation":7450,"Ġdiscip":7451,"Ġfinanced":7452,"Ġexamined":7453,"ĠLim":7454,"Ġpremises":7455,"Ġcompleta":7456,"Ġveterinarios":7457,"Ġconsta":7458,"ĠDinamarca":7459,"Ġacon":7460,"ĠcontrataciÃ³n":7461,"Ġcollected":7462,"ĠInternet":7463,"Ġawarded":7464,"Ġtren":7465,"Ġlinked":7466,"Ġincreasing":7467,"Î»Î»":7468,"Ġbelong":7469,"Ġdebate":7470,"ĠfijarÃ¡":7471,"Ãī":7472,"Äĩ":7473,"ĠWH":7474,"atorias":7475,"Ġelectricity":7476,"Ġrecibir":7477,"Ġantig":7478,"ĠPosition":7479,"Ġdetermination":7480,"border":7481,"GR":7482,"deral":7483,"Ġespecially":7484,"ization":7485,"ĠCommissione":7486,"deration":7487,"Ġgases":7488,"Ġcapr":7489,"Ġvegetales":7490,"Ġ2200":7491,"ĠServ":7492,"Ġobsta":7493,"meat":7494,"Ġadjustment":7495,"ĠAB":7496,"fique":7497,"MA":7498,"Ġinicio":7499,"Ġships":7500,"Ġproteger":7501,"ĠDenmark":7502,"bit":7503,"Ġmuest":7504,"Ġ220":7505,"IDAD":7506,"Ġclass":7507,"ĠrazÃ³n":7508,"Ġreject":7509,"Ãºs":7510,"bida":7511,"Ġcance":7512,"ĠSweden":7513,"Ġalto":7514,"ĠcuantÃŃa":7515,"Ġnie":7516,"ĠSuiza":7517,"Ġaditivos":7518,"Ġrazon":7519,"Ġback":7520,"ĠApp":7521,"Ġexceptional":7522,"Ġsatisfy":7523,"Ġprivado":7524,"EMB":7525,"iales":7526,"Ġrecords":7527,"ticular":7528,"Ġproduce":7529,"ugosla":7530,"ways":7531,"yz":7532,"ayan":7533,"Ġparticipate":7534,"Ġexaminar":7535,"Ġoportuno":7536,"Name":7537,"Ġhom":7538,"ĠvÃŃa":7539,"Ġfair":7540,"Inform":7541,"Ġefectuarse":7542,"Ġage":7543,"Ġconsumidor":7544,"tista":7545,"Ġaprue":7546,"Ġfeedings":7547,"Ġpenalties":7548,"ĠSuecia":7549,"Ġdestru":7550,"Ġsampling":7551,"Ġ493":7552,"Ġautorizadas":7553,"Ġ1980":7554,"Î®ÏĤ":7555,"Ġlaboratorio":7556,"Ġresolution":7557,"Nombre":7558,"Ġhim":7559,"Ġexamp":7560,"Ġmonet":7561,"Ġpriorities":7562,"Ġpermanent":7563,"Ġphysical":7564,"Ġenvis":7565,"Ġdivi":7566,"Ġlower":7567,"ours":7568,"ĠFinland":7569,"Ġexigir":7570,"ultores":7571,"ĠmÃŃnima":7572,"ĠYugosla":7573,"ĠaÃ©rea":7574,"based":7575,"Ġzones":7576,"Ġadditives":7577,"Ġarancelarios":7578,"Ġasesor":7579,"Ġaddressed":7580,"Ġconversion":7581,"Ġsujetas":7582,"Ġpasajeros":7583,"inding":7584,"Ġvaccin":7585,"ĠmenciÃ³n":7586,"culture":7587,"position":7588,"Ġprioridades":7589,"Ãģ":7590,"ĠPartners":7591,"Ġlig":7592,"Ġbil":7593,"Ġduly":7594,"Ġfamily":7595,"Ġdispositivos":7596,"Ġfijan":7597,"Ġtraslado":7598,"tratÃ©g":7599,"ĠActa":7600,"ĠconcentraciÃ³n":7601,"ĠRegions":7602,"Ġasuntos":7603,"Ġestudio":7604,"Ġjustified":7605,"Ġsamples":7606,"Ġoffered":7607,"inery":7608,"ĠRusia":7609,"Ġreferentes":7610,"urable":7611,"Ġconstituyen":7612,"Ġpractical":7613,"ĠCOD":7614,"Ġcuantita":7615,"tees":7616,"trar":7617,"ĠForm":7618,"Ġproceed":7619,"Ġelectricidad":7620,"Ġattention":7621,"Ġdomicili":7622,"mor":7623,"ditional":7624,"Ġeuropa":7625,"ĠarmonizaciÃ³n":7626,"ĠPeople":7627,"bac":7628,"ĠharÃ¡":7629,"ĠAnnual":7630,"Ġconsignment":7631,"ĠexpiraciÃ³n":7632,"Ġlistas":7633,"Ġefficiency":7634,"Ġcompetitividad":7635,"Ġreservas":7636,"has":7637,"Ġnit":7638,"Ġpresence":7639,"Ġrefus":7640,"Ġcontractual":7641,"Ġaquellos":7642,"ĠIndones":7643,"ircraft":7644,"Ġseleccion":7645,"Ġprocedente":7646,"PC":7647,"mped":7648,"Ġexiste":7649,"ITH":7650,"Ġimprovement":7651,"Ġpreliminary":7652,"Ġbovina":7653,"titud":7654,"Î¹ÏĤ":7655,"ĠNoruega":7656,"urement":7657,"Ġmovi":7658,"Ġ128":7659,"Ġeffectively":7660,"Ġespacio":7661,"Ġtr":7662,"Ġbir":7663,"uso":7664,"brica":7665,"ecution":7666,"ĠprohibiciÃ³n":7667,"Ġenmiendas":7668,"rable":7669,"Sub":7670,"allen":7671,"Ġsolo":7672,"ĠBar":7673,"Ġauthorise":7674,"Ġdesignate":7675,"Ġcreation":7676,"Ġrecover":7677,"Ġwy":7678,"oles":7679,"Ġplu":7680,"Ġbegin":7681,"Ġequili":7682,"Ġcomparable":7683,"Ġcatch":7684,"Ġfron":7685,"edir":7686,"ĠParticular":7687,"Ġefectivo":7688,"Ġcontabilidad":7689,"Ġcaused":7690,"ĠdescripciÃ³n":7691,"ĠÎ½Î±":7692,"uan":7693,"Ġsul":7694,"Ġhow":7695,"Ġrespeto":7696,"NO":7697,"Ġyoung":7698,"Ġinclusion":7699,"ĠIVA":7700,"Ġproporcional":7701,"TING":7702,"oso":7703,"Ġwish":7704,"ĠSee":7705,"ĠAsunto":7706,"ĠPRC":7707,"ĠEstas":7708,"venes":7709,"puestas":7710,"Ġdossi":7711,"Ġcentro":7712,"EA":7713,"Ġahor":7714,"ĠScientific":7715,"tizaciÃ³n":7716,"Ġharmonised":7717,"cales":7718,"Ġmarcado":7719,"Ġabar":7720,"Ġintroduce":7721,"Ġcourt":7722,"omas":7723,"Ġcontenidos":7724,"Ġharves":7725,"Ġinnovation":7726,"Ġverify":7727,"ali":7728,"ĠAir":7729,"ĠestratÃ©g":7730,"Ã©sticos":7731,"Ġtreated":7732,"Ġnaveg":7733,"TICLE":7734,"Ġswine":7735,"ĠAustral":7736,"fix":7737,"adamente":7738,"Ġincludes":7739,"Ġferrovi":7740,"Ġdamage":7741,"ĠfÃ¶r":7742,"ĠlÃ¡c":7743,"tegra":7744,"ĠTari":7745,"2013":7746,"Ġdeclarations":7747,"ĠadoptÃ³":7748,"Ġdigi":7749,"kra":7750,"ĠConvenciÃ³n":7751,"ĠmÃ³":7752,"ĠOri":7753,"Ġprincipalmente":7754,"ĠvÃ©ase":7755,"Ġsett":7756,"Ġqualifica":7757,"Ġsubstanti":7758,"ĠAT":7759,"chen":7760,"Ġlocated":7761,"Ġvoor":7762,"ĠTai":7763,"eth":7764,"Ġviaje":7765,"mna":7766,"Ġ2009":7767,"ĠjÃ³":7768,"Ġfollowed":7769,"Ġextend":7770,"liances":7771,"Ġtransparency":7772,"ModificaciÃ³n":7773,"Ġactuales":7774,"Ġsummary":7775,"Ġpassenger":7776,"Ġdifficulties":7777,"ĠExecutive":7778,"ĠAmerica":7779,"POR":7780,"mula":7781,"Ġmor":7782,"ĠSystem":7783,"Ġcombinada":7784,"Ġ1260":7785,"tivity":7786,"Ġcometi":7787,"Ġexpedidos":7788,"Ġpresupuestario":7789,"KK":7790,"Ġloss":7791,"ĠTA":7792,"Ġrule":7793,"ĠGui":7794,"gun":7795,"Ġvayan":7796,"Ġtextos":7797,"ĠRumanÃŃa":7798,"Ġmission":7799,"tudy":7800,"Ġmuch":7801,"Ġcomponent":7802,"Ġenumeradas":7803,"ĠlÃ¡cte":7804,"Ġbon":7805,"Ġlengua":7806,"Ġdisclos":7807,"drÃ¡n":7808,"ean":7809,"sal":7810,"Ġlit":7811,"ĠLan":7812,"ĠEstatuto":7813,"Ġmez":7814,"Ġefectuada":7815,"withstanding":7816,"bell":7817,"Ġvino":7818,"Ġestatuto":7819,"Ġfactores":7820,"Ġfarmers":7821,"pital":7822,"hentic":7823,"ĠjÃ³venes":7824,"Ġmight":7825,"dena":7826,"Ġrequis":7827,"ĠVal":7828,"Ġconsultations":7829,"Ġemergency":7830,"Ġcurrency":7831,"ĠStrategy":7832,"ĠconsiderarÃ¡n":7833,"Ġfixing":7834,"Ġpollution":7835,"ĠQue":7836,"related":7837,"Ġactivo":7838,"Ġreasonable":7839,"ĠLuxembourg":7840,"rÃŃan":7841,"ĠRegiones":7842,"ientras":7843,"Ġetiqueta":7844,"ĠliquidaciÃ³n":7845,"isations":7846,"Ġconge":7847,"Ġgrandes":7848,"ĠÄį":7849,"ĠfÃ¡":7850,"ĠcomposiciÃ³n":7851,"Ġfili":7852,"Ġmujer":7853,"Ġlaboratory":7854,"Ġexposure":7855,"ih":7856,"Ġhid":7857,"sement":7858,"Ġpersonales":7859,"ĠSecretarÃŃa":7860,"....":7861,"ĠCorea":7862,"Ġga":7863,"ĠincluirÃ¡n":7864,"Ġpermite":7865,"Ġalguno":7866,"Ġfamili":7867,"ky":7868,"ĠRES":7869,"urgo":7870,"ĠcompensaciÃ³n":7871,"Ã©lgica":7872,"Ġemissions":7873,"ĠAuditors":7874,"QU":7875,"ĠStaff":7876,"ĠAcciÃ³n":7877,"ĠAccording":7878,"ĠÎ±Î½":7879,"Ġenfoque":7880,"ĠProcede":7881,"Ġ1975":7882,"Ġigualmente":7883,"sen":7884,"uesta":7885,"Ġcontable":7886,"Ġid":7887,"Ġluz":7888,"ĠdocumentaciÃ³n":7889,"AV":7890,"Funda":7891,"Ġgras":7892,"Intensidad":7893,"Ġfeedingstuffs":7894,"Ġinciden":7895,"ĠFinlandia":7896,"Ġrazonable":7897,"wan":7898,"Ġflow":7899,"pecific":7900,"Ġtexts":7901,"Ġharm":7902,"Ġdestinatario":7903,"ete":7904,"Ġedad":7905,"ĠAli":7906,"ĠConviene":7907,"Ġterritories":7908,"Ġconsecuencias":7909,"cale":7910,"orda":7911,"aza":7912,"ĠGDP":7913,"ĠÎºÎ±ÏĦ":7914,"Ġcelebrado":7915,"Ġaerona":7916,"Ġrecha":7917,"Ġacce":7918,"Ġindividuales":7919,"Ġstructural":7920,"if":7921,"Î·Î¼":7922,"ĠpublicarÃ¡":7923,"Ġ1985":7924,"Ġtraditional":7925,"Ġcandidatos":7926,"Ġusos":7927,"Ġcompetence":7928,"olÃ³gico":7929,"Ġespecificaciones":7930,"Ġindirec":7931,"ĠControl":7932,"Ġsample":7933,"Ġmecanismo":7934,"Ġmachinery":7935,"Ġsuficientes":7936,"Ġcolo":7937,"urante":7938,"ĠLat":7939,"Ġregarded":7940,"Ġsimple":7941,"comes":7942,"Ġapplicants":7943,"ĠSHALL":7944,"Ġsuitable":7945,"Ġyet":7946,"Ġhaga":7947,"Ġumb":7948,"Ġpropio":7949,"ĠreconsideraciÃ³n":7950,"ĠRules":7951,"Ã©ticos":7952,"Ġappliances":7953,"Ġdeterminada":7954,"Å¼e":7955,"ĠPartnership":7956,"zen":7957,"Ġ50000":7958,"Ġauthentic":7959,"ik":7960,"ude":7961,"Ġdisse":7962,"ive":7963,"ĠTen":7964,"Ġcomputer":7965,"ĠFIN":7966,"Ġmotivo":7967,"Ġtoma":7968,"Ġembala":7969,"ĠMeas":7970,"Ġaplique":7971,"Ġaircraft":7972,"Ġrepe":7973,"ĠPolicy":7974,"Ġgrants":7975,"tock":7976,"Ġliability":7977,"Ġalimentaria":7978,"Imp":7979,"ĠConstitu":7980,"Ġefficient":7981,"Ġpreparados":7982,"Ġprepared":7983,"Ġappoint":7984,"Ġfunctions":7985,"Ġexistence":7986,"Ġaimed":7987,"isteri":7988,"ĠCy":7989,"ĠFurther":7990,"Ġvivos":7991,"Ġproducido":7992,"Ġclassified":7993,"edas":7994,"ĠEuropol":7995,"Ġtasa":7996,"Ġliable":7997,"Ġexha":7998,"ciado":7999,"Ġagents":8000,"Ġtonne":8001,"Ġcolumna":8002,"EE":8003,"iv":8004,"Ġedi":8005,"ĠTariff":8006,"yÃ³":8007,"Ġexac":8008,"rarse":8009,"Ġsupplies":8010,"Ġejempla":8011,"come":8012,"ĠÏĩ":8013,"ĠProtection":8014,"ĠKong":8015,"ĠmÃŃnimas":8016,"Ġgoverned":8017,"Ġproporcionar":8018,"ĠPrincip":8019,"Ġunan":8020,"Ġsalvagu":8021,"Ġfia":8022,"ĠTras":8023,"ĠLAS":8024,"Ġreferences":8025,"ÏģÎ¯":8026,"Ġdefinitions":8027,"porteur":8028,"nte":8029,"yendo":8030,"ĠPers":8031,"Ġpabell":8032,"Ġundertake":8033,"Ġelemento":8034,"ĠcientÃŃfica":8035,"Ġconsistent":8036,"cran":8037,"Ġpositive":8038,"Ġconverg":8039,"Ġretain":8040,"Ġ125":8041,"Ġexterior":8042,"ĠFunds":8043,"Lex":8044,"utions":8045,"Ġlicencias":8046,"Ġfirmado":8047,"Ġofficer":8048,"Ġinfraestructuras":8049,"Ġpress":8050,"Ġhabida":8051,"ĠFondos":8052,"Ġ122":8053,"Ġrequir":8054,"Ġquestionna":8055,"zioni":8056,"Par":8057,"anish":8058,"Ġorganizations":8059,"Ġoficina":8060,"Ġrendimiento":8061,"Co":8062,"ITI":8063,"ĠGas":8064,"product":8065,"Ġpermitted":8066,"Ġexch":8067,"ĠNot":8068,"Ġnotes":8069,"ĠElect":8070,"Ġempren":8071,"ĠFederal":8072,"Ġcir":8073,"Ġdoce":8074,"Ġpersonnel":8075,"Ġmenor":8076,"Ġbuena":8077,"simismo":8078,"Ġacto":8079,"ĠParagraph":8080,"ERS":8081,"Ġstart":8082,"Ġindependientes":8083,"ĠBelgium":8084,"UM":8085,"tim":8086,"Ġpreparations":8087,"Ġtier":8088,"ĠPolonia":8089,"CHAPTER":8090,"ousehold":8091,"Ġmove":8092,"ĠHong":8093,"ĠEnviron":8094,"Ġmarking":8095,"Ġindications":8096,"Ġvisado":8097,"Ġoliva":8098,"Ġgiving":8099,"Ġpriorit":8100,"Ġtw":8101,"ĠsuspensiÃ³n":8102,"Ġwithdrawn":8103,"ĠPoland":8104,"ĠpabellÃ³n":8105,"Ġplay":8106,"ously":8107,"Ġconcedido":8108,"ĠTurkey":8109,"ĠTherefore":8110,"Ġpalabras":8111,"ĠChe":8112,"olso":8113,"Ġformer":8114,"ĠProducts":8115,"Ġfore":8116,"ĠprÃ³":8117,"Ġexpected":8118,"Ġopening":8119,"Ap":8120,"ots":8121,"Ġlibertad":8122,"ĠGreece":8123,"lama":8124,"Ġrefin":8125,"Ġhome":8126,"ĠSte":8127,"derÃ¡n":8128,"ĠMarket":8129,"Ġminer":8130,"Ġaudio":8131,"Ġsanitarios":8132,"eguir":8133,"yzac":8134,"tarÃ¡n":8135,"Ġquarter":8136,"ĠPrim":8137,"Ġestatal":8138,"Ġejecut":8139,"ĠÃºltimos":8140,"Ġopportunity":8141,"dex":8142,"Ġdefinir":8143,"ÏĥÎµ":8144,"Ġarmas":8145,"Ġ137":8146,"ĠversiÃ³n":8147,"cide":8148,"Ġconvoc":8149,"ĠDG":8150,"Ġ400":8151,"ĠmÃŃnimos":8152,"Ġfur":8153,"ches":8154,"deres":8155,"Ġcontratante":8156,"Ġdiferencias":8157,"Ġbruto":8158,"Ġfomento":8159,"Ġbur":8160,"let":8161,"Ã¡log":8162,"Ġcontribut":8163,"Ġtransferred":8164,"ĠTurquÃŃa":8165,"Ġparcialmente":8166,"Ġproveedor":8167,"Ġincumplimiento":8168,"Ġconcer":8169,"Ġrestr":8170,"idance":8171,"ĠÂ¿":8172,"yable":8173,"Ġentity":8174,"ĠdimensiÃ³n":8175,"Ġspe":8176,"Ġpartial":8177,"Ġcompetitiveness":8178,"Fundamento":8179,"Ġ251":8180,"Ġefectivamente":8181,"Ġaquaculture":8182,"entos":8183,"Ġseries":8184,"Ġfields":8185,"Ġweb":8186,"Ġcolor":8187,"ua":8188,"Ġinformar":8189,"ERV":8190,"Ġmunicip":8191,"jan":8192,"Ġ@":8193,"Ġling":8194,"bilizaciÃ³n":8195,"Ġinvestigations":8196,"omatic":8197,"ĠdiscriminaciÃ³n":8198,"lines":8199,"ĠUkra":8200,"Ġpresenten":8201,"Ġterritorios":8202,"Ġbalan":8203,"Ġ1976":8204,"Ġcorreo":8205,"landesa":8206,"ribui":8207,"Ġtenido":8208,"Ġpassengers":8209,"bes":8210,"Ġthreat":8211,"Ġdescrib":8212,"Ġbox":8213,"Ġderogations":8214,"ĠpÃ©rdidas":8215,"ĠAmÃ©rica":8216,"anged":8217,"Ġtrading":8218,"Ġoperador":8219,"Ġagricultura":8220,"Ġsuperficies":8221,"Ġinciso":8222,"izon":8223,"bile":8224,"ĠinstituciÃ³n":8225,"Ġnegative":8226,"Ġtemper":8227,"osis":8228,"Ġprzy":8229,"ÏĦÎ±":8230,"Ġcualquiera":8231,"Ġpermiso":8232,"seÃ±":8233,"ÏĥÎ¼":8234,"ĠauditorÃŃa":8235,"Ġinforma":8236,"Ġrun":8237,"ÏĦÎ¹Îº":8238,"ĠrecuperaciÃ³n":8239,"Ġcle":8240,"Ġartico":8241,"Ġ114":8242,"Ġmoneda":8243,"Ġestimated":8244,"Ġitem":8245,"Ġreflect":8246,"inese":8247,"Ġtoler":8248,"Ġ308":8249,"Ġindicadores":8250,"Ġsometidos":8251,"ĠComo":8252,"ĠBos":8253,"Ġexcepcionales":8254,"Ġidentidad":8255,"Ġfavorable":8256,"Ġsteel":8257,"Ġregistrados":8258,"Ġarticles":8259,"Ġestric":8260,"Ġ160":8261,"lled":8262,"OPER":8263,"ĠmÃ©d":8264,"Ġwhe":8265,"ĠsustituciÃ³n":8266,"Ġadelan":8267,"Ġformato":8268,"Ġcoherencia":8269,"Ġregistros":8270,"Ġtransmitted":8271,"Ġacogida":8272,"zego":8273,"Ġsolicitado":8274,"ĠChinese":8275,"Ġconducted":8276,"Ġadvice":8277,"Ġwithdrawal":8278,"Ġspa":8279,"Ġacuicultura":8280,"Ġstanding":8281,"Ġcereals":8282,"Ġ2658":8283,"ĠGrecia":8284,"zn":8285,"arma":8286,"ĠautÃ©n":8287,"Ġobras":8288,"Ġquantitative":8289,"601":8290,"ĠtÃŃtulos":8291,"Ġdeli":8292,"Ġestan":8293,"izaciones":8294,"Ġ2377":8295,"Ġ30000":8296,"ĠRegula":8297,"Ġcompatibility":8298,"Ġreached":8299,"Ġreli":8300,"Ġcentres":8301,"ĠInformarÃ¡n":8302,"Ġprovin":8303,"ĠPTU":8304,"visions":8305,"ĠThai":8306,"UT":8307,"Ġstudy":8308,"Ã¡ticas":8309,"Ġune":8310,"Ġgri":8311,"Ġ607":8312,"Ġfocus":8313,"Ġassociations":8314,"Ġ1000":8315,"Ġmaritime":8316,"estre":8317,"ectors":8318,"Ġidentify":8319,"Ġvacuno":8320,"Ġfit":8321,"Ġsocio":8322,"Ġcualificada":8323,"ĠLeg":8324,"Ġprece":8325,"ĠÎŃ":8326,"Ġ135":8327,"Ġespera":8328,"Ġreve":8329,"ateg":8330,"ĠDECISION":8331,"Ġ5000":8332,"ĠOrganizaciÃ³n":8333,"Ġdangerous":8334,"ĠAfric":8335,"Ġstated":8336,"ĠprogramaciÃ³n":8337,"Ġgraves":8338,"Ġsubstantial":8339,"Ġarancel":8340,"ĠelectrÃ³nica":8341,"iten":8342,"Ġware":8343,"Ġpreser":8344,"Ġmarcas":8345,"Ġcorri":8346,"Ġtonelada":8347,"Ġ127":8348,"ĠintenciÃ³n":8349,"Ġelevado":8350,"ĠSpecial":8351,"cerning":8352,"ARD":8353,"Ġcommunications":8354,"Ġassigned":8355,"Ġbreed":8356,"ĠenseÃ±":8357,"Ġforese":8358,"Ġvio":8359,"alls":8360,"ĠSea":8361,"Ġrevised":8362,"Ġconsejo":8363,"Ġdelle":8364,"Ġhours":8365,"ĠNr":8366,"ĠBÃ©lgica":8367,"ĠSecretary":8368,"ĠBrussels":8369,"ĠtecnologÃŃas":8370,"Ġunanim":8371,"ĠmisiÃ³n":8372,"ĠBY":8373,"Ġprotective":8374,"Ġutilizadas":8375,"Ġenvases":8376,"Ġprevio":8377,"Ġmanufacturing":8378,"ater":8379,"ĠDu":8380,"Ġ250":8381,"Annual":8382,"Ġdefensa":8383,"vina":8384,"Ġ210":8385,"Ġdefinidos":8386,"Ġfigure":8387,"Ġ1977":8388,"Ġreserve":8389,"trukturyzac":8390,"ĠSP":8391,"ĠContra":8392,"Ġ2454":8393,"ĠaÃ©reas":8394,"Ġconcedidas":8395,"Ġremoval":8396,"ĠreproducciÃ³n":8397,"zan":8398,"quidos":8399,"Ġmarketed":8400,"Ġindicators":8401,"ĠWITH":8402,"ĠLuxemburgo":8403,"ĠprÃ³xim":8404,"inf":8405,"ĠCP":8406,"Ġlote":8407,"Ġcommitted":8408,"ÏĥÎµÎ¹ÏĤ":8409,"talizas":8410,"yond":8411,"Ġmov":8412,"Ġapoyar":8413,"ciente":8414,"undi":8415,"ducing":8416,"Ġmedioambiental":8417,"gui":8418,"Ġenca":8419,"ĠEstos":8420,"ira":8421,"Ġdefiniciones":8422,"Ġfrutas":8423,"Ġintroducir":8424,"CAPÃįTULO":8425,"Ġrange":8426,"Ġ123":8427,"ĠEurojust":8428,"Ġobtenido":8429,"bel":8430,"Ġvul":8431,"Ġ143":8432,"Ġhechos":8433,"ficially":8434,"Î¿ÏĤ":8435,"Ġrefuse":8436,"ĠaÃ±adido":8437,"ĠhÃ¡bil":8438,"BL":8439,"DEC":8440,"Ġpresentes":8441,"Ġaccompanying":8442,"Ġproveedores":8443,"Ġdischarge":8444,"Ġmientras":8445,"unica":8446,"Ġbes":8447,"Ġapropi":8448,"Ġpresentados":8449,"Ġarticulo":8450,"ĠSTAT":8451,"ena":8452,"rehen":8453,"deros":8454,"though":8455,"capa":8456,"Ġmedioambientales":8457,"Ġenvisaged":8458,"Fa":8459,"going":8460,"Ġhea":8461,"Ġdesignado":8462,"Ġcultivo":8463,"Applic":8464,"ĠdaÃ±os":8465,"ÏĦÏģÎ¿":8466,"Ġ1970":8467,"Ġpreviamente":8468,"Ġurgencia":8469,"mbers":8470,"bidas":8471,"ĠPrimera":8472,"ium":8473,"Ġapren":8474,"ĠSecretariat":8475,"Ġstipula":8476,"Ġengine":8477,"Ġexample":8478,"Ġcause":8479,"Ġgasto":8480,"ÅĤa":8481,"Ġconfirma":8482,"Ġrestring":8483,"Ġnum":8484,"Ġ040":8485,"Ġneto":8486,"Ġsituaciones":8487,"Ġcontrolar":8488,"Ġdifferences":8489,"ĠCC":8490,"Ġsheet":8491,"Ġnel":8492,"Ġespecific":8493,"Ġmaintained":8494,"ĠNorm":8495,"Ġallowances":8496,"Ġalta":8497,"Ġlear":8498,"vable":8499,"Ġcarriers":8500,"Ġagricultores":8501,"ÏĨÎ±":8502,"Ġrecommendation":8503,"Ġliberal":8504,"Ġorientaciones":8505,"Ġconsiderandos":8506,"Ġdirective":8507,"Ġposteriormente":8508,"Ġsafeguard":8509,"Ġdomicilio":8510,"BS":8511,"Des":8512,"ĠSO":8513,"Ġfueron":8514,"Ġdeadline":8515,"weg":8516,"Ġmany":8517,"Ġprocesses":8518,"Ġpeligro":8519,"ĠgeogrÃ¡fica":8520,"entation":8521,"Ġadmisi":8522,"Ġcooperate":8523,"Ġbeneficiaries":8524,"olÃ³gicas":8525,"Ġprobable":8526,"Ġimportados":8527,"Ġadministrativo":8528,"Ġ384":8529,"Ġadministraciones":8530,"critos":8531,"Ġog":8532,"Ġbeyond":8533,"Ġvisa":8534,"Ġexige":8535,"ĠCHAPTER":8536,"Ãµ":8537,"Ġuser":8538,"Ġkon":8539,"Ġhortalizas":8540,"ĠlÃ¡cteos":8541,"Ġfat":8542,"Ġfijadas":8543,"Ġthen":8544,"Ġeen":8545,"Ġdan":8546,"ollowing":8547,"Ġerr":8548,"Ġcollective":8549,"Ġensayos":8550,"ĠCOMMUN":8551,"Ġpublicidad":8552,"Ġole":8553,"Ġconsent":8554,"Ġrelate":8555,"active":8556,"Ġarancelario":8557,"ĠmarÃŃtimo":8558,"Ġrecipient":8559,"nie":8560,"Ã¦":8561,"Ġaire":8562,"didos":8563,"ĠHar":8564,"ĠBruselas":8565,"Ġtim":8566,"Ġ178":8567,"ĠverificaciÃ³n":8568,"Decision":8569,"Ġjudgment":8570,"ĠBosnia":8571,"ĠTel":8572,"fiquen":8573,"ĠprocederÃ¡":8574,"prus":8575,"Ġ129":8576,"1997":8577,"Ġofrecer":8578,"ĠCroati":8579,"crania":8580,"SID":8581,"oro":8582,"Ġinsp":8583,"Ġdesignation":8584,"Ġsource":8585,"din":8586,"Åĳ":8587,"Ġgain":8588,"ĠpresentarÃ¡n":8589,"ĠdifusiÃ³n":8590,"Ġsuffer":8591,"Ġupdated":8592,"rÃ©d":8593,"ĠcohesiÃ³n":8594,"Ġcomplied":8595,"Ġfinance":8596,"Ġpayable":8597,"Ġ140":8598,"Ġlimitar":8599,"Ġfraud":8600,"Ġmechanisms":8601,"ĠindemnizaciÃ³n":8602,"Ġhost":8603,"ĠLand":8604,"Ġcompuls":8605,"ĠAnim":8606,"Ġsupplementary":8607,"ĠEUROPEAN":8608,"bacco":8609,"Sta":8610,"ĠMembers":8611,"ĠXI":8612,"ĠTambiÃ©n":8613,"ĠadjudicaciÃ³n":8614,"Ġchildren":8615,"Ġapropiado":8616,"FR":8617,"etic":8618,"ping":8619,"Ġprohibir":8620,"Ġfrescas":8621,"Ġsujeta":8622,"Ġreforma":8623,"Ġalternative":8624,"Ġmujeres":8625,"Ch":8626,"ficiencia":8627,"Ġstake":8628,"Ġconsulted":8629,"Ġdirectivas":8630,"Ġweek":8631,"ĠHungary":8632,"Ġpigs":8633,"Ġempresari":8634,"Î·ÏĥÎ·":8635,"ĠImporte":8636,"500":8637,"Ġvot":8638,"uth":8639,"Ġ138":8640,"crita":8641,"Ġhubiere":8642,"Ma":8643,"Ġos":8644,"reos":8645,"Ġbases":8646,"Ġconformes":8647,"bsite":8648,"EAS":8649,"Ġenga":8650,"ĠPh":8651,"Ġcuotas":8652,"Ġ157":8653,"Ġabog":8654,"Ġrequiere":8655,"ĠSecretario":8656,"Ġapropiadas":8657,"ĠFisheries":8658,"Îĳ":8659,"Ġrecla":8660,"Ġwomen":8661,"mail":8662,"Ġexplos":8663,"ĠCooperaciÃ³n":8664,"ĠCas":8665,"ĠanÃ¡log":8666,"Ġbeef":8667,"ĠBer":8668,"ills":8669,"Ġfees":8670,"ĠMix":8671,"ĠTAR":8672,"Ġmodificados":8673,"doras":8674,"ĠGreen":8675,"Ġepi":8676,"Ġcapturas":8677,"Ġfrances":8678,"ĠenseÃ±anza":8679,"resiÃ³n":8680,"ather":8681,"Ġ119":8682,"dicaciÃ³n":8683,"atories":8684,"Ġadjusted":8685,"Ġarch":8686,"ĠGR":8687,"Ġpoblaciones":8688,"Ġterreno":8689,"OG":8690,"Ġhabi":8691,"ĠdeterminarÃ¡n":8692,"Ġdisponga":8693,"Ġregulado":8694,"Ġdenominaciones":8695,"Ġfabrica":8696,"Ġrecitals":8697,"Ġaudiovis":8698,"ficiently":8699,"Ġvote":8700,"ĠPROV":8701,"Ġtechnological":8702,"Ġcontrario":8703,"rity":8704,"year":8705,"mps":8706,"Ġinstallations":8707,"AY":8708,"Ġ121":8709,"Ġenlar":8710,"dified":8711,"dedor":8712,"baco":8713,"Ġexisten":8714,"Ġhorizon":8715,"Ġdiversas":8716,"Ġfitosanitarios":8717,"ĠIFB":8718,"ĠnavegaciÃ³n":8719,"rian":8720,"Ġpoderes":8721,"Ġremuneration":8722,"Ġhect":8723,"ĠLith":8724,"ĠSince":8725,"ĠKommission":8726,"Ġasistida":8727,"Ġ169":8728,"Ġtextiles":8729,"Ġdiversos":8730,"Ġextract":8731,"stries":8732,"Ġcontrolled":8733,"Ġindicadas":8734,"pected":8735,"Ġselected":8736,"ĠEnergÃŃa":8737,"zada":8738,"Ġlaun":8739,"Ġobject":8740,"Ġdumped":8741,"Ġacquisi":8742,"Ġarticolo":8743,"tible":8744,"Ġprote":8745,"Ġdefinen":8746,"Ġdisting":8747,"ĠpondrÃ¡n":8748,"Ġaround":8749,"Ġappar":8750,"ĠpodrÃŃan":8751,"Ġpasivo":8752,"Ġerror":8753,"Ġdeuda":8754,"ĠArea":8755,"Ġsocios":8756,"ĠSala":8757,"ĠtecnologÃŃa":8758,"Ġsolamente":8759,"Ġeas":8760,"ĠcomitÃ©":8761,"Ġmej":8762,"Ġnoted":8763,"ĠRecomenda":8764,"ĠCAPÃįTULO":8765,"Ġreac":8766,"ectual":8767,"Ġsubhe":8768,"Ġauthorisations":8769,"ĠSIS":8770,"MENTS":8771,"Ġfourth":8772,"Ġconferred":8773,"orno":8774,"Ġwhom":8775,"Ġconsultar":8776,"Ġselection":8777,"zegovina":8778,"ĠAfrican":8779,"Ġcomprehen":8780,"ĠNotas":8781,"Ġutilizando":8782,"Ġresidues":8783,"Ġsatisfa":8784,"Ġstored":8785,"Ġinfracciones":8786,"fas":8787,"Ġimportador":8788,"Ġexistente":8789,"Ġ1982":8790,"POL":8791,"Ġerra":8792,"eo":8793,"ped":8794,"esa":8795,"ications":8796,"Ġexpon":8797,"Ġorganic":8798,"ĠmÃ¡quinas":8799,"Ġerad":8800,"Ġestructuras":8801,"Ġcustomers":8802,"ĠCOMMISSION":8803,"Ġdefinidas":8804,"Ġreex":8805,"rant":8806,"ĠUcrania":8807,"Ġmetho":8808,"Ġrecord":8809,"ĠLey":8810,"iterran":8811,"Ġadverse":8812,"Ġmakes":8813,"ĠConsi":8814,"ĠadmisiÃ³n":8815,"Ġjudiciales":8816,"Ġcontribuciones":8817,"Ġcentre":8818,"Ġvaccination":8819,"Trans":8820,"Ġconcederse":8821,"Ġausencia":8822,"ĠCondi":8823,"Ġexcluded":8824,"Ġrapporteur":8825,"Ġbuilding":8826,"Ġmarine":8827,"apÃŃtulo":8828,"Ġrapid":8829,"ĠEvalu":8830,"Ġtechni":8831,"Ġderived":8832,"OV":8833,"Ġretras":8834,"Ġelectromagn":8835,"Ġtaxable":8836,"Ġpesquero":8837,"ĠCyprus":8838,"DA":8839,"ICI":8840,"ĠMer":8841,"adoras":8842,"Ġfiscales":8843,"ĠHungrÃŃa":8844,"pal":8845,"Ġrev":8846,"Ġdispos":8847,"sobre":8848,"ĠCheca":8849,"Ġfinalidad":8850,"dante":8851,"Ġregime":8852,"gement":8853,"aca":8854,"ĠpolicÃŃa":8855,"zaje":8856,"ĠdecidirÃ¡":8857,"Ġtransaction":8858,"Ġvaya":8859,"base":8860,"Ġpide":8861,"itud":8862,"tructural":8863,"Ġcontains":8864,"Ġconvenios":8865,"Ġdifference":8866,"Ġairport":8867,"ĠSwiss":8868,"Ġmultilateral":8869,"Ġregulated":8870,"Ġidentity":8871,"Ġoperativo":8872,"Ġcorrecta":8873,"Ġbelie":8874,"ariedad":8875,"Ġsupervisory":8876,"Ġbeneficiarse":8877,"ĠcomparaciÃ³n":8878,"Ġperfeccion":8879,"Ġdesta":8880,"Ã©ric":8881,"Ġdistan":8882,"Ġ111":8883,"Ġ134":8884,"Î¿Î¹":8885,"ALES":8886,"Ġrestricted":8887,"rÃ¡ficas":8888,"ĠAdministrative":8889,"Ġestrecha":8890,"Ġformulario":8891,"ĠpÃ¡g":8892,"Ġfund":8893,"Ġvalida":8894,"ĠdesignaciÃ³n":8895,"Ġmilitary":8896,"Ġmechanism":8897,"ĠUkraine":8898,"CC":8899,"Ġfee":8900,"Ġoccas":8901,"Ġcierre":8902,"rid":8903,"Ġadvis":8904,"Ġcovers":8905,"ĠAlban":8906,"ĠcomprobaciÃ³n":8907,"Ġdespacho":8908,"Ġemployees":8909,"Ġbirds":8910,"dencias":8911,"ĠZea":8912,"ĠServi":8913,"Ġblanco":8914,"Pre":8915,"Ġappeal":8916,"Ġ132":8917,"Ġ144":8918,"Ġexperien":8919,"ĠcrÃŃa":8920,"ĠRussian":8921,"Ã¡m":8922,"ĠSur":8923,"ĠmaÃŃz":8924,"Ġreglas":8925,"pecto":8926,"ĠHasta":8927,"ĠDecisions":8928,"Ġmilitar":8929,"Ġvariedad":8930,"Ġaffecting":8931,"dro":8932,"Ġrise":8933,"ualmente":8934,"ĠecolÃ³gica":8935,"ĠgenÃ©tica":8936,"Ġdrawing":8937,"cles":8938,"ires":8939,"sed":8940,"Ġpan":8941,"ĠNing":8942,"Ġprestar":8943,"Ġrecent":8944,"Ġcostas":8945,"Ġeffort":8946,"ĠApplica":8947,"Ġbeginning":8948,"Ġforeign":8949,"Ġofficially":8950,"Ġcitada":8951,"Ġfacts":8952,"ĠvacunaciÃ³n":8953,"vÃŃa":8954,"Ġdeterior":8955,"Ġdomin":8956,"Ġforwarded":8957,"Ġinterim":8958,"Ġempower":8959,"ĠpresentÃ³":8960,"ĠpublicarÃ¡n":8961,"ĠÃī":8962,"Ġgradu":8963,"ĠreglamentaciÃ³n":8964,"Ġregularly":8965,"vere":8966,"Ġhalf":8967,"Ġexteriores":8968,"Ġsolicitantes":8969,"Ġabsten":8970,"iterrÃ¡n":8971,"lij":8972,"Ġtabaco":8973,"Ġaccept":8974,"ĠefectÃºe":8975,"iterranean":8976,"IENT":8977,"inta":8978,"rimon":8979,"Ġiv":8980,"iler":8981,"Ġcompetitive":8982,"Ġcomplementaria":8983,"Ġdemostra":8984,"ĠperiÃ³dicamente":8985,"Ġdibu":8986,"Ġpour":8987,"Ġevaluaciones":8988,"Ġcreate":8989,"Ġindex":8990,"Ġoficialmente":8991,"rozen":8992,"Ġadjustments":8993,"ĠÅĽ":8994,"Ġprescripciones":8995,"ECT":8996,"ĠDeber":8997,"Ġcultiv":8998,"Ġtradicionales":8999,"DE":9000,"Ã¡us":9001,"Ġcomm":9002,"Ġrestrukturyzac":9003,"Ġdated":9004,"Ġreviewed":9005,"Ġsanitario":9006,"Ġemitido":9007,"Ġexclusively":9008,"ĠJapan":9009,"Ġaprendi":9010,"Base":9011,"Ġstric":9012,"ĠREGION":9013,"ĠdecidiÃ³":9014,"ĠConsul":9015,"Ġfavourable":9016,"lich":9017,"Ġay":9018,"etnam":9019,"Ġcomposition":9020,"Ġabaste":9021,"Ġstates":9022,"operation":9023,"Ġpension":9024,"Mar":9025,"ox":9026,"ĠraÃŃz":9027,"Ġcuyos":9028,"Ġincrement":9029,"Ġstructures":9030,"Ġoperativos":9031,"zia":9032,"Ġprescribed":9033,"Ġpotato":9034,"Ġopin":9035,"htm":9036,"Ġreembolso":9037,"Ġutilicen":9038,"ey":9039,"Ġplus":9040,"cid":9041,"Ġdiscre":9042,"most":9043,"Ġbaja":9044,"ĠlÃŃneas":9045,"Ġautonom":9046,"ciadas":9047,"Ġauthorising":9048,"Ġ151":9049,"ĠactuaciÃ³n":9050,"Ġvinos":9051,"Ġsurvey":9052,"Ã¡usula":9053,"Ġwhite":9054,"Ġabierto":9055,"biliz":9056,"Ġsolicita":9057,"ĠtomarÃ¡n":9058,"DIRECTIV":9059,"Ġpure":9060,"Ġalle":9061,"Ġexplica":9062,"Ġrealizarse":9063,"Ġopinions":9064,"spot":9065,"bera":9066,"ĠVÃ©ase":9067,"Ġacumula":9068,"Ġ301":9069,"Î·ÏĤ":9070,"Ġowners":9071,"ĠAlbania":9072,"Ġcash":9073,"Ġletters":9074,"Ġaprendizaje":9075,"IZ":9076,"tability":9077,"ĠAyuda":9078,"Ġwild":9079,"Ġassurance":9080,"Ġhumanit":9081,"Ġrelevance":9082,"Ġstrategic":9083,"Ġfrontera":9084,"ĠHerzegovina":9085,"Ġdossier":9086,"esta":9087,"radas":9088,"Ġground":9089,"ĠINTER":9090,"Ġ1978":9091,"Ġdio":9092,"Ġ149":9093,"Ġ60601":9094,"iva":9095,"urr":9096,"ĠPri":9097,"dentes":9098,"after":9099,"Ġpie":9100,"atura":9101,"Ġimproved":9102,"Ġprecise":9103,"Ġsalvaguar":9104,"Ġdec":9105,"Ġprolong":9106,"Ã©e":9107,"Ġasum":9108,"Ġbasado":9109,"Directive":9110,"ker":9111,"Ġretro":9112,"Ġmagn":9113,"ĠBal":9114,"Ġdefinido":9115,"Ġoption":9116,"Ġexporter":9117,"Ġallowance":9118,"Ġtasas":9119,"Ġwithdraw":9120,"Ġmuestreo":9121,"Ġps":9122,"arity":9123,"Ġsets":9124,"When":9125,"Ġ174":9126,"ĠexclusiÃ³n":9127,"Ġane":9128,"Ġrespuestas":9129,"ĠKorea":9130,"ĠsoluciÃ³n":9131,"ĠnotificarÃ¡n":9132,"SerÃ¡":9133,"ento":9134,"Ġgan":9135,"ĠPIB":9136,"imientos":9137,"financing":9138,"Ġintegrado":9139,"ĠLimited":9140,"At":9141,"Ġpesti":9142,"Ġfav":9143,"Ġenvas":9144,"Ġfarming":9145,"ĠllevarÃ¡":9146,"Ġcomparison":9147,"Ġextran":9148,"Ġstrengthening":9149,"bour":9150,"Ġtour":9151,"Ġcumpla":9152,"Ġimporter":9153,"Ġcarriage":9154,"Ġassessed":9155,"Ġinstallation":9156,"izos":9157,"ÃŃstica":9158,"Ġsignature":9159,"Ġmodifican":9160,"airs":9161,"Ġaviar":9162,"ĠopiniÃ³n":9163,"ls":9164,"Ġcentrales":9165,"ĠobtenciÃ³n":9166,"Ġpuerto":9167,"ĠDurante":9168,"Ġ145":9169,"Ġfigurar":9170,"sificaciÃ³n":9171,"arantee":9172,"Ġjustific":9173,"ĠSG":9174,"Ġextre":9175,"entemente":9176,"Ġmaize":9177,"Ġreplace":9178,"Ġdesembar":9179,"Ġdans":9180,"Ġcoment":9181,"Ġpac":9182,"Ġ139":9183,"Ġnotificado":9184,"endant":9185,"Ġponente":9186,"ĠFROM":9187,"Ġsignificantly":9188,"ĠgarantizarÃ¡n":9189,"ĠRussia":9190,"Ġcuarto":9191,"iting":9192,"Ġmanufactured":9193,"CL":9194,"Ġtrim":9195,"ĠCNS":9196,"ĠinterpretaciÃ³n":9197,"Ġirregularidades":9198,"MIN":9199,"pra":9200,"tier":9201,"Ġindis":9202,"rio":9203,"Ġmeto":9204,"Ġchairman":9205,"Ġzu":9206,"Ġresultantes":9207,"Ġmejores":9208,"Ġarri":9209,"Ġinterval":9210,"Ġeffected":9211,"ĠSuper":9212,"Ġcuyas":9213,"ĠVeterin":9214,"Ġcables":9215,"Ġ148":9216,"ualqui":9217,"Ġindicada":9218,"Ġlugares":9219,"ĠCanje":9220,"Ġtransitorio":9221,"Ġsuccessful":9222,"UP":9223,"Ġ126":9224,"Ġcohesion":9225,"Î¹Î¿":9226,"Ġconsiderar":9227,"ĠNorte":9228,"ĠAsimismo":9229,"ĠniÃ±os":9230,"Applicant":9231,"Î¶":9232,"Ġhist":9233,"Ġplagui":9234,"Ġampliar":9235,"Ġinfraestructura":9236,"Ġincompatible":9237,"Ġcompulsory":9238,"Ġdup":9239,"Ġpreten":9240,"Ġclave":9241,"locut":9242,"Ġconcentration":9243,"Ġpeligrosas":9244,"Ġgr":9245,"Ġgenerally":9246,"TIONS":9247,"ĠhabÃŃan":9248,"Ġalleg":9249,"ĠMil":9250,"ĠLaw":9251,"Ġsolicite":9252,"Ġcomplementarias":9253,"Ġcifras":9254,"ĠsatisfacciÃ³n":9255,"Ġsede":9256,"Ġhear":9257,"Ġinterlocut":9258,"vedad":9259,"Ġpondera":9260,"Ġconcreto":9261,"itation":9262,"Ġtobacco":9263,"ĠMED":9264,"chaft":9265,"Ġfrecuencia":9266,"Ġdisminu":9267,"Ġcomprehensive":9268,"Ġed":9269,"ĠAz":9270,"Ġchallen":9271,"Ġ1981":9272,"ĠpolÃŃtico":9273,"Gasto":9274,"Ġllama":9275,"making":9276,"Ġatribu":9277,"Ġaplican":9278,"Ġsituations":9279,"ordning":9280,"Ġotorg":9281,"Dich":9282,"ĠHD":9283,"Ġlimp":9284,"Ġdistinto":9285,"hal":9286,"Ġpata":9287,"Ġaplicado":9288,"Ġagriculture":9289,"Ġlleven":9290,"fra":9291,"rum":9292,"ĠreÃºn":9293,"ĠComb":9294,"Ġ800":9295,"ĠThat":9296,"uble":9297,"oras":9298,"ĠSing":9299,"matic":9300,"ÏģÎ¸":9301,"Ġlaboratorios":9302,"Ġultra":9303,"Ġsolely":9304,"Ġvar":9305,"nover":9306,"Ġspecimen":9307,"Ã©ndose":9308,"Ġderogado":9309,"ĠAgriculture":9310,"Ġliquid":9311,"RW":9312,"SEC":9313,"Ġprze":9314,"Ġauto":9315,"Ġcausa":9316,"ĠModifica":9317,"dora":9318,"Ġbinding":9319,"Ġcoin":9320,"Ġdiv":9321,"Ġoccup":9322,"Ġquestions":9323,"Ġ1291":9324,"Ġconocer":9325,"Ġcoef":9326,"Ġaler":9327,"Ġprimary":9328,"Ġexempt":9329,"Ġpropias":9330,"Ġcontiene":9331,"ĠobstÃ¡culos":9332,"Ġrequisito":9333,"Ġabastecimiento":9334,"lace":9335,"ĠRT":9336,"Ġnote":9337,"Ġpendi":9338,"Ġsuspension":9339,"Ġbilaterales":9340,"Ġselling":9341,"Ġdigital":9342,"DECISIÃĵN":9343,"ÃŃtica":9344,"Ġbasa":9345,"Ġcompleto":9346,"Ġadapt":9347,"tailed":9348,"Ġconsequences":9349,"Ġsupplier":9350,"Ġ1979":9351,"Ġtaxation":9352,"Ġaims":9353,"Ġmandate":9354,"Ġrecipro":9355,"Ġfavour":9356,"tÃ¡menes":9357,"ticip":9358,"Ġbran":9359,"Ġ610":9360,"Ġappears":9361,"ĠAustralia":9362,"Ġquestionnaire":9363,"Ġayud":9364,"fen":9365,"Ġprofi":9366,"ecting":9367,"Ġfie":9368,"Ġfiguren":9369,"Ġdiscrimination":9370,"DirecciÃ³n":9371,"Ġrepercusiones":9372,"EMBER":9373,"Ġcabe":9374,"Ġmarcha":9375,"2009":9376,"Ġsala":9377,"Ġestablezca":9378,"ituania":9379,"ordn":9380,"Ġprohibition":9381,"Ġcopies":9382,"Ġrejected":9383,"Ġfiebre":9384,"Ġdedica":9385,"tants":9386,"ĠÎ¸":9387,"Ġcanales":9388,"Ġbreach":9389,"Ġdegree":9390,"dices":9391,"Ġpra":9392,"Ġorganised":9393,"Ġconcluye":9394,"critas":9395,"Ġcontables":9396,"financiaciÃ³n":9397,"Ġconex":9398,"Ġprzed":9399,"central":9400,"gy":9401,"ĠConferencia":9402,"Ġ180":9403,"Ġcitados":9404,"Ġdirecto":9405,"ĠtodavÃŃa":9406,"Ġrepresenting":9407,"Ġavian":9408,"Ġfuerza":9409,"mbre":9410,"Ġexecution":9411,"Ġoperate":9412,"ERR":9413,"ĠÏĦÎ¹ÏĤ":9414,"Ġrecono":9415,"Ġsustancial":9416,"Ġguaranteed":9417,"ĠAdministraciÃ³n":9418,"ality":9419,"rod":9420,"Ġ548":9421,"Ġdenuncia":9422,"Ġfigures":9423,"Ġcontinued":9424,"Ġtaxes":9425,"Ġbuenas":9426,"CB":9427,"inting":9428,"ĠResearch":9429,"CP":9430,"ĠCECA":9431,"Ġloans":9432,"Ġself":9433,"Ġtechnologies":9434,"ĠAgricultural":9435,"ĠprÃ©stamos":9436,"AdemÃ¡s":9437,"tri":9438,"Ġdescar":9439,"Ġestablishes":9440,"Ġprogramming":9441,"Ġprioridad":9442,"ĠPortugues":9443,"Ġsubsequently":9444,"Ġfailure":9445,"ace":9446,"Ġpun":9447,"Ġprotocol":9448,"ĠDR":9449,"Ġadmin":9450,"Ġlevy":9451,"Ġsecret":9452,"Ġreplacement":9453,"Ġnominal":9454,"genes":9455,"Ġphase":9456,"Ġcuestionario":9457,"Ġlearning":9458,"Ġempowered":9459,"Ġprivi":9460,"ĠExchange":9461,"ĠjurÃŃdicos":9462,"Ġmanifiesto":9463,"abilidad":9464,"uania":9465,"cidos":9466,"ĠEr":9467,"dents":9468,"Ġtherein":9469,"ĠremitirÃ¡":9470,"Ġkilogramos":9471,"ĠPide":9472,"ĠMAR":9473,"ĠpresiÃ³n":9474,"lum":9475,"Ġdates":9476,"Ġexporters":9477,"ĠcampaÃ±as":9478,"Ġacquired":9479,"ĠKomis":9480,"ĠVietnam":9481,"Dis":9482,"Ġprogresos":9483,"Ġdrug":9484,"uled":9485,"Ġformat":9486,"Ġobligatoria":9487,"Inter":9488,"ights":9489,"Ġartikel":9490,"Ġharmful":9491,"Ġbreeding":9492,"DI":9493,"tres":9494,"Ġ200000":9495,"diÃ³":9496,"Ġcompared":9497,"oundation":9498,"Ġlif":9499,"Ġaprobar":9500,"Ġviews":9501,"TRY":9502,"ĠconversiÃ³n":9503,"Ġhubiera":9504,"Ġtransitorias":9505,"Ġ}":9506,"ĠCol":9507,"ĠAff":9508,"ĠserÃŃa":9509,"concerning":9510,"Ġpeste":9511,"Ġintensi":9512,"ĠclÃ¡usula":9513,"ĠTechnical":9514,"ST":9515,"Ġcy":9516,"Ġincluya":9517,"Ġrelationship":9518,"Ġprocesos":9519,"Ġplaguicidas":9520,"GU":9521,"ee":9522,"Ġquien":9523,"ecuciÃ³n":9524,"Ġcampo":9525,"Ġ659":9526,"ĠindicarÃ¡":9527,"Ġeficiencia":9528,"Ġattain":9529,"Ġesfuerzo":9530,"ĠIndonesia":9531,"DO":9532,"Hz":9533,"ndice":9534,"Ġenabl":9535,"ĠOver":9536,"ĠInstance":9537,"ĠprÃ³r":9538,"ONE":9539,"tising":9540,"Ġdesignados":9541,"Ġearly":9542,"Ġajustarse":9543,"pens":9544,"Ġtro":9545,"Ġexcluding":9546,"ĠacompaÃ±ado":9547,"Ġperformed":9548,"Ġadelante":9549,"Ġemis":9550,"Ġ20000":9551,"ĠgÃ©n":9552,"Ġutilizada":9553,"Ġspir":9554,"Ġlimitado":9555,"Ġreinfor":9556,"Sa":9557,"Ġnotifications":9558,"ATT":9559,"Ġstatements":9560,"ĠDicha":9561,"gs":9562,"Ġsupported":9563,"Ġhabit":9564,"ĠacompaÃ±adas":9565,"ĠSegÃºn":9566,"ĠnotificarÃ¡":9567,"ĠdictÃ¡menes":9568,"ĠMun":9569,"Ġadopte":9570,"Ġbasada":9571,"Ġintervenciones":9572,"Ġirregularities":9573,"By":9574,"ecut":9575,"ĠComer":9576,"uropa":9577,"Ġagencias":9578,"Ġnormally":9579,"Ġstatut":9580,"Ġsubsidy":9581,"Ġclaridad":9582,"ĠARTICLE":9583,"1000":9584,"uling":9585,"itoring":9586,"Ġinitiation":9587,"Ġcharged":9588,"Ġemergencia":9589,"ĠERM":9590,"ĠMixto":9591,"ĠerradicaciÃ³n":9592,"ton":9593,"tribu":9594,"Ġtitle":9595,"erÃŃa":9596,"tido":9597,"Ġresumen":9598,"Ġ524":9599,"ĠOCT":9600,"Ġentes":9601,"ĠDetermin":9602,"gent":9603,"Ġrespectivas":9604,"Ġinfec":9605,"Ġtransportista":9606,"ĠTodos":9607,"Ġlawy":9608,"ANCE":9609,"UNA":9610,"ĠCOUNCIL":9611,"ĠInstru":9612,"wegian":9613,"ĠRed":9614,"dum":9615,"ĠDemoc":9616,"Ġatribui":9617,"ĠChip":9618,"ARI":9619,"Ġnegocios":9620,"ĠNorwegian":9621,"Ġseno":9622,"THE":9623,"Ġconstitutes":9624,"ĠanÃ¡logos":9625,"Ġmethodolog":9626,"TED":9627,"Ġencon":9628,"riz":9629,"Ġacorda":9630,"Ġcomien":9631,"Ġ147":9632,"Ġintention":9633,"Ġlabel":9634,"Ġproceeding":9635,"Îķ":9636,"Ġint":9637,"Ġinval":9638,"Ġpropuesto":9639,"Ã©tico":9640,"Ġ425":9641,"These":9642,"Ġciertas":9643,"ĠperiÃ³d":9644,"Ġprocurement":9645,"ihil":9646,"Ġsc":9647,"atures":9648,"Ġnoci":9649,"Ġestablezcan":9650,"Ġresulte":9651,"ĠPRES":9652,"ĠaÃ©reos":9653,"Fin":9654,"jero":9655,"osa":9656,"ĠECSC":9657,"Ġasilo":9658,"Ġeradication":9659,"POS":9660,"rees":9661,"Ġcadena":9662,"ĠGN":9663,"ANCI":9664,"Ġaux":9665,"Ġprecisa":9666,"Ġcultivos":9667,"Ġsurveys":9668,"Ġencamin":9669,"Ġinterlocutores":9670,"ĠChipre":9671,"fit":9672,"ĠDirecciÃ³n":9673,"Ġinteriores":9674,"1996":9675,"Ġexperim":9676,"ĠtomarÃ¡":9677,"Ġtransformados":9678,"ĠmarÃŃtima":9679,"Ġqualifications":9680,"Ġlack":9681,"Ġinmig":9682,"Ġfechas":9683,"Ġprevenir":9684,"Ġclaimed":9685,"ĠGuarantee":9686,"ĠSupp":9687,"Ġbelonging":9688,"orden":9689,"ÃŃc":9690,"ĠconstituciÃ³n":9691,"Ġelectro":9692,"Ġsatisfied":9693,"Ġcelebrados":9694,"Ġpreviously":9695,"Ġacquisition":9696,"TAD":9697,"Ġbrea":9698,"Ġmarg":9699,"Ġresponsibilities":9700,"Ġparticipants":9701,"Ġrefuer":9702,"Ġnumbers":9703,"Ġ1972":9704,"Ġmatric":9705,"ĠBelar":9706,"ĠProcedure":9707,"Ġeur":9708,"Ġreported":9709,"ĠSN":9710,"ĠStructural":9711,"Ġcompuesto":9712,"Ġobjetos":9713,"Ġ2081":9714,"Ġroute":9715,"Fax":9716,"Ġinstancia":9717,"ĠFollowing":9718,"Ġcorresponde":9719,"ÏģÎ¹Î¸":9720,"Action":9721,"Ġvom":9722,"Ġ424":9723,"ĠBra":9724,"Ġ605":9725,"Ġindican":9726,"Ġdocumentation":9727,"ĠsimplificaciÃ³n":9728,"SIDER":9729,"ĠdarÃ¡":9730,"vention":9731,"Ġsitio":9732,"Ġutil":9733,"Ġoriginario":9734,"ĠQueda":9735,"ĠactÃº":9736,"Ġearlier":9737,"Ġsacrificio":9738,"Ġstakeholders":9739,"ylum":9740,"Ġ153":9741,"Ġbroken":9742,"Ġformalities":9743,"Ġmutuo":9744,"Ġpronunci":9745,"Ġdistingu":9746,"orios":9747,"Ġalla":9748,"Ġprevisiones":9749,"Ã³mica":9750,"Ġspecifically":9751,"ym":9752,"rateg":9753,"Ġtama":9754,"Ġ170":9755,"Ġlaboratories":9756,"Ġtask":9757,"tutos":9758,"Ġproducidos":9759,"Ġthreshold":9760,"cciones":9761,"ola":9762,"laria":9763,"Ġcontar":9764,"ĠSecciÃ³n":9765,"Demandante":9766,"osovo":9767,"hmen":9768,"kno":9769,"Ġsyn":9770,"ridad":9771,"Ġmainly":9772,"Ġincorporarse":9773,"ĠHarmon":9774,"Ġtimes":9775,"Otros":9776,"lina":9777,"Ġaisla":9778,"Ġhecto":9779,"ĠÃ¨":9780,"Ġfranco":9781,"Ġaccu":9782,"ĠLituania":9783,"lico":9784,"2010":9785,"Ġeficaces":9786,"Ġdepartments":9787,"Ġenhance":9788,"Ġcoeficiente":9789,"ĠFurthermore":9790,"Ġlex":9791,"ĠautÃ³n":9792,"ĠBu":9793,"Ġincluyen":9794,"ĠKosovo":9795,"Ġrequesting":9796,"Ġimmediate":9797,"Ġdeparture":9798,"ĠEmployment":9799,"cro":9800,"Ġevol":9801,"lements":9802,"Ġlosses":9803,"ĠSistema":9804,"Ġcompos":9805,"Ġrespal":9806,"ĠPaper":9807,"Ġperspectivas":9808,"Ġhi":9809,"Ġ350":9810,"ĠChile":9811,"Ġcomunicar":9812,"Op":9813,"ĠharÃ¡n":9814,"ext":9815,"ĠInstancia":9816,"bern":9817,"Ġaceptar":9818,"Ġdetallada":9819,"Ġshows":9820,"Ġcombustible":9821,"ĠLithuania":9822,"Ġpil":9823,"cise":9824,"Ġfos":9825,"Ġlength":9826,"Ġarbit":9827,"Ġrest":9828,"Ġregistrado":9829,"Ġremaining":9830,"ĠHabida":9831,"Recurso":9832,"ĠÅ":9833,"Ġscale":9834,"ĠConference":9835,"Ġregionale":9836,"ĠelaborarÃ¡":9837,"Ġindependencia":9838,"Ġalmac":9839,"ĠModified":9840,"Ġburden":9841,"Ġdeten":9842,"ĠRÃ©gimen":9843,"embly":9844,"ĠMission":9845,"Ġambos":9846,"ualquier":9847,"quia":9848,"Ġanaly":9849,"Ġaroma":9850,"Ġtub":9851,"etz":9852,"riger":9853,"Ġdirectives":9854,"Ġpreparar":9855,"Ġ432":9856,"Ġsanitarias":9857,"Ġcut":9858,"Ġqui":9859,"Ġcompuestos":9860,"Ġcarcas":9861,"Ġprovider":9862,"ienda":9863,"ĠEspecial":9864,"Ġconjunction":9865,"ĠlingÃ¼":9866,"Ġvotes":9867,"Ġgross":9868,"Ġconstituir":9869,"Ġ1984":9870,"ĠaprobÃ³":9871,"Ġinvolve":9872,"ĠInformaciÃ³n":9873,"Ġhubier":9874,"Ġirregular":9875,"hÃŃ":9876,"Ġvuel":9877,"dian":9878,"Ġnormales":9879,"Ġactivas":9880,"Ġmovilidad":9881,"uge":9882,"ublica":9883,"Ġbul":9884,"bertura":9885,"Ġrespetar":9886,"ĠSlovenia":9887,"lazamiento":9888,"Ġtil":9889,"ĠvÃŃas":9890,"ĠFoundation":9891,"Ġfijada":9892,"anctions":9893,"Ġvirtu":9894,"Ġejemplar":9895,"ĠRecomendaciÃ³n":9896,"annual":9897,"Ġpropose":9898,"Ġpaying":9899,"ops":9900,"Ġmedicamento":9901,"All":9902,"Ġbel":9903,"ĠMisiÃ³n":9904,"Ġ131":9905,"Ġrati":9906,"Ġindicating":9907,"face":9908,"oglu":9909,"Ġhectolit":9910,"cast":9911,"ele":9912,"Ġretail":9913,"Ġreply":9914,"brio":9915,"Ġstrong":9916,"ĠChemical":9917,"DIRECTIVA":9918,"FIC":9919,"ÃŃos":9920,"Ġvaria":9921,"ĠPur":9922,"ĠNAF":9923,"Ġ175":9924,"Ġstra":9925,"ĠseÃ±":9926,"Ġgana":9927,"Ġdesti":9928,"Ġsuscep":9929,"Ġmanaging":9930,"Ġformular":9931,"renda":9932,"Ġversion":9933,"Ġrecurrir":9934,"Ġestructurales":9935,"Ġsuficientemente":9936,"SO":9937,"cue":9938,"ĠoposiciÃ³n":9939,"ĠMore":9940,"Ġ450":9941,"Ġimposition":9942,"ĠFer":9943,"Ġ158":9944,"Ġciertos":9945,"ĠRadio":9946,"stein":9947,"Index":9948,"Ġintel":9949,"Ġreimbur":9950,"Ġhousehold":9951,"Ġgarantice":9952,"Ġdei":9953,"old":9954,"Ġinterpuesto":9955,"Ġmobility":9956,"Ġmanip":9957,"Ġobligatorio":9958,"Ġincremento":9959,"Ġvencida":9960,"ĠEslovenia":9961,"Ġvotos":9962,"rategia":9963,"Ġfases":9964,"rante":9965,"izarse":9966,"Ġdaily":9967,"Ġadopting":9968,"tionality":9969,"ĠÃĹ":9970,"ĠproporciÃ³n":9971,"ĠAdditional":9972,"ories":9973,"ĠCAS":9974,"alled":9975,"Ġaras":9976,"Ġisoglu":9977,"Ġdesg":9978,"quiera":9979,"landÃ©s":9980,"Ġallowing":9981,"ĠÎ±ÏģÎ¹Î¸":9982,"ĠInternal":9983,"Ġfranqui":9984,"Ġintracomunitarios":9985,"100":9986,"Ġwide":9987,"Ġhal":9988,"lio":9989,"ĠPen":9990,"ĠFrom":9991,"ĠsupresiÃ³n":9992,"ENER":9993,"Ġorganisms":9994,"Ġseparado":9995,"Ġsubsidies":9996,"discrimin":9997,"tise":9998,"tesis":9999,"Ġaviation":10000,"Ġadquirida":10001,"isters":10002,"Ġconsulting":10003,"Ġevents":10004,"Ġachieving":10005,"Ġsosp":10006,"Ġpesquera":10007,"Ġhigi":10008,"Ġahora":10009,"Ġdistancia":10010,"enÃŃ":10011,"Ġaband":10012,"Ġkm":10013,"Ġ239":10014,"Ġaudi":10015,"ETSI":10016,"ĠÎ¼ÎŃ":10017,"Ġturnover":10018,"Ġsignificativa":10019,"ĠResolution":10020,"ĠObservatorio":10021,"ĠrÃ¡pida":10022,"QUE":10023,"Ġbebidas":10024,"ĠData":10025,"ĠvÃŃn":10026,"Ġporque":10027,"Ġparagra":10028,"ÎŃÎ½":10029,"Ġreglamentos":10030,"Ġpackage":10031,"Ġvinculados":10032,"Ġconjunta":10033,"Ġpeligrosos":10034,"ordnung":10035,"Ġwines":10036,"uses":10037,"tures":10038,"Ġajusten":10039,"Ġsuspended":10040,"Ġeliminar":10041,"ĠIslands":10042,"ĠPROD":10043,"ĠAppro":10044,"ĠÎķÏĢÎ¹":10045,"ĠGastos":10046,"enz":10047,"Ġcic":10048,"Ġpagar":10049,"Ġincluirse":10050,"Ġleu":10051,"Ġrefriger":10052,"Ġlocation":10053,"Ġbeneficiaria":10054,"Ġwebsite":10055,"Ġindicar":10056,"Ġafectar":10057,"Ġdemonstra":10058,"Medi":10059,"VI":10060,"Ġaprov":10061,"Ġremoved":10062,"ĠEquipos":10063,"ÏĥÏĩÏį":10064,"Ġfurn":10065,"eten":10066,"ĠNue":10067,"pective":10068,"Ġ228":10069,"queo":10070,"ĠalmacÃ©n":10071,"ĠdetecciÃ³n":10072,"Ġfrozen":10073,"ĠCI":10074,"Ġthereby":10075,"Ġresponder":10076,"Ġcapitales":10077,"ĠIslandia":10078,"ĠSerbia":10079,"Ġforestry":10080,"ĠMinistry":10081,"wie":10082,"Ġword":10083,"ĠBi":10084,"Ġapprove":10085,"Ġ185":10086,"Ġnotificaciones":10087,"Ġexpert":10088,"ĠToda":10089,"ĠefectuarÃ¡n":10090,"Ġanualmente":10091,"ATIONS":10092,"Ġpropiet":10093,"Ġuniversal":10094,"Ġoccasion":10095,"LES":10096,"Tel":10097,"eter":10098,"put":10099,"ĠcÃ¡":10100,"ĠOne":10101,"ĠÎ²":10102,"Ġ146":10103,"Ġutilizan":10104,"ĠelectrÃ³nicos":10105,"Ġaudiovisual":10106,"CED":10107,"LB":10108,"ann":10109,"Ġasylum":10110,"Ġdispositivo":10111,"ĠrepresentaciÃ³n":10112,"Ġconfirman":10113,"Ġreno":10114,"Ġdesglos":10115,"Ġsuministra":10116,"Ġordin":10117,"Ġplanning":10118,"Ġsistem":10119,"Ġacogerse":10120,"Ġcomplaint":10121,"Ġparece":10122,"ĠAffairs":10123,"Ġagenda":10124,"adÃ¡":10125,"UST":10126,"mendments":10127,"europa":10128,"Ġfich":10129,"Ġalzado":10130,"Ġcoming":10131,"Ġlegiti":10132,"Ġnotifi":10133,"ĠrealizarÃ¡":10134,"ĠAsuntos":10135,"Ġspread":10136,"ÏĥÎµÏīÎ½":10137,"Ġsug":10138,"ariciÃ³n":10139,"Ġestabilidad":10140,"Ġcorto":10141,"berna":10142,"Ġ1973":10143,"URE":10144,"ĠDicho":10145,"Ġinterpretation":10146,"Ġambas":10147,"ĠgenÃ©ticamente":10148,"Ġindispens":10149,"ĠVeterinary":10150,"Ġaan":10151,"ĠAntes":10152,"mitted":10153,"Ġafir":10154,"Ġprimeros":10155,"Ġestipula":10156,"ĠNCB":10157,"Ġreducing":10158,"Ġawar":10159,"Ġderoga":10160,"ĠCot":10161,"Ġtotales":10162,"Ġsuma":10163,"Ġilegal":10164,"iological":10165,"Ġlives":10166,"ÏģÎ³":10167,"ĠCha":10168,"Ġtransported":10169,"Nota":10170,"Ġfrequency":10171,"Ġclean":10172,"ska":10173,"vaquia":10174,"Ġsuperiores":10175,"Ġflexible":10176,"country":10177,"âĢľ":10178,"Ġindicative":10179,"Ġneglig":10180,"Ġharmonisation":10181,"Ġrentabilidad":10182,"Ġ60947":10183,"Ġtechniques":10184,"ĠNAFO":10185,"ars":10186,"Ġsuel":10187,"tant":10188,"Ġsolicitada":10189,"ĠDecreto":10190,"ĠDirectrices":10191,"ĠsesiÃ³n":10192,"Ġsemin":10193,"ĠBras":10194,"20000":10195,"Ġ189":10196,"Ġkind":10197,"ĠpolÃŃticos":10198,"ĠregulaciÃ³n":10199,"Ġproperly":10200,"Ġfabricantes":10201,"hous":10202,"Ġou":10203,"tamiento":10204,"ĠCoun":10205,"ĠREC":10206,"ĠPT":10207,"ĠMEMBER":10208,"echten":10209,"ĠÎ»":10210,"ĠCOMUN":10211,"geno":10212,"ĠnegociaciÃ³n":10213,"Ġsanidad":10214,"Ġoils":10215,"ĠOrganisation":10216,"ĠRights":10217,"Ġgre":10218,"ume":10219,"Ġ318":10220,"munications":10221,"Ġtransfers":10222,"Ġresponsabilidades":10223,"Ġconjuntamente":10224,"ĠGarantÃŃa":10225,"FORM":10226,"ĠTARIC":10227,"maciÃ³n":10228,"anÃŃa":10229,"Ġyi":10230,"Ġimplan":10231,"ĠestableciÃ³":10232,"Ġ1983":10233,"Ġproblema":10234,"Ġhandling":10235,"ributed":10236,"Ġpuertos":10237,"Ġclase":10238,"Ġderivadas":10239,"ĠMediante":10240,"Ġ1255":10241,"egro":10242,"dering":10243,"uebles":10244,"Ġemphas":10245,"Ġ161":10246,"ÏĨÎ¿":10247,"ĠrecomendaciÃ³n":10248,"Ġdesirable":10249,"unicaciones":10250,"Ãļ":10251,"Ġinland":10252,"ett":10253,"ĠNom":10254,"ureau":10255,"Ġinitiated":10256,"Ġliabilities":10257,"Ġhaberse":10258,"Ġasesoramiento":10259,"Ġenuncia":10260,"Ġhoc":10261,"Ġacero":10262,"Ġimpuestas":10263,"Ġmetal":10264,"Ġ15000":10265,"lass":10266,"Ġrealice":10267,"Ġfever":10268,"Ġjusticia":10269,"Ġsimplified":10270,"ĠHead":10271,"Directiva":10272,"Ġaquellas":10273,"gro":10274,"istic":10275,"Ġina":10276,"Ġdoble":10277,"Ġsigui":10278,"Ġsustituyen":10279,"ĠhabrÃ¡":10280,"Ġtarifas":10281,"Ġvegetables":10282,"Ġmus":10283,"Ġterres":10284,"Ġ2092":10285,"ÏģÎ®":10286,"Ġsometido":10287,"ĠEstrategia":10288,"Ġsilves":10289,"ĠagrupaciÃ³n":10290,"ĠCivil":10291,"ĠMinisterio":10292,"mol":10293,"dea":10294,"ĠconsiderÃ³":10295,"Ġdatabase":10296,"Ġcaptura":10297,"Ġvoto":10298,"Ġleave":10299,"itzer":10300,"ĠStatis":10301,"Ġdoub":10302,"Ġfibras":10303,"Ġentregas":10304,"Ġ336":10305,"Ġbusinesses":10306,"Ġusuario":10307,"ĠFundaciÃ³n":10308,"Ġmovements":10309,"echtenstein":10310,"cies":10311,"ĠSoci":10312,"limit":10313,"ĠÎ¬":10314,"Ġincorre":10315,"Ġsufficiently":10316,"Ãįndice":10317,"Ġtransparent":10318,"Ġsometidas":10319,"Ġconnected":10320,"Ġcubiertos":10321,"Each":10322,"Ġud":10323,"Ġtook":10324,"ISK":10325,"Ġcreat":10326,"Ġvoc":10327,"rÃ©ditos":10328,"Ġmal":10329,"Ġdin":10330,"ĠRural":10331,"idae":10332,"umenta":10333,"reements":10334,"Ġmarked":10335,"Ġsupedi":10336,"Î¼Î²":10337,"Ġfarma":10338,"Ġfarmer":10339,"ĠÏĢÎµ":10340,"Ġresoluciones":10341,"Ġillegal":10342,"Ġseek":10343,"ĠestadÃŃsticos":10344,"ĠÃŃndice":10345,"UES":10346,"nych":10347,"Ġcult":10348,"orld":10349,"atus":10350,"Ġrespectivos":10351,"ĠMarco":10352,"ĠaquÃ©l":10353,"ĠacompaÃ±ada":10354,"Ġaproximadamente":10355,"Ġprofit":10356,"ĠtamaÃ±o":10357,"Ġ442":10358,"ĠDepar":10359,"Ġ141":10360,"suant":10361,"TRA":10362,"Ġlimitada":10363,"ĠCanada":10364,"Ġweighted":10365,"ĠdiagnÃ³s":10366,"ĠEnvironment":10367,"Ġoch":10368,"Ġconden":10369,"vencia":10370,"ĠDecisiones":10371,"ÏīÏĤ":10372,"ws":10373,"ficit":10374,"pira":10375,"Ġdefinitiva":10376,"Ġlaboral":10377,"Ġhacerse":10378,"Ġacervo":10379,"ĠquÃŃmicos":10380,"4000":10381,"dress":10382,"Ġfire":10383,"rael":10384,"Ġcomplies":10385,"mato":10386,"Ġproviders":10387,"Ġplas":10388,"Ġfacility":10389,"Ġoffices":10390,"Ġprecisar":10391,"ĠRecommen":10392,"ĠelecciÃ³n":10393,"ĠGATT":10394,"thern":10395,"Ġborders":10396,"Ġoportunidad":10397,"Ġnoruega":10398,"DER":10399,"diendo":10400,"tosa":10401,"Ġvelar":10402,"Ġpresentan":10403,"atibilidad":10404,"Ġamplia":10405,"Ġinnova":10406,"Ġacquis":10407,"Ġspeed":10408,"ĠTAC":10409,"ĠLu":10410,"institu":10411,"cie":10412,"Ġimpedir":10413,"Ġagent":10414,"ators":10415,"Ġoportunas":10416,"Ġinvited":10417,"af":10418,"wide":10419,"Ġfl":10420,"ĠSpecific":10421,"tute":10422,"ilding":10423,"Ġvelo":10424,"Ġrealmente":10425,"Ġ1971":10426,"ĠSud":10427,"Ġcommen":10428,"ĠinscripciÃ³n":10429,"Ġuseful":10430,"Ġpreparing":10431,"holds":10432,"Ġelaborado":10433,"Ġmachines":10434,"ually":10435,"Ġwi":10436,"ĠNet":10437,"Ġadaptation":10438,"Ġfraude":10439,"Ġinitiate":10440,"Ġasociados":10441,"Ġprepare":10442,"Ġchoice":10443,"Ġwheat":10444,"cs":10445,"Ġpedi":10446,"Ġenar":10447,"ecta":10448,"Ġseats":10449,"Ġapre":10450,"Ġpreo":10451,"pons":10452,"Ġvalu":10453,"Ġchecking":10454,"ĠdiseÃ±o":10455,"Ġperfeccionamiento":10456,"ader":10457,"Ġ{":10458,"Ġulti":10459,"aring":10460,"ĠAfter":10461,"Ġforra":10462,"ĠÎļ":10463,"Ġdeclare":10464,"Ġafecta":10465,"Ġstep":10466,"Ġpreferential":10467,"Ġdimension":10468,"Ġpomocy":10469,"Ġavances":10470,"ĠPodrÃ¡n":10471,"itzerland":10472,"adi":10473,"bol":10474,"ense":10475,"ĠSCE":10476,"Ġpaper":10477,"Ġ155":10478,"Ġkor":10479,"Ġinferiores":10480,"hood":10481,"tidas":10482,"Ġavailability":10483,"Ġbuildings":10484,"Ġtrimestre":10485,"uay":10486,"ĠDado":10487,"ĠProm":10488,"Ġproducing":10489,"ficios":10490,"Ġwelcomes":10491,"ĠrenovaciÃ³n":10492,"ĠGuidelines":10493,"Ġpressure":10494,"Ġdeliber":10495,"Ġsalvaguardia":10496,"tamin":10497,"Ġconci":10498,"Ġrevision":10499,"ĠRule":10500,"Ġ010":10501,"Ġcad":10502,"Ġinvers":10503,"Ġsmo":10504,"dous":10505,"sized":10506,"ĠNING":10507,"ĠProvin":10508,"Ġsustituir":10509,"Ġcontenga":10510,"Ġemployed":10511,"Ġbovinos":10512,"Ġflavo":10513,"ĠCarta":10514,"Ġocasion":10515,"ĠNINGUNA":10516,"Seg":10517,"olo":10518,"Ġsto":10519,"Ġmos":10520,"Ġapare":10521,"Ġinsu":10522,"fini":10523,"Ġmuer":10524,"Ġcontaminantes":10525,"Ġbearing":10526,"Ġaiuto":10527,"Ġpertenecientes":10528,"Ġdisclosure":10529,"Ġ60730":10530,"3000":10531,"PH":10532,"sing":10533,"ley":10534,"Ġdrin":10535,"Ġ196":10536,"Ġconsenti":10537,"illing":10538,"Ġexceeds":10539,"Ġestrategias":10540,"Ġcoherente":10541,"ĠOpinion":10542,"CZ":10543,"ĠirÃ¡n":10544,"ĠHuman":10545,"Ġ608":10546,"Ġindividuals":10547,"Ġrealizada":10548,"Ġcompatibles":10549,"Ġstress":10550,"Ġvoluntary":10551,"ĠÏĥÏħÎ½":10552,"ĠZealand":10553,"Ġvocational":10554,"Cada":10555,"var":10556,"ĠHigh":10557,"Î¿Î¼":10558,"Ġaprobados":10559,"Ġadaptado":10560,"Ġfavorecer":10561,"Ġconsolidated":10562,"Ġmethodology":10563,"ole":10564,"isk":10565,"cionamiento":10566,"Ġclasi":10567,"ANS":10568,"ĠPresidencia":10569,"ĠLiechtenstein":10570,"Ġlleve":10571,"Ġsession":10572,"Ġgenetically":10573,"bla":10574,"jen":10575,"uas":10576,"Ġfrac":10577,"Ġflying":10578,"Ġexpire":10579,"Ġidentificar":10580,"Ġimponer":10581,"ĠCroatia":10582,"ĠelectromagnÃ©tica":10583,"yecto":10584,"Ġcalculating":10585,"ĠAppeal":10586,"ĠInvestig":10587,"ĠDocu":10588,"nera":10589,"Ġeth":10590,"Ġtox":10591,"ĠNu":10592,"Ġsubra":10593,"Ġsubdi":10594,"ĠDeuts":10595,"ĠJa":10596,"Ġstages":10597,"Ġventajas":10598,"bank":10599,"ĠefectÃºen":10600,"ĠCOMMUNITY":10601,"racy":10602,"ull":10603,"ĠBCN":10604,"ĠAgreements":10605,"ruit":10606,"zardous":10607,"Ġintroducing":10608,"ÏĮÎ¼":10609,"ĠMonitoring":10610,"ĠsuprimirÃ¡":10611,"ĠTechnolog":10612,"ĠLetters":10613,"Ġconfidentiality":10614,"Ġvuelo":10615,"UF":10616,"ĠAvi":10617,"Ġcorresponda":10618,"Ġempleados":10619,"Ġrecognized":10620,"Ġtransacciones":10621,"Ġnegotiated":10622,"Ġfamilia":10623,"Ġinfringements":10624,"--------":10625,"TOS":10626,"quin":10627,"ĠNotes":10628,"Ġ25000":10629,"ICH":10630,"Ġhold":10631,"Ġproblem":10632,"Ġviabilidad":10633,"ĠAnimal":10634,"Ġempresarial":10635,"Ã«":10636,"Ġconduc":10637,"Ġdone":10638,"Ġ320":10639,"ĠWorld":10640,"ĠAsÃŃ":10641,"ĠnÃºmeros":10642,"Î¯Î¿Ïħ":10643,"Ġcliente":10644,"ĠdÃ©ficit":10645,"Ġdenegar":10646,"Ġcrops":10647,"Ã²":10648,"cital":10649,"ĠCalls":10650,"Ġremedi":10651,"Ġhin":10652,"yudas":10653,"Ġkom":10654,"ĠWest":10655,"Ġtemporales":10656,"ĠNorth":10657,"Ġconsignments":10658,"Ġobservations":10659,"ĠseÃ±ala":10660,"Ġmezcla":10661,"ĠTeniendo":10662,"ĠhectÃ¡":10663,"greg":10664,"Ġtools":10665,"liers":10666,"Ġislandesa":10667,"tenegro":10668,"ĠREP":10669,"ĠWithin":10670,"Ġdeduci":10671,"Ġmit":10672,"dig":10673,"Ġcata":10674,"ĠÃ¼":10675,"ĠEstruct":10676,"Ġauxi":10677,"ĠmercancÃŃa":10678,"Ġverificar":10679,"Ġingredients":10680,"Ġ195":10681,"Ġcosas":10682,"Elect":10683,"fare":10684,"Ġrecopi":10685,"ĠMalay":10686,"Î±ÏĦÎ¹Îº":10687,"Ġmundo":10688,"ĠEslovaquia":10689,"Ġcompor":10690,"Ġresta":10691,"Ġparticipen":10692,"Ġroz":10693,"Ġexploitation":10694,"Ġviol":10695,"Ġreducido":10696,"Ġrequerida":10697,"Ġingredientes":10698,"Ġreembols":10699,"ĠNinguna":10700,"ĠprÃ³rroga":10701,"Ver":10702,"quiler":10703,"Ġnext":10704,"Ġhos":10705,"Ġcomprue":10706,"ĠinformÃ¡tico":10707,"Ġlevi":10708,"ĠCompan":10709,"Ġintends":10710,"Ġconcentrated":10711,"AI":10712,"ĠEIB":10713,"Ġsem":10714,"Ġacross":10715,"imi":10716,"ĠMET":10717,"ĠNon":10718,"ĠNone":10719,"Ġintercon":10720,"Ġarrangement":10721,"ĠnormalizaciÃ³n":10722,"ilandia":10723,"ĠAppen":10724,"Ġsatisfactory":10725,"ÏĦÏģÎ¿ÏĢ":10726,"Ġvirtue":10727,"member":10728,"Ġep":10729,"Ġ1254":10730,"dam":10731,"Ġports":10732,"ĠMol":10733,"igation":10734,"Ġrealicen":10735,"Ġterrorismo":10736,"ĠPROVISION":10737,"ĠÅ¼e":10738,"Ġdesh":10739,"venciones":10740,"Ġsobrepas":10741,"vailing":10742,"mita":10743,"Ġcumplido":10744,"Ġ391":10745,"Ġarancelaria":10746,"Ġsubheading":10747,"Ġduplica":10748,"ĠÎķÏĢÎ¹ÏĦÏģÎ¿ÏĢ":10749,"Sal":10750,"VIS":10751,"ostic":10752,"ĠMor":10753,"ĠEntre":10754,"Ġfuere":10755,"Ġconsequently":10756,"Ġdestinatarios":10757,"ĠComercio":10758,"Ġcobertura":10759,"Ġatmos":10760,"pectrum":10761,"Ġflat":10762,"ruguay":10763,"ĠremuneraciÃ³n":10764,"ĠfacilitarÃ¡":10765,"Ġenabling":10766,"em":10767,"set":10768,"derse":10769,"Ġmid":10770,"Ġlicens":10771,"Ġmesa":10772,"Ġcomprometi":10773,"Ġseparately":10774,"ĠaÃ±adirÃ¡n":10775,"ĠSwitzerland":10776,"Ġalleged":10777,"han":10778,"ĠpÃ¥":10779,"Ġcontes":10780,"Ġforec":10781,"Ġentrepr":10782,"Ġ171":10783,"Î¬Î½":10784,"Any":10785,"Ġaiuti":10786,"rut":10787,"osas":10788,"Ã©u":10789,"Ġaftosa":10790,"Ġsustituido":10791,"Ġdiferente":10792,"ĠquedarÃ¡n":10793,"ĠOMC":10794,"dered":10795,"tering":10796,"Ġexista":10797,"ĠNE":10798,"Ġpreve":10799,"action":10800,"estar":10801,"Ġcapable":10802,"Ġguidance":10803,"Ġpensiones":10804,"Ġresidue":10805,"Ġshowing":10806,"Ġkilograms":10807,"Ġencuestas":10808,"Ġmetodolog":10809,"cedonia":10810,"Ġinstitut":10811,"ĠVista":10812,"Ġliving":10813,"Ġconclude":10814,"Ġstarch":10815,"Ġdiversidad":10816,"CAD":10817,"jar":10818,"Ġacc":10819,"Ġmata":10820,"mouth":10821,"mienda":10822,"Ġcitadas":10823,"ĠDichas":10824,"Ġzoos":10825,"UBL":10826,"Ġdespach":10827,"Ġexchanges":10828,"ĠNotwithstanding":10829,"ique":10830,"Ġackno":10831,"Ġcuad":10832,"Ġmanual":10833,"Ġfif":10834,"Ġoutbre":10835,"Ġforestales":10836,"Ġdried":10837,"Ġcomprise":10838,"ĠArti":10839,"Ġcerdos":10840,"entially":10841,"leno":10842,"Ġpending":10843,"Ġstarting":10844,"Ġrecovered":10845,"Ġvulnera":10846,"SES":10847,"acia":10848,"ony":10849,"Ġlines":10850,"Ġalthough":10851,"ĠNN":10852,"Ġcontener":10853,"Ġ262":10854,"Ġsituadas":10855,"Ġcombat":10856,"Ġstrategies":10857,"ĠCanadÃ¡":10858,"Ġatribuidas":10859,"Ġauxili":10860,"ĠfÃ©":10861,"Ġincluyendo":10862,"Ġsafe":10863,"ayments":10864,"Ġfirmar":10865,"logÃŃa":10866,"ĠllevarÃ¡n":10867,"ĠCONS":10868,"skie":10869,"Ġbelieves":10870,"ĠPE":10871,"ĠBeihil":10872,"Ġdevice":10873,"Ġcalendario":10874,"Ġpeces":10875,"Ġ390":10876,"ĠÎŁ":10877,"ystema":10878,"Ġ2013":10879,"ĠÃºtil":10880,"Ġnormalmente":10881,"Ġaeropuerto":10882,"Ġequilibrio":10883,"Ġrevo":10884,"ĠArgent":10885,"Ġimporting":10886,"enever":10887,"Î¿Î»":10888,"Ġstability":10889,"Ġfuente":10890,"ĠACC":10891,"Ġreductions":10892,"Ġdissemination":10893,"Ġexhaus":10894,"ĠdiagnÃ³stico":10895,"lla":10896,"zados":10897,"Ġmoney":10898,"Ġelement":10899,"Î¿ÏħÎ½":10900,"ÅĤy":10901,"Ġoportunidades":10902,"lined":10903,"Ġdemostrar":10904,"ĠprÃ©stamo":10905,"Ġscheduled":10906,"total":10907,"ĠSk":10908,"Ġimpose":10909,"Ġhabili":10910,"comp":10911,"ĠBay":10912,"Ġrup":10913,"Ġothers":10914,"Ġraised":10915,"Ġcooperaron":10916,"Ġnombres":10917,"Ġclim":10918,"Ã½ch":10919,"Ġmodification":10920,"ayment":10921,"Ġaplicando":10922,"Ġconsisting":10923,"Ġabsol":10924,"ĠBEI":10925,"Ġentail":10926,"Ġreins":10927,"leo":10928,"ĠDel":10929,"Ġderogada":10930,"Ġacceptable":10931,"ĠtransmitirÃ¡":10932,"Ġcontrary":10933,"ĠModificada":10934,"ZAR":10935,"cis":10936,"Ġexecut":10937,"ĠFi":10938,"Ġpartidas":10939,"Ġtercera":10940,"Ġconsiderations":10941,"Ã¤t":10942,"ĠDerechos":10943,"ĠMontenegro":10944,"Ġsignificativo":10945,"ÅĦst":10946,"ĠSlovakia":10947,"Ġflight":10948,"Ġhorizontal":10949,"rarÃ¡":10950,"aled":10951,"ĠAu":10952,"ĠSÃŃ":10953,"Ġexter":10954,"Ġpreserv":10955,"ĠMacedonia":10956,"Bruselas":10957,"fixing":10958,"Ġsugges":10959,"elo":10960,"cida":10961,"undes":10962,"Ġbound":10963,"rag":10964,"ĠPes":10965,"Ġfile":10966,"Ġtextile":10967,"Ġtendering":10968,"Ġannul":10969,"Ġadvertising":10970,"ĠÅĽrod":10971,"ĠNomencla":10972,"HER":10973,"Ġdevol":10974,"Ġfle":10975,"Ġsemen":10976,"ĠPA":10977,"ource":10978,"Ġ338":10979,"Ġcontinua":10980,"Ġresolver":10981,"ĠLibro":10982,"Ġverified":10983,"Ġcomunicadas":10984,"Ġjointly":10985,"ĠretenciÃ³n":10986,"HA":10987,"amb":10988,"bran":10989,"olamento":10990,"Ġnotably":10991,"ĠpÃ©rdida":10992,"Ġfalse":10993,"Ġbecom":10994,"Ġexpla":10995,"Ġplaces":10996,"Ġtotalmente":10997,"Ġregulares":10998,"Ġjobs":10999,"Ġexpresado":11000,"Ġbival":11001,"Ġobserved":11002,"Ġrol":11003,"Ġ1968":11004,"ÏĩÎµÎ¹":11005,"ĠInvestment":11006,"Ġembalaje":11007,"ITIES":11008,"tages":11009,"Ġacredi":11010,"fication":11011,"ĠOP":11012,"Ġracional":11013,"bilisation":11014,"Ġ404":11015,"Ġadditive":11016,"Ġnamely":11017,"Ġshipment":11018,"Ġcualesquiera":11019,"ĠAgricultura":11020,"ĠbÃ¡sicas":11021,"Without":11022,"Ġvuelos":11023,"Ġengaged":11024,"ĠBri":11025,"Ġcapacidades":11026,"ĠclÃŃn":11027,"Ġabsor":11028,"mpleo":11029,"ĠTransport":11030,"Ġintegral":11031,"ĠidÃ©n":11032,"Ġcomentarios":11033,"Ġayudar":11034,"ĠAmendment":11035,"ĠDIS":11036,"Ġdesfa":11037,"Ġpolvo":11038,"Ġequipa":11039,"Ġsubpartida":11040,"Ġtitulares":11041,"Ġsuffered":11042,"VEN":11043,"iado":11044,"aran":11045,"istemas":11046,"ĠDa":11047,"ĠUruguay":11048,"tings":11049,"Ġcooperating":11050,"Ġtej":11051,"Ġcommittees":11052,"Ġsoluciones":11053,"ĠpequeÃ±os":11054,"Ġejecutivo":11055,"Ġumbral":11056,"Ã¡tan":11057,"Ġsought":11058,"Ġ2913":11059,"Ġsituado":11060,"Ġinvolvement":11061,"Ġmutua":11062,"Ġbreak":11063,"orias":11064,"Ġmass":11065,"riers":11066,"Ġ40000":11067,"Ġ550":11068,"Ġadaptaciones":11069,"Ġ1974":11070,"ĠsÃ³li":11071,"Ġsolution":11072,"Ġdetect":11073,"ĠreparaciÃ³n":11074,"economic":11075,"Ġtranscurrido":11076,"ordening":11077,"ives":11078,"Ġmir":11079,"Ġwon":11080,"Ġtransbor":11081,"ĠJe":11082,"Ġmanaged":11083,"Î·Îº":11084,"Ġensured":11085,"Note":11086,"Ġpharma":11087,"Ġcompatibilidad":11088,"Ġtrigo":11089,"Ġcandidate":11090,"Ġblood":11091,"Ġsubstantially":11092,"Ġtierras":11093,"ĠapÃ©n":11094,"Ġespect":11095,"Ġcoloc":11096,"ĠTar":11097,"Ġexcise":11098,"Ġ1966":11099,"Ġconseguir":11100,"umo":11101,"Ġ142":11102,"Ġsectoral":11103,"culas":11104,"Ġchecked":11105,"ĠService":11106,"Ġapparatus":11107,"Ġcomposed":11108,"SR":11109,"ĠEP":11110,"ĠSus":11111,"Ġoral":11112,"Ġarrenda":11113,"Ġclarity":11114,"Ġproposes":11115,"Ġnotificar":11116,"ĠexaminarÃ¡":11117,"Ġcalculado":11118,"Ġconcept":11119,"Ġtransfronteriza":11120,"Ġcircu":11121,"fur":11122,"down":11123,"Ġhatch":11124,"Ġeslo":11125,"ticen":11126,"ĠFA":11127,"Ġentries":11128,"Ġdiffic":11129,"Ġauf":11130,"ÅĤad":11131,"Ġrecogidas":11132,"Ġtuvi":11133,"Ġvelocidad":11134,"mal":11135,"ns":11136,"Ġsite":11137,"ungen":11138,"iry":11139,"Ã¡nea":11140,"Ġruling":11141,"logy":11142,"ĠPresidency":11143,"Ġconsistency":11144,"relativo":11145,"ĠorientaciÃ³n":11146,"Ġfacultad":11147,"burg":11148,"Ġagrupaciones":11149,"Ġaeronaves":11150,"Ġconsentimiento":11151,"Ġsystema":11152,"ĠDK":11153,"Ġexpl":11154,"Ġexplici":11155,"ĠVol":11156,"mpliance":11157,"Ġdenunci":11158,"Ġheat":11159,"Ġsuperar":11160,"Ġpast":11161,"Ġ362":11162,"ĠelÃ©ctricos":11163,"ĠhÃ¡biles":11164,"Ġinm":11165,"ĠPublic":11166,"ĠXII":11167,"Ġcontinuation":11168,"Ġreconocidas":11169,"Ġflights":11170,"ĠPortuguese":11171,"net":11172,"Ġpli":11173,"Ġprovo":11174,"irts":11175,"Ġ426":11176,"Ġchapter":11177,"ĠCharter":11178,"ÏħÏĦ":11179,"Ġeran":11180,"Ġclin":11181,"Ġadvantage":11182,"Ġaumenta":11183,"ĠEAG":11184,"Ġseas":11185,"Ġexistan":11186,"Ġdisas":11187,"Ġconsor":11188,"ĠBudget":11189,"Ġloan":11190,"Ġmedianas":11191,"Ġpartner":11192,"Ġgratu":11193,"missible":11194,"Ġcomplying":11195,"Ġmeasurement":11196,"bÃ³n":11197,"rop":11198,"ĠSt":11199,"Ġresto":11200,"Ġdiscapa":11201,"ĠFI":11202,"Ġposes":11203,"Ġ166":11204,"Ġgobern":11205,"ĠenergÃ©tica":11206,"Ġrecomienda":11207,"Ġordenador":11208,"ĠobservaciÃ³n":11209,"Ġdecreased":11210,"ĠdisminuciÃ³n":11211,"Ġquedan":11212,"Ġ1766":11213,"Ġtelev":11214,"Ġjour":11215,"ĠbÃ¡sicos":11216,"Ġencuentren":11217,"ĠLetonia":11218,"ĠWorking":11219,"ĠConfederation":11220,"ĠLatvia":11221,"ĠThailand":11222,"wy":11223,"erda":11224,"Ã¡st":11225,"gram":11226,"certain":11227,"Ġexplor":11228,"Ġka":11229,"ÃŃfico":11230,"ĠaviaciÃ³n":11231,"Ġasegura":11232,"Ġsimplification":11233,"Ġclosely":11234,"Ġtelecomunicaciones":11235,"ĠREGIONAL":11236,"Ġtill":11237,"Ġdura":11238,"verthe":11239,"Ġinformati":11240,"Ġ152":11241,"Ġoutcome":11242,"Î¯Î½":11243,"Ġreaseg":11244,"AMB":11245,"giene":11246,"Ġplena":11247,"THER":11248,"Ġnucleares":11249,"ĠgeogrÃ¡ficas":11250,"Ġaprueba":11251,"vertheless":11252,"9000":11253,"Ã¡k":11254,"sie":11255,"ulados":11256,"âĢĵ":11257,"Ġparticularmente":11258,"ĠProdu":11259,"ĠWTO":11260,"ĠÃ©quidos":11261,"ĠÎµÎº":11262,"ĠdomÃ©sticos":11263,"Ġestimates":11264,"ANDO":11265,"ĠGiven":11266,"kÃ³w":11267,"Ġ1257":11268,"Ġexpan":11269,"Ġ176":11270,"Ġcorrespond":11271,"Ġsaldo":11272,"Ġ1006":11273,"Ġdisponibilidad":11274,"Ġruta":11275,"Ġlot":11276,"dix":11277,"uscos":11278,"ĠFun":11279,"ĠInde":11280,"Ġ168":11281,"hili":11282,"Ġveterinaria":11283,"ĠenviarÃ¡":11284,"ĠjurisdicciÃ³n":11285,"ĠplÃ¡tan":11286,"Ġfitosanitario":11287,"ĠfÃ¡cil":11288,"inter":11289,"ĠCR":11290,"ÃŃpro":11291,"Ġimpar":11292,"ĠGENER":11293,"Ġ1702":11294,"ĠrecÃŃpro":11295,"Ġtomarse":11296,"ĠvotaciÃ³n":11297,"ĠAtomic":11298,"Ġreserves":11299,"Ġsolidar":11300,"Ġrebas":11301,"ĠET":11302,"ĠMad":11303,"Ġhazardous":11304,"ĠconsecuciÃ³n":11305,"Ġdenominada":11306,"ĠIsrael":11307,"Ġgaranticen":11308,"ĠpropagaciÃ³n":11309,"laying":11310,"cipos":11311,"Ġok":11312,"taje":11313,"Ġaco":11314,"Ã¡ndo":11315,"nej":11316,"ĠrecibiÃ³":11317,"Ġreparto":11318,"Ġbancos":11319,"Ġsettlement":11320,"Ġzoosanit":11321,"till":11322,"ĠmÃ¡r":11323,"Ġben":11324,"ĠAsia":11325,"Ġdas":11326,"Ġpreca":11327,"Ãºmenes":11328,"Ġinsol":11329,"Ġpublicado":11330,"ĠSobre":11331,"Ġvolumes":11332,"Ġaccessible":11333,"Ġrecogidos":11334,"Ġpackages":11335,"Ã³sitos":11336,"Ġreducciones":11337,"ĠCroacia":11338,"Ġrailway":11339,"Ġsatisfacer":11340,"castle":11341,"Med":11342,"hand":11343,"Ġcarbon":11344,"ĠpermitirÃ¡":11345,"Ġalimentarios":11346,"ĠConfederaciÃ³n":11347,"Ġcometido":11348,"SG":11349,"Ġexced":11350,"ÏģÎ·":11351,"Ġ260":11352,"Ġdirectiva":11353,"ĠactualizaciÃ³n":11354,"ĠEMC":11355,"Ġimpugn":11356,"Ġsanctions":11357,"rants":11358,"Ġinspect":11359,"Ġratio":11360,"Ġ402":11361,"Ġrenewable":11362,"Ġconvergencia":11363,"ĠÏĮÏĦ":11364,"edish":11365,"ĠNorthern":11366,"Ġmoluscos":11367,"Ġbille":11368,"Ã©ricas":11369,"ĠEstructurales":11370,"ln":11371,"eses":11372,"Ġ32006":11373,"Ġsoft":11374,"Ġvein":11375,"Ġpolice":11376,"Ġsuppliers":11377,"Ġimmig":11378,"Ġbanks":11379,"Ġencargada":11380,"Ġoffences":11381,"Ġskills":11382,"Ġofficers":11383,"Ġaeropuertos":11384,"case":11385,"Ġdry":11386,"portes":11387,"Ġentrar":11388,"Ġunderstanding":11389,"ÎµÏħ":11390,"Ġlink":11391,"Ġaccidentes":11392,"Brussels":11393,"ĠMeasures":11394,"Ġlivestock":11395,"Ġgreen":11396,"Ġdifficult":11397,"nic":11398,"Ġine":11399,"Ġaccion":11400,"irements":11401,"Ġmarks":11402,"Ġsaber":11403,"Ġ280":11404,"Ġtrabajador":11405,"Ġobtaining":11406,"ĠPLN":11407,"Ã¨re":11408,"Ġsubsidiariedad":11409,"Ġmasa":11410,"Ġcombustibles":11411,"ĠEduc":11412,"Ġ179":11413,"ĠThose":11414,"Ġinstitutional":11415,"ORD":11416,"ĠFinal":11417,"Ġaditivo":11418,"Ġpermiten":11419,"Ġsuspend":11420,"ĠAtÃ³mica":11421,"Ġcrime":11422,"ĠRegione":11423,"Ġplanteamiento":11424,"Ġllegar":11425,"Ġtourism":11426,"Ġprivileg":11427,"Ġhigiene":11428,"NB":11429,"ĠNONE":11430,"Ġ193":11431,"adora":11432,"Ġanticipo":11433,"Ġsupone":11434,"Ġsemanas":11435,"Gastos":11436,"ĠCDR":11437,"organis":11438,"rence":11439,"law":11440,"arters":11441,"Ġenjo":11442,"ĠrÃ©":11443,"Ġ164":11444,"Ġexpertise":11445,"Ġtem":11446,"Ġfacilitada":11447,"Ġsentencia":11448,"Ġhighly":11449,"Ġconcretas":11450,"Ġincomple":11451,"Ġvinculadas":11452,"ĠSwedish":11453,"Ġproportionate":11454,"Ġsyrup":11455,"Ġenlargement":11456,"HR":11457,"tle":11458,"Ġacid":11459,"ariamente":11460,"Ġdesignar":11461,"Ġtermination":11462,"Ġrepealing":11463,"ĠestadÃŃstico":11464,"Ġinteroperabilidad":11465,"ĠLandes":11466,"tox":11467,"Ġgest":11468,"Ġpertur":11469,"Ġ154":11470,"Ġrather":11471,"Ġchain":11472,"ĠYes":11473,"Ġembry":11474,"ĠseguirÃ¡":11475,"TUR":11476,"Ġincumb":11477,"amin":11478,"Ġdetec":11479,"ĠCualquier":11480,"ections":11481,"Ġforint":11482,"Ġmenciones":11483,"Ġajusta":11484,"Ġpermits":11485,"Ã¨g":11486,"Address":11487,"Ġrestrukturyzacji":11488,"Ġfranquicia":11489,"CPE":11490,"FIN":11491,"Ġwer":11492,"ĠDuring":11493,"Ġ467":11494,"Ġsiete":11495,"ĠVisto":11496,"Ġuva":11497,"Ġconsideren":11498,"Ġsufrido":11499,"Ġlongitud":11500,"ĠvelarÃ¡":11501,"ĠText":11502,"Ġuniversi":11503,"ĠcÃ¡r":11504,"Ġvic":11505,"poration":11506,"odder":11507,"ĠDetailed":11508,"Ġindique":11509,"Ġinstructions":11510,"Ġreconocer":11511,"SEK":11512,"Ġcomponente":11513,"ĠGoverning":11514,"Ġeta":11515,"Ġrelates":11516,"Ġregistrada":11517,"Ġencargado":11518,"ĠNewcastle":11519,"ĠÎ¿Î¹":11520,"Apar":11521,"Ġtribunal":11522,"Ġadmission":11523,"bido":11524,"ĠTraining":11525,"ARY":11526,"Ġreconocido":11527,"ĠgarantizarÃ¡":11528,"Ġprospect":11529,"ĠIndustrial":11530,"Ġata":11531,"Ġled":11532,"ĠPhili":11533,"etes":11534,"Ġmacro":11535,"Ġ642":11536,"Ġreplies":11537,"Ġ203":11538,"Ġabord":11539,"Ġlitig":11540,"Ġsecre":11541,"ĠExport":11542,"Ġporcino":11543,"Ġinventario":11544,"Ġrand":11545,"Ġexcessive":11546,"Ġobstacul":11547,"Ġforeseen":11548,"Ġespectro":11549,"vic":11550,"ĠSUB":11551,"ĠMON":11552,"Ġnotas":11553,"ĠOtros":11554,"noÅĽci":11555,"IDR":11556,"Ġculturales":11557,"tirÃ¡":11558,"Ġ150000":11559,"Ġexcepcional":11560,"Ġaceler":11561,"Ġdetalladas":11562,"Ġsuprimi":11563,"ĠFINANCI":11564,"Ġox":11565,"Ġ265":11566,"Ġcontenidas":11567,"Ġpresupuestarios":11568,"ancias":11569,"Ã³lo":11570,"ĠprohÃŃ":11571,"Ġsuelo":11572,"ĠFo":11573,"Ġmanag":11574,"light":11575,"Ġparticipaciones":11576,"Ġrefug":11577,"Ġactuaciones":11578,"ventud":11579,"ĠExcep":11580,"Ġfactura":11581,"Ġjurisdiccional":11582,"Ġepidem":11583,"Qu":11584,"Ġol":11585,"Ġhon":11586,"ishing":11587,"ĠUntil":11588,"Ġprovisionally":11589,"ĠProtecciÃ³n":11590,"ĠWe":11591,"Ġinteresada":11592,"Ġinstrucciones":11593,"ĠaprobarÃ¡":11594,"Ġveterinarian":11595,"Ġprejudicial":11596,"Ġglob":11597,"ĠTailandia":11598,"ĠSubject":11599,"ĠArtikel":11600,"fal":11601,"plan":11602,"ferences":11603,"ĠmediciÃ³n":11604,"Ġentiende":11605,"Ġferrocar":11606,"ĠNetwork":11607,"ĠAfrica":11608,"ĠMat":11609,"ists":11610,"ĠStatute":11611,"ĠOC":11612,"Ġsimult":11613,"Ġjustice":11614,"Ġtreinta":11615,"Ġsensibles":11616,"HK":11617,"ische":11618,"used":11619,"Ġinterinstitu":11620,"Ġdescen":11621,"ĠÎĳ":11622,"Ġcoopera":11623,"Ġcomienzo":11624,"Ġocho":11625,"minbi":11626,"Ġsubcon":11627,"Ġmotiv":11628,"Ġmotiva":11629,"Ġmenores":11630,"Ġnegoci":11631,"Region":11632,"Ġrenminbi":11633,"othing":11634,"DecisiÃ³n":11635,"Ġindirectly":11636,"ĠMundial":11637,"HO":11638,"Ã³x":11639,"Ġvec":11640,"Ġdispu":11641,"Ġring":11642,"ĠkÃ¶":11643,"Ġrectifica":11644,"Ġborne":11645,"ĠilÃŃci":11646,"ĠSupport":11647,"ĠvÃ¡lido":11648,"Ġproporcionalidad":11649,"tn":11650,"yc":11651,"Ġinmo":11652,"atz":11653,"Ġsoil":11654,"ility":11655,"Ġaggreg":11656,"Ġ221":11657,"Ġ235":11658,"Ġ214":11659,"Ġcreated":11660,"Ġviajeros":11661,"Ġmanufacturers":11662,"Ġtuber":11663,"Ġabierta":11664,"Ġscho":11665,"omer":11666,"Ġyuan":11667,"Ġarma":11668,"Ġoperated":11669,"Ġassessing":11670,"Ġretirar":11671,"Ġmaintaining":11672,"Ġentitlement":11673,"ĠTexto":11674,"ĠInstitute":11675,"Ġmollus":11676,"CNY":11677,"Ġrupia":11678,"kom":11679,"Ã¡met":11680,"Ġima":11681,"Ġ258":11682,"1994":11683,"Ġtenerse":11684,"Ġ462":11685,"Ġarmonizada":11686,"ĠMadrid":11687,"ĠmÃ¡rgenes":11688,"HUF":11689,"cident":11690,"Ġexcess":11691,"ĠRegistro":11692,"Ġmobile":11693,"Ġposteriores":11694,"Ġcargas":11695,"Ġpurs":11696,"Ġ248":11697,"Ġinciner":11698,"guen":11699,"Ġentering":11700,"Ġqualify":11701,"establish":11702,"Ġawareness":11703,"Ġ999":11704,"Ġfine":11705,"Ġgobier":11706,"ĠDEM":11707,"ĠBefore":11708,"ĠtransiciÃ³n":11709,"Ġhydro":11710,"rimonio":11711,"Ġpatatas":11712,"Ġreimbursement":11713,"KRW":11714,"Ġreales":11715,"Ġhaz":11716,"ĠopciÃ³n":11717,"Ġresultante":11718,"ĠResul":11719,"ĠMateri":11720,"ĠCOOPER":11721,"ĠÎ´ÎµÎ½":11722,"Ġsusceptible":11723,"Ġciclo":11724,"RON":11725,"etros":11726,"seurope":11727,"Ġmadera":11728,"Ġaplicadas":11729,"Ġkil":11730,"Ġreformas":11731,"PLN":11732,"Ġradiac":11733,"Ġinventory":11734,"Ġconvocatoria":11735,"ĠTr":11736,"Ġcorreg":11737,"rogas":11738,"Î»Î·":11739,"Ġlinks":11740,"Ġsubsidiary":11741,"Ġindependientemente":11742,"loty":11743,"EU":11744,"ez":11745,"Ġartes":11746,"Ġ184":11747,"Î¿ÏħÏĤ":11748,"orables":11749,"Ġvacc":11750,"Ġinmediato":11751,"Ġsheep":11752,"CONSIDER":11753,"Ġrequiring":11754,"PS":11755,"ette":11756,"Ġ500000":11757,"Ġ615":11758,"Ġdeclarado":11759,"Ġrestrictive":11760,"Ġconsequence":11761,"ĠSpanish":11762,"Ġclinical":11763,"Ġspectrum":11764,"Ġfodder":11765,"ĠNU":11766,"Ġhagan":11767,"Ãºp":11768,"Ġcontrapar":11769,"Ġ297":11770,"Ġdefinitivas":11771,"Ġcontainers":11772,"Ġprovisionalmente":11773,"Ġembri":11774,"Ġmandatory":11775,"Ġownership":11776,"LAND":11777,"clas":11778,"zarse":11779,"ĠCAR":11780,"Ġans":11781,"Ġinterrup":11782,"vency":11783,"ĠÂ§":11784,"Ġ181":11785,"Ġcoordinated":11786,"Ġtemas":11787,"ĠÏĥÎµ":11788,"hou":11789,"ĠseÃ±alar":11790,"ĠÏĥÏĦÎ·Î½":11791,"Ġvisible":11792,"Ġdeficit":11793,"ĠOrientaciÃ³n":11794,"AUD":11795,"Ca":11796,"ou":11797,"sto":11798,"Ġdeath":11799,"erra":11800,"ash":11801,"Ã©tr":11802,"ĠBureau":11803,"Ġcorr":11804,"ĠPolÃŃtica":11805,"ĠexpresiÃ³n":11806,"Ġesperma":11807,"Ġsemana":11808,"Ġcuantitativos":11809,"Ġmovimientos":11810,"fon":11811,"umin":11812,"zadas":11813,"ery":11814,"atell":11815,"ĠÏĦÎ±":11816,"Ġsolutions":11817,"ĠdepÃ³sitos":11818,"Ġcreating":11819,"ĠÏĮÏĦÎ¹":11820,"ZD":11821,"ija":11822,"ĠanÃ¡logo":11823,"Ġdelin":11824,"ultor":11825,"Ġvoting":11826,"utos":11827,"izarÃ¡":11828,"ĠRecital":11829,"Ġcomplex":11830,"Ġconsideraciones":11831,"Ġceiling":11832,"Ġmotores":11833,"Ġremains":11834,"Ġexemptions":11835,"ĠWHICH":11836,"Ġseat":11837,"Ġsemi":11838,"Ã©es":11839,"Ġaparato":11840,"Ġanticipos":11841,"ighbour":11842,"LAF":11843,"Ġexceeded":11844,"Ġturismo":11845,"Ġdirigidas":11846,"ĠMiemb":11847,"ĠautÃ©nticos":11848,"Ġaltern":11849,"ĠBundes":11850,"Ġpola":11851,"Î¿Î³":11852,"Ġtomadas":11853,"Ġsimplificar":11854,"ĠBasic":11855,"Ġdiox":11856,"NZD":11857,"Ġquater":11858,"ĠRoma":11859,"istence":11860,"elong":11861,"ĠTraba":11862,"Ġmiljo":11863,"Ġcourts":11864,"Ġbruce":11865,"Ġinteroperability":11866,"ĠMoreover":11867,"Ġcig":11868,"ampo":11869,"Ã©an":11870,"oluciÃ³n":11871,"Ġaplicaciones":11872,"govern":11873,"Ġveal":11874,"Ġzloty":11875,"ĠtensiÃ³n":11876,"Ġmonedas":11877,"Ġprocessors":11878,"Ġenvase":11879,"Ġowner":11880,"Ġupdate":11881,"Ġconflict":11882,"Ġdeud":11883,"alizaciÃ³n":11884,"ĠCM":11885,"Ġgear":11886,"Ġentra":11887,"tane":11888,"Ġ159":11889,"Ġthereafter":11890,"Ġ163":11891,"Ġsituada":11892,"Ġdispongan":11893,"ĠfusiÃ³n":11894,"Ġenterprise":11895,"ĠafectarÃ¡":11896,"ĠCertifica":11897,"ĠTaiwan":11898,"ĠÎ¸Î±":11899,"HKD":11900,"OU":11901,"Ġagrees":11902,"Ġfinanciar":11903,"ells":11904,"Ġpotencia":11905,"Ġcollabor":11906,"Ġdemues":11907,"Ġdiversity":11908,"Ġsupplemented":11909,"ĠInstituto":11910,"Ġacondi":11911,"Tra":11912,"Ã¬":11913,"ĠÏĮ":11914,"erÃ¡n":11915,"ĠAM":11916,"Ġparce":11917,"terdam":11918,"Ġproduzca":11919,"Ġ1969":11920,"illas":11921,"ĠConsequ":11922,"Ġability":11923,"Ġfight":11924,"ICACIÃĵN":11925,"Ġaduaneros":11926,"Ġequidae":11927,"Î¸Îµ":11928,"ĠOnly":11929,"Ġtargets":11930,"Ġconfidencialidad":11931,"Ġmargins":11932,"curs":11933,"ĠAF":11934,"Ġexisti":11935,"Ġonder":11936,"Ãºmero":11937,"Ġactualidad":11938,"Ġidentifying":11939,"Ġtranseurope":11940,"Ġdeparta":11941,"Ġdiplomas":11942,"Ġcultivation":11943,"Ã¨glement":11944,"tie":11945,"Ġeight":11946,"ecos":11947,"Ãºr":11948,"Ġattes":11949,"Ġsuspected":11950,"ĠÎ£":11951,"Ġrepair":11952,"Ġanticipada":11953,"Ġcelebrar":11954,"Ġpreserved":11955,"PHP":11956,"ĠlÃºp":11957,"atural":11958,"Ġcosecha":11959,"ĠfijarÃ¡n":11960,"Ġspra":11961,"Ġmixto":11962,"ĠpondrÃ¡":11963,"Ġencuesta":11964,"lea":11965,"ĠDie":11966,"Ġ32005":11967,"Ġentorno":11968,"ÏģÏī":11969,"Ġgives":11970,"loyed":11971,"Ġaceites":11972,"ĠEXP":11973,"Ġcoefficient":11974,"ĠKomisja":11975,"Ġspirit":11976,"Ġhabitual":11977,"Ã³mo":11978,"Ġpostal":11979,"Ġlira":11980,"genos":11981,"ĠÃ©x":11982,"Ġtransferencias":11983,"session":11984,"6000":11985,"FL":11986,"Ġpred":11987,"ĠGU":11988,"Ġcompletar":11989,"Ġfeatures":11990,"Ġaprobadas":11991,"Ġestimate":11992,"Ġclases":11993,"ĠinsertarÃ¡":11994,"Ġtrials":11995,"Ġvegetal":11996,"ĠHungarian":11997,"ĠAzores":11998,"Ġelectrodom":11999,"lÃ¡n":12000,"ĠPue":12001,"Ġobra":12002,"Ġcaza":12003,"ĠGO":12004,"Ġ167":12005,"RegiÃ³n":12006,"Ġsurface":12007,"Ġmigra":12008,"Ġbillion":12009,"Ġhidro":12010,"ĠNomenclature":12011,"ĠelectrodomÃ©sticos":12012,"jÄĻ":12013,"Ġtoo":12014,"olly":12015,"ĠNOR":12016,"Ġconstar":12017,"elle":12018,"Ġbaht":12019,"Ġ401":12020,"ĠÎµÎ¾":12021,"Ġeligibility":12022,"ĠDesde":12023,"THB":12024,"Ġcomparables":12025,"Ġformularios":12026,"ĠServices":12027,"ĠÎºÎ±ÏĦÎ¬":12028,"Ġhearing":12029,"ĠPursuant":12030,"Ġindispensable":12031,"ĠfÃ©cula":12032,"cados":12033,"sh":12034,"sess":12035,"ĠdevoluciÃ³n":12036,"ĠCapÃŃtulo":12037,"embra":12038,"ella":12039,"Ġcha":12040,"Ġsupere":12041,"Ġsecon":12042,"Ġsituados":12043,"ĠTodo":12044,"Ġejercicios":12045,"Ġrevisar":12046,"Ġfrecu":12047,"ĠdestrucciÃ³n":12048,"Ġwarehouse":12049,"Ġembriones":12050,"fts":12051,"ju":12052,"nen":12053,"Ġyouth":12054,"Ġconsisti":12055,"Ġposts":12056,"Ġbienestar":12057,"ÏĮÎ½":12058,"Ġtransformador":12059,"Ġclasses":12060,"Ġrelacionada":12061,"Ġarmonizadas":12062,"Ġexpedir":12063,"ĠocasiÃ³n":12064,"ĠÃ¼ber":12065,"cut":12066,"Ġtor":12067,"Ġsor":12068,"Ġoften":12069,"Ġ183":12070,"Ġresultar":12071,"ĠAcuerdos":12072,"Ġrefuge":12073,"Ġconsiderados":12074,"Ġemployer":12075,"Ġerrores":12076,"Ġpotatoes":12077,"Ġenvasado":12078,"ike":12079,"vaca":12080,"rami":12081,"Ġpercep":12082,"ĠdotaciÃ³n":12083,"Ġpru":12084,"Ġ302":12085,"Ġorders":12086,"Ġconcluido":12087,"ĠXIII":12088,"Ġgovernance":12089,"ĠCONTR":12090,"ĠMade":12091,"tizaciones":12092,"water":12093,"Ġaportar":12094,"wiÄħ":12095,"fun":12096,"eres":12097,"teras":12098,"ĠhÃºn":12099,"ĠTemp":12100,"Ã©pti":12101,"Ġongoing":12102,"ĠtraducciÃ³n":12103,"ĠratificaciÃ³n":12104,"ĠProvision":12105,"ectoral":12106,"Ġobliged":12107,"Ġmeets":12108,"Ġvisados":12109,"ĠContratantes":12110,"MINIS":12111,"Ġpendientes":12112,"ĠAppendix":12113,"ĠArgentina":12114,"Ġreinsurance":12115,"SKK":12116,"Ġinher":12117,"Ġfol":12118,"ĠPOR":12119,"Ġinformado":12120,"uestion":12121,"rÃ¡tica":12122,"off":12123,"ague":12124,"Ġ433":12125,"ĠlimitaciÃ³n":12126,"Ġrecommends":12127,"Ġsubsidiarity":12128,"ĠSalvo":12129,"ĠSTATES":12130,"Ġdemostrado":12131,"Ġinnovative":12132,"IES":12133,"Ġpresi":12134,"Ġsecure":12135,"Ġcombating":12136,"Ġannually":12137,"Ġdegli":12138,"ĠrÃ¡pidamente":12139,"ĠdesempeÃ±ar":12140,"ĠmÃ©dico":12141,"Ġadminister":12142,"ĠposesiÃ³n":12143,"UU":12144,"cji":12145,"mu":12146,"Ġaleman":12147,"Ġbac":12148,"ĠNA":12149,"rantes":12150,"Ġcab":12151,"ĠÎĶ":12152,"Ġlegge":12153,"ĠChairman":12154,"Ġendor":12155,"ĠclÃ¡s":12156,"Ġrecommended":12157,"Ã¶rder":12158,"cupaciÃ³n":12159,"Ġdeficiencias":12160,"Ġsacrifica":12161,"Ġganado":12162,"Ġinade":12163,"PT":12164,"PY":12165,"Ġlado":12166,"Ġnos":12167,"Ġarise":12168,"Ġdistil":12169,"Ġzur":12170,"Ġservants":12171,"Ġproportionality":12172,"Ġfranc":12173,"Ġimposing":12174,"Ġiniciar":12175,"ĠApplications":12176,"bli":12177,"dada":12178,"Ġveces":12179,"Ġwholly":12180,"Ġ162":12181,"Ġ357":12182,"Ġplenary":12183,"Ġencuentre":12184,"Ġwelfare":12185,"Ġcarcases":12186,"aid":12187,"zÄħ":12188,"ĠEsto":12189,"Ġobtenida":12190,"Ġgained":12191,"Ġrefuerzo":12192,"ĠRecommendation":12193,"ĠlÃºpulo":12194,"Ġum":12195,"Ġpic":12196,"Ġ768":12197,"ĠOLAF":12198,"Ġ208":12199,"Ġ2771":12200,"Ġsiguen":12201,"ĠvaloraciÃ³n":12202,"Ġspp":12203,"ĠdiseÃ±":12204,"Ġlimitaciones":12205,"Ġofrece":12206,"Ġdepending":12207,"isterial":12208,"Ġarrival":12209,"Cor":12210,"PM":12211,"Ġdetection":12212,"rados":12213,"Ġyen":12214,"tivin":12215,"Ġesto":12216,"ĠME":12217,"riba":12218,"Ġ1408":12219,"Ġ172":12220,"Ġevaluate":12221,"carb":12222,"Ġajustes":12223,"ĠInterim":12224,"Ġmeasured":12225,"Ġasignados":12226,"Ġmanifes":12227,"ĠvÃ¡lida":12228,"Ta":12229,"hu":12230,"arÃŃa":12231,"Ġremol":12232,"ridos":12233,"usiness":12234,"Ġarms":12235,"versiones":12236,"Ġserve":12237,"Ġsupl":12238,"Ġtema":12239,"Ġdistinta":12240,"Ġtemporarily":12241,"ĠPolish":12242,"Ġpagado":12243,"Ġhygiene":12244,"ĠÏħÏĢ":12245,"mÃ¤":12246,"Ġjara":12247,"Ġpriva":12248,"Ġpesar":12249,"Ġinternas":12250,"ĠIslas":12251,"Ġverifying":12252,"Ġclarify":12253,"ĠBelg":12254,"ĠSpA":12255,"Ġutilice":12256,"Ġdibujos":12257,"ĠNueva":12258,"Dictamen":12259,"GF":12260,"RUB":12261,"ede":12262,"eks":12263,"utical":12264,"ĠEjec":12265,"Ġportu":12266,"Ġzg":12267,"Ġsolicitadas":12268,"Ġoptar":12269,"Ġlegislativas":12270,"Ġactuar":12271,"iano":12272,"Ġreconocidos":12273,"ĠLiber":12274,"Ã§a":12275,"Ġdepartment":12276,"ĠMedio":12277,"ĠGeorg":12278,"ĠDeclaraciÃ³n":12279,"ĠSupplement":12280,"ĠÎķÏĢÎ¹ÏĦÏģÎ¿ÏĢÎ®":12281,"free":12282,"tiliz":12283,"ĠAbs":12284,"Ġseven":12285,"atri":12286,"Ġislas":12287,"Ġ60000":12288,"Ġratification":12289,"Ġcertificadas":12290,"Ġdesignations":12291,"Ġ363":12292,"ream":12293,"ATE":12294,"ĠRequirements":12295,"Ġencargados":12296,"Ġgrowing":12297,"Ġapropiada":12298,"ĠConditions":12299,"ĠmetodologÃŃa":12300,"Ġfifth":12301,"Ġlotes":12302,"Ġvit":12303,"Ã©si":12304,"Ġmano":12305,"Ġchanged":12306,"Î¹Î¼":12307,"Ġ182":12308,"Ġoptim":12309,"Ġ218":12310,"Ġlettera":12311,"ĠÎµÏĢ":12312,"Ġways":12313,"ĠCompany":12314,"ĠÃ©xito":12315,"tribuciÃ³n":12316,"lated":12317,"ĠCd":12318,"ĠTÃŃtulo":12319,"Ġrestra":12320,"Ġmaje":12321,"cilla":12322,"ĠlegÃŃti":12323,"fair":12324,"Ġrecicla":12325,"Ġadjunta":12326,"UND":12327,"Î¸Î·Îº":12328,"Ġconcretos":12329,"ĠStand":12330,"Ġconcentraciones":12331,"Ġdelincuencia":12332,"ĠMadeira":12333,"So":12334,"ny":12335,"lifer":12336,"ching":12337,"ĠLT":12338,"ĠtransposiciÃ³n":12339,"vables":12340,"Ġsalari":12341,"Ġnombr":12342,"Ġcontinuing":12343,"ĠvalorizaciÃ³n":12344,"Ġrestrict":12345,"Ġrestrictivas":12346,"ĠÎ±ÏħÏĦ":12347,"Ġterminal":12348,"Ġpreventing":12349,"ĠAPPL":12350,"Ġtrend":12351,"NOK":12352,"Ġreliable":12353,"Ġlegitimate":12354,"Ġbot":12355,"ĠTable":12356,"nov":12357,"Ġexportados":12358,"Ġallows":12359,"Reference":12360,"Ġpudiera":12361,"Ġtelecommunications":12362,"Ġtrends":12363,"Ġplurian":12364,"Ġacceder":12365,"OGA":12366,"Ġdivulg":12367,"Ġnocivos":12368,"Ġdesfav":12369,"ĠConsequently":12370,"Ġconcili":12371,"ĠID":12372,"Ġaplicados":12373,"Ġdecidido":12374,"ieza":12375,"ERN":12376,"Ġfijarse":12377,"Ġdefinitivamente":12378,"ĠXV":12379,"Ġagrarios":12380,"Ġintermediate":12381,"Ġ60061":12382,"Ġpomoc":12383,"tp":12384,"Ġquick":12385,"Ġescrita":12386,"They":12387,"Ġ173":12388,"Ġkos":12389,"Ġadministrations":12390,"Ġparticipante":12391,"Ġcontinuous":12392,"lementing":12393,"Ġpremiums":12394,"Ġinmuebles":12395,"Ġmajeure":12396,"JPY":12397,"YR":12398,"neces":12399,"Ã¹":12400,"Ġouter":12401,"Ġside":12402,"Ġ349":12403,"Ġprivados":12404,"ĠPROCED":12405,"ĠÎ´Î¹":12406,"Ġllegado":12407,"Ġpudieran":12408,"Ġindirectamente":12409,"Ġfarmac":12410,"ACIONES":12411,"Ġvice":12412,"idan":12413,"iados":12414,"Ġleading":12415,"Î¹ÏĥÎ¼":12416,"Ġresulten":12417,"llos":12418,"Ġpaso":12419,"Ġexclusion":12420,"ĠPROP":12421,"Ġrestriction":12422,"ĠmecÃ¡n":12423,"ĠentenderÃ¡n":12424,"ĠEvaluaciÃ³n":12425,"ĠInvestigaciÃ³n":12426,"GE":12427,"Such":12428,"enso":12429,"ĠTTE":12430,"Ġconsiste":12431,"Ġunderg":12432,"Ġpodido":12433,"ĠZe":12434,"Ġconceda":12435,"Ġcifra":12436,"Ġrenewed":12437,"ĠsimultÃ¡nea":12438,"Ġlamps":12439,"Ġimportadas":12440,"venciÃ³n":12441,"Ġformalidades":12442,"TIT":12443,"Ġclimate":12444,"ĠLegge":12445,"ĠPRODUC":12446,"Ġdispute":12447,"IAL":12448,"eds":12449,"Ġsupuesto":12450,"Ġexpuesto":12451,"Ġfibre":12452,"Ġwhereby":12453,"Ġadaptarse":12454,"Î³Î³":12455,"ĠestimaciÃ³n":12456,"Ġproponer":12457,"Ġsolid":12458,"df":12459,"ndo":12460,"ĠCAP":12461,"Ġparent":12462,"Ġhechas":12463,"Ġarriba":12464,"Ġ188":12465,"Ġsections":12466,"ĠÃª":12467,"Ġasimi":12468,"Proced":12469,"ĠUNDER":12470,"Ġovina":12471,"Ġcontienen":12472,"Ġhomog":12473,"Ġnumeros":12474,"ĠpÃ¡gina":12475,"Ġpliego":12476,"Ġpursue":12477,"IQUE":12478,"eos":12479,"edores":12480,"Ġaccident":12481,"Ġimplic":12482,"istÃ¡n":12483,"Ġmarinos":12484,"acy":12485,"Ġairports":12486,"ĠCapital":12487,"ĠMediterranean":12488,"Ġincidencia":12489,"Ġcolour":12490,"Ġestancia":12491,"IENTO":12492,"ĠDRAM":12493,"Ġemisor":12494,"CU":12495,"imp":12496,"ĠCateg":12497,"Ġimpli":12498,"priations":12499,"ĠacompaÃ±ados":12500,"Ġapropiados":12501,"Ġplurianual":12502,"KING":12503,"bros":12504,"Ġdnia":12505,"elles":12506,"rico":12507,"Ġrefieran":12508,"ĠvolÃºmenes":12509,"Ġtenderer":12510,"Ġvitivin":12511,"ĠtÃ©rm":12512,"Ġpesticide":12513,"Opinion":12514,"CZK":12515,"venta":12516,"Ġdeven":12517,"Ġacord":12518,"etro":12519,"ĠrÃº":12520,"Ġbasarse":12521,"Ġgrape":12522,"Ġnacionalidad":12523,"Ġmillions":12524,"Ġjustificar":12525,"Ġestructural":12526,"Ġexempted":12527,"ĠVerde":12528,"loro":12529,"ĠMedidas":12530,"iso":12531,"dition":12532,"Ġalquiler":12533,"Ġcommission":12534,"izas":12535,"ĠinformÃ¡ticos":12536,"Ġmodu":12537,"ĠautoritÃł":12538,"Ġ177":12539,"Ġsectoriales":12540,"Ġexists":12541,"Ġcriterio":12542,"Ġweeks":12543,"Ġpreparado":12544,"ĠFederation":12545,"Ġequity":12546,"Ġauthorize":12547,"Ġrespetando":12548,"Ġfresca":12549,"iterrÃ¡neo":12550,"400":12551,"Rule":12552,"ulated":12553,"ĠLU":12554,"Ġraise":12555,"Ġintensidad":12556,"ĠÃ¡reas":12557,"ĠXT":12558,"ĠseguirÃ¡n":12559,"Ġcopias":12560,"Ġthresholds":12561,"Ġincrementar":12562,"ĠinmigraciÃ³n":12563,"ĠexplÃŃci":12564,"Ã©anse":12565,"nd":12566,"cience":12567,"ischen":12568,"uthor":12569,"ects":12570,"alestin":12571,"Ġentren":12572,"Ġpoly":12573,"Ġ253":12574,"Ġdistur":12575,"ĠCohesion":12576,"ĠpÃ¡rrafos":12577,"Ġguberna":12578,"ÃŃcolas":12579,"Ġpowder":12580,"USD":12581,"ĠTurk":12582,"Ġtradicional":12583,"Ġexpedientes":12584,"Ġpoultrymeat":12585,"Ġafecten":12586,"Ġdispatched":12587,"Ġsuprime":12588,"Ġoccurred":12589,"cks":12590,"rica":12591,"wÃ¡n":12592,"respective":12593,"ĠPI":12594,"fiable":12595,"ĠDeleg":12596,"Ġpagados":12597,"ĠvÃ¡lidos":12598,"ĠRepresentante":12599,"Ġespir":12600,"carburos":12601,"dios":12602,"Ġgli":12603,"ĠktÃ³":12604,"Ġciviles":12605,"Ġ295":12606,"Ġbuy":12607,"Ġcorrelation":12608,"Ġirre":12609,"Ġartificial":12610,"Ġitaliane":12611,"ĠFEOGA":12612,"Ġpercib":12613,"ĠPROVISIONS":12614,"ĠapÃ©ndice":12615,"Ġjourne":12616,"national":12617,"tÃ¤":12618,"tidos":12619,"icon":12620,"ulen":12621,"Ġalways":12622,"vier":12623,"ĠInf":12624,"Ġ250000":12625,"Ġextending":12626,"cribe":12627,"Ġkeeping":12628,"ĠBayer":12629,"ej":12630,"ciendo":12631,"unas":12632,"ĠMulti":12633,"Ġ190":12634,"ĠOc":12635,"Ġ165":12636,"ÏħÎ½":12637,"Ġaprobada":12638,"Ġreguladas":12639,"Ġimprovements":12640,"Ġjuventud":12641,"Ġflexibilidad":12642,"Ġclasific":12643,"Ġsoftware":12644,"Ġforces":12645,"ilings":12646,"ĠEnter":12647,"Ġgrav":12648,"ĠhabrÃ¡n":12649,"Ġamplio":12650,"Ġcombination":12651,"ĠVerordnung":12652,"Ġequality":12653,"Ġfiabilidad":12654,"Ġpilot":12655,"Ġkoruna":12656,"Ġgobernanza":12657,"cose":12658,"hn":12659,"Ġcambi":12660,"ĠInc":12661,"Ġsecreto":12662,"Ġpasivos":12663,"Ġperjud":12664,"Ġelaborados":12665,"Ġgovernments":12666,"Ġshipping":12667,"econÃ³m":12668,"Ġrequirente":12669,"far":12670,"Ġcobro":12671,"Ġ611":12672,"ĠIntegra":12673,"Ġsupports":12674,"Ġ1898":12675,"Ġdefinida":12676,"Ġlegislativo":12677,"Ġcommunity":12678,"Ġjustify":12679,"cosa":12680,"Ġporcentajes":12681,"Ġcertifying":12682,"Ġtransition":12683,"Ġnavigation":12684,"ĠIMPOR":12685,"Ġgradual":12686,"Ġdeshues":12687,"ĠEAGGF":12688,"Fran":12689,"oks":12690,"Ġwhenever":12691,"Ġpossession":12692,"ANA":12693,"bserva":12694,"Ġcomprobado":12695,"Ġadecuadamente":12696,"Ġchallenges":12697,"ÃŃcti":12698,"ĠFAO":12699,"Ã¡stro":12700,"Ġmiljoen":12701,"plus":12702,"Ġopon":12703,"ÃŃdas":12704,"Ġ539":12705,"ĠGMO":12706,"Cons":12707,"Ġrepresentation":12708,"Ġcomercializados":12709,"Ġtomado":12710,"Ġendors":12711,"Ġterminated":12712,"Ġfuerzas":12713,"Ġsuplementarias":12714,"ĠcesiÃ³n":12715,"Ġtractor":12716,"Ġrelief":12717,"Ġreexpor":12718,"ĠMoroc":12719,"ctive":12720,"ĠDanish":12721,"Ġdescu":12722,"Ġtransposition":12723,"Ġstating":12724,"ÎµÏĦÎ±Î¹":12725,"Ġdesignada":12726,"Ġanalogue":12727,"Ġderiva":12728,"ĠelectrÃ³nicas":12729,"Ġpattern":12730,"Ġmanif":12731,"Ġrecibida":12732,"Ġaccidents":12733,"Ġabogados":12734,"Ġespiritu":12735,"Ġanule":12736,"Ġacab":12737,"ĠPleno":12738,"Ġresident":12739,"ĠPARA":12740,"ĠIndustry":12741,"Ġleyes":12742,"Ġquinto":12743,"ĠTaiwÃ¡n":12744,"Ġaprovech":12745,"Ġbilletes":12746,"ĠclÃ¡sica":12747,"Ġoz":12748,"Ġfen":12749,"Ġconfin":12750,"Ġconduci":12751,"ĠDES":12752,"etary":12753,"Ġcomba":12754,"ĠLV":12755,"Ġ215":12756,"Ġ245":12757,"Ġnomin":12758,"ĠTHIS":12759,"Ġexcluidos":12760,"Ġreconocida":12761,"ĠEUROPEO":12762,"Ġperspective":12763,"ĠdenegaciÃ³n":12764,"Ġstatutory":12765,"Ġabandon":12766,"omet":12767,"ĠApar":12768,"cionar":12769,"Ġgreat":12770,"Ġinclusive":12771,"Ġneither":12772,"Ġinternos":12773,"Ġvolver":12774,"Ġsuspender":12775,"Ġexenciones":12776,"Ġexperiencias":12777,"UBLIC":12778,"Ġabre":12779,"Ġdraf":12780,"ĠvÃŃcti":12781,"ĠML":12782,"ĠLegal":12783,"Ġexplan":12784,"eramente":12785,"Ġ187":12786,"Ġ217":12787,"Ġequita":12788,"Ġdefinitivos":12789,"hibi":12790,"ĠINFORM":12791,"ĠÎ±ÏĢÎ¿":12792,"Ġachievement":12793,"Ġllegada":12794,"Ġbreve":12795,"productos":12796,"Ġutilisation":12797,"atellite":12798,"tats":12799,"mentaria":12800,"Ġ660":12801,"ĠDeli":12802,"Ġleaving":12803,"Ġleft":12804,"Î±ÏĤ":12805,"Ġevaluations":12806,"Ġterritoriales":12807,"Ġreciba":12808,"Ġ3719":12809,"ĠXA":12810,"Ġrecibidas":12811,"ĠADMINIS":12812,"Ġcrop":12813,"ĠDisposiciones":12814,"ivas":12815,"Ã³ÅĤ":12816,"mbol":12817,"ĠMal":12818,"ĠÎ¹":12819,"ĠHo":12820,"Ġ230":12821,"Ġexportation":12822,"propor":12823,"Ġllevarse":12824,"Ġinmediata":12825,"ĠEFTA":12826,"ĠCorporation":12827,"Ġredac":12828,"ĠYugoslavia":12829,"SGD":12830,"otech":12831,"Ġascen":12832,"Ġ769":12833,"graf":12834,"Ġdivision":12835,"puestos":12836,"ĠAgr":12837,"pend":12838,"ĠCoordin":12839,"Ġdirectos":12840,"ĠACTIV":12841,"Ġagrario":12842,"ĠFederaciÃ³n":12843,"ĠVerordening":12844,"Ġindemnizaciones":12845,"Ġdemonstrate":12846,"Ġclassical":12847,"quinaria":12848,"GBP":12849,"yed":12850,"Ġinul":12851,"ĠParis":12852,"Ġgeneration":12853,"pita":12854,"Ġmisura":12855,"Ġaudits":12856,"Ġaccesorios":12857,"Ġtransfronterizos":12858,"Ġedificios":12859,"ĠBelarus":12860,"Ġsilvestres":12861,"Ġglobales":12862,"Observ":12863,"atÃ©l":12864,"Ġdetermina":12865,"Ġaids":12866,"Ġcali":12867,"Ġsalmon":12868,"Ġprocessor":12869,"Ġestuvi":12870,"Ġdispens":12871,"ĠautomÃ¡tica":12872,"Ġharvest":12873,"rarÃ¡n":12874,"Ġproven":12875,"Ġ613":12876,"ĠBet":12877,"ĠDeben":12878,"ĠTodas":12879,"ĠExper":12880,"Ġfuturas":12881,"Ġconfianza":12882,"Ġsometida":12883,"Ġcustomer":12884,"Ġconsiderablemente":12885,"ĠSteel":12886,"Ġoccupational":12887,"Ġaromatiz":12888,"Ġhatching":12889,"lares":12890,"Ġmanti":12891,"ĠCre":12892,"Ġneut":12893,"Ġworker":12894,"Ġ373":12895,"Ġtraslados":12896,"Ġintercambi":12897,"ĠREGARD":12898,"igns":12899,"Ġextraordin":12900,"ĠNOT":12901,"ĠcatÃ¡stro":12902,"Ġprzez":12903,"Ġreconoce":12904,"Ġbatch":12905,"Ġreiter":12906,"Ġrevoc":12907,"ĠSche":12908,"Ġmitad":12909,"ĠFre":12910,"ĠOH":12911,"idity":12912,"Ġprocedural":12913,"ĠÎĹ":12914,"Ġ205":12915,"Ġ2201":12916,"Condi":12917,"Ġintroduct":12918,"ĠPresup":12919,"Ġtransformadores":12920,"Ġllevado":12921,"Ġcomplementarios":12922,"ĠantelaciÃ³n":12923,"Ġalcanzado":12924,"Ġbiological":12925,"Ġpropagating":12926,"ĠÎ±Î½Î±":12927,"PI":12928,"spa":12929,"Ġinmun":12930,"Ġescas":12931,"ĠSC":12932,"chap":12933,"Ġfinanciados":12934,"Ġproductividad":12935,"Ġregulan":12936,"Ġaceit":12937,"Ġposteriori":12938,"Ġbiodi":12939,"Ġpermisos":12940,"ĠOMG":12941,"Î¯Î±ÏĤ":12942,"Ġhombres":12943,"POSI":12944,"Å¯":12945,"ĠÅ¾":12946,"Ġ32004":12947,"Ġimposi":12948,"Ġhabr":12949,"ĠDef":12950,"Ġinsuf":12951,"mite":12952,"Ġ275":12953,"Ġdenominados":12954,"Ġseeds":12955,"Ġbarriers":12956,"Ġruedas":12957,"Ġulterior":12958,"products":12959,"ĠplÃ¡tanos":12960,"lut":12961,"Ġut":12962,"orio":12963,"osen":12964,"ĠmÃ©":12965,"ĠcomitÃ©s":12966,"Ġask":12967,"ounced":12968,"Ġexpuestas":12969,"ÏĦÎµ":12970,"Ġ270":12971,"Ġindustries":12972,"Ġpartly":12973,"Ġagricultor":12974,"Ġradioactive":12975,"Ġespecificados":12976,"Ġincoar":12977,"ĠexpedirÃ¡n":12978,"Ġsuprimir":12979,"ĠAssess":12980,"ĠEmpres":12981,"Ġgrasas":12982,"ntes":12983,"dez":12984,"Ġinstance":12985,"Ġ565":12986,"Ġcanal":12987,"agli":12988,"Ġirrespective":12989,"Ġpatrimonio":12990,"Ġmigration":12991,"Ġbroadcas":12992,"lt":12993,"mio":12994,"ĠPOS":12995,"Ġimportado":12996,"Ġtranslation":12997,"Ġagencia":12998,"Ġtai":12999,"ruecos":13000,"Ġpropiedades":13001,"Ġcomprador":13002,"Ġaccidente":13003,"Ġmineral":13004,"Ġmiras":13005,"Ġbeha":13006,"ĠSum":13007,"Ġactors":13008,"Ġmail":13009,"Ġist":13010,"Ġadher":13011,"Ġdebida":13012,"Ġbasados":13013,"ĠsiÄĻ":13014,"Ġoptions":13015,"Ġinstitucional":13016,"ĠcapÃŃtulos":13017,"Ġbananas":13018,"pped":13019,"Ġlimita":13020,"celona":13021,"Ġembryos":13022,"Ġeine":13023,"Ġ429":13024,"Ġestaba":13025,"Ġpoco":13026,"Ġspecifying":13027,"Ġaduanas":13028,"Ġcampa":13029,"ĠacompaÃ±amiento":13030,"Ġstring":13031,"Ġdefence":13032,"Ġswit":13033,"ĠTextile":13034,"Ġmonetary":13035,"Ġferrocarril":13036,"Ġein":13037,"ĠAduan":13038,"Ġ700":13039,"Ġobrar":13040,"trag":13041,"Ġsubmitting":13042,"Ġpilo":13043,"ĠGobiernos":13044,"Ġpacking":13045,"ĠChamber":13046,"tario":13047,"alities":13048,"ĠcotizaciÃ³n":13049,"Ġcontents":13050,"Ġdat":13051,"ternal":13052,"ĠdispondrÃ¡n":13053,"Ġadapting":13054,"Ġmonthly":13055,"ĠrestricciÃ³n":13056,"Ġfertil":13057,"Ġvegetable":13058,"Ġinfluence":13059,"Ġslaughtered":13060,"ĠmÃ³viles":13061,"ĠJefe":13062,"Ġdemo":13063,"icar":13064,"ĠparÃ¡met":13065,"Ġals":13066,"ĠPIC":13067,"ĠCEN":13068,"ĠOS":13069,"ĠParticip":13070,"ÅĤo":13071,"URES":13072,"ĠÎ±ÏĢÏĮÏĨÎ±":13073,"ĠredacciÃ³n":13074,"Ġcoeficientes":13075,"Ġmolluscs":13076,"Äģ":13077,"Ġcm":13078,"immed":13079,"ĠUr":13080,"ENCI":13081,"Ġconstituido":13082,"habili":13083,"ĠestÃ¡ndar":13084,"ĠObjective":13085,"Safety":13086,"ampoco":13087,"Ġsites":13088,"Ġmisiones":13089,"ĠCos":13090,"ĠAra":13091,"ĠhÃŃ":13092,"Ġforest":13093,"Ġ300000":13094,"ĠIA":13095,"umed":13096,"ĠDefini":13097,"Ġzij":13098,"ĠplanificaciÃ³n":13099,"Ġ259":13100,"Ġwastes":13101,"INT":13102,"Ġroutes":13103,"process":13104,"Ġanterioridad":13105,"PRES":13106,"lazamientos":13107,"Ġrefusal":13108,"Ġwarehous":13109,"git":13110,"det":13111,"ori":13112,"ĠCal":13113,"Ġligh":13114,"ĠPos":13115,"ĠCongo":13116,"ĠBV":13117,"Ġsimp":13118,"101":13119,"ĠutilizarÃ¡n":13120,"Ġcalor":13121,"Ġreguladoras":13122,"ĠRELA":13123,"ĠPlant":13124,"Estado":13125,"ĠcÃ¡rn":13126,"ĠpÅĻ":13127,"rege":13128,"Ġmeasuring":13129,"Ġ244":13130,"Ġassessments":13131,"ĠAlgun":13132,"Ġmultiannual":13133,"Ġasignado":13134,"Ġmodels":13135,"Ġrenewal":13136,"Ġaconte":13137,"ĠÏĩÎ¿":13138,"Ġcorriente":13139,"Ġunanimidad":13140,"Ġpiezas":13141,"ĠTurkish":13142,"agliari":13143,"hy":13144,"ĠAmbi":13145,"tered":13146,"rij":13147,"Ġ3000":13148,"Ġdada":13149,"mentado":13150,"Ġdudas":13151,"Ġafectada":13152,"Ġadjunto":13153,"Ġexternos":13154,"Ġspecification":13155,"governmental":13156,"pres":13157,"Ġdeduct":13158,"Ġpel":13159,"urg":13160,"Ġmayores":13161,"Ġadoptados":13162,"mites":13163,"Ġaffix":13164,"Ġperiodic":13165,"ĠÃ¡cido":13166,"Ġrecibo":13167,"Ġminimis":13168,"tugues":13169,"Ġtarde":13170,"Ġreforms":13171,"ĠconsolidaciÃ³n":13172,"ĠÎ¿ÏĢÎ¿":13173,"Ġdecrease":13174,"Ġprocedi":13175,"AVING":13176,"EF":13177,"dividu":13178,"ils":13179,"ilers":13180,"Ġconstruct":13181,"Ġsiembra":13182,"ĠJo":13183,"ksen":13184,"guales":13185,"Ġsubparagraphs":13186,"Def":13187,"Ġconductor":13188,"Ġstore":13189,"Ġrequerido":13190,"Ġcualificaciones":13191,"Ġsatisfactoria":13192,"ĠDeclaration":13193,"Ġdestruction":13194,"Ġacoge":13195,"Pr":13196,"Ġold":13197,"Ġgame":13198,"ĠRegister":13199,"Ġrestantes":13200,"Ġ80000":13201,"stra":13202,"ĠKar":13203,"apard":13204,"Ġfutura":13205,"Ġimplications":13206,"Î¿ÏįÎ½":13207,"ĠsometerÃ¡":13208,"ĠRepresentative":13209,"Ġautonomous":13210,"iu":13211,"Ġdecom":13212,"Ġhier":13213,"Ġshared":13214,"Ġexim":13215,"Ġarras":13216,"Ġportugues":13217,"ĠName":13218,"ĠOTHER":13219,"ĠGener":13220,"Ġrepresentativos":13221,"ĠTHAT":13222,"Ġ382":13223,"Ġceilings":13224,"Ġconcessions":13225,"ĠreducirÃ¡":13226,"rÃ³leo":13227,"Ġterrorism":13228,"Î·Î½Î¹Îº":13229,"Î»Î»Î·Î½Î¹Îº":13230,"udo":13231,"Ġrelig":13232,"Ġdass":13233,"ĠBR":13234,"Ġmobili":13235,"Ġincluyan":13236,"ĠRef":13237,"natada":13238,"ĠgeneraciÃ³n":13239,"Ġprevisi":13240,"Ġbanco":13241,"ĠdomÃ©s":13242,"Ġworden":13243,"ĠSloven":13244,"Ġflexibility":13245,"Ġpronto":13246,"Ġtelevision":13247,"Ġprorrogar":13248,"Ġrefused":13249,"Ġperturb":13250,"osos":13251,"arding":13252,"Ġvers":13253,"ĠLic":13254,"Ġtrat":13255,"Ġpersist":13256,"ĠWel":13257,"ANT":13258,"ĠÃ¡rea":13259,"Ġ327":13260,"ĠEconom":13261,"ĠpensiÃ³n":13262,"pping":13263,"ĠImple":13264,"Ġasegurarse":13265,"Ġdeadlines":13266,"Ġantigu":13267,"Ġcatches":13268,"ĠCdR":13269,"Ġdeposi":13270,"ĠCOS":13271,"ĠAyudas":13272,"tancy":13273,"urious":13274,"Î»Î±":13275,"Ġpermanentes":13276,"ĠCompeti":13277,"Ġfacilitating":13278,"Ġforestal":13279,"apor":13280,"azione":13281,"pan":13282,"orde":13283,"talia":13284,"tet":13285,"tell":13286,"loading":13287,"Ġevaluated":13288,"Ġcompensatory":13289,"Ġconsignee":13290,"Ġcandidates":13291,"ÃŁna":13292,"Ġdisciplin":13293,"ĠBarcelona":13294,"Î¿Î¹Î½":13295,"lijk":13296,"Ġcatalog":13297,"Ġbreakdown":13298,"Ġsz":13299,"Ġenlace":13300,"ĠComitÃ©s":13301,"Ġ330":13302,"Ġgase":13303,"Ġ264":13304,"liability":13305,"Ġcontingent":13306,"ĠespecÃŃficamente":13307,"Ġmechan":13308,"ĠAssistance":13309,"Ġdebajo":13310,"Ġinvoice":13311,"Ġyield":13312,"Ġstringent":13313,"ivamente":13314,"tia":13315,"Ġesco":13316,"ĠBre":13317,"Ġ234":13318,"Ġguar":13319,"Ġmantenerse":13320,"Ġspecialised":13321,"Ġregistradas":13322,"Ġentrusted":13323,"CHF":13324,"Ġcorrected":13325,"Ġinicialmente":13326,"Ġconflicto":13327,"Ġsulph":13328,"Ġmuchos":13329,"Ġexactitud":13330,"Ġintelectual":13331,"Ġros":13332,"tead":13333,"ĠICES":13334,"Ġasked":13335,"Ġpaga":13336,"ASTOS":13337,"Ġ489":13338,"Ġconjuntos":13339,"Ġpesqueras":13340,"ĠJapÃ³n":13341,"ÏĥÏĩÏħ":13342,"ĠConsidera":13343,"ĠPesca":13344,"REC":13345,"VAL":13346,"tale":13347,"Ġloading":13348,"metic":13349,"ĠVene":13350,"month":13351,"Ġversiones":13352,"Ġcontractuales":13353,"Ġexclude":13354,"Ġcease":13355,"Ġresidual":13356,"Ġconventions":13357,"Ġsello":13358,"ĠaumentÃ³":13359,"Ġencouraging":13360,"ĠpetrÃ³leo":13361,"Ġcontributing":13362,"Maximum":13363,"tores":13364,"isa":13365,"ĠSapard":13366,"ĠexÃ¡menes":13367,"vena":13368,"jeta":13369,"Ġ202":13370,"Ġ227":13371,"ÏĢÏĦ":13372,"Ġidentical":13373,"venth":13374,"Ġexcluir":13375,"ĠINS":13376,"ĠOffic":13377,"Ġaceptado":13378,"ĠmultiplicaciÃ³n":13379,"ĠcalcularÃ¡":13380,"Ġdemocratic":13381,"ĠGeorgia":13382,"MAL":13383,"pla":13384,"Ġpedir":13385,"Ġcese":13386,"Ġwood":13387,"ĠLE":13388,"Ġimpuls":13389,"Ġrub":13390,"Ġpossibilities":13391,"uds":13392,"Ġpositions":13393,"Ġfeas":13394,"Ġpursued":13395,"ĠSecond":13396,"agos":13397,"tilla":13398,"cription":13399,"AMI":13400,"Ġrevisado":13401,"Ġconflictos":13402,"Ġumbrales":13403,"Ġconvergence":13404,"ĠCIEM":13405,"Ġdistillation":13406,"zet":13407,"uniden":13408,"radi":13409,"Ġprocur":13410,"Ġdalla":13411,"ĠICT":13412,"ĠMs":13413,"Ġ729":13414,"Ġagro":13415,"truction":13416,"Î¿Ïĥ":13417,"Ġmodifications":13418,"ĠKa":13419,"ĠutilizarÃ¡":13420,"Ġrefiera":13421,"Ġrealiza":13422,"Î»ÎŃ":13423,"Ġfalls":13424,"Ġanalyses":13425,"ĠDespuÃ©s":13426,"Ġestadouniden":13427,"Ġcomportamiento":13428,"ÅĦstwa":13429,"Ãºrg":13430,"Ġcombatir":13431,"here":13432,"zio":13433,"ĠcofinanciaciÃ³n":13434,"ĠSÃ³lo":13435,"dura":13436,"ĠÎł":13437,"cara":13438,"ĠMarruecos":13439,"Ġpeace":13440,"moran":13441,"Ġparagrafo":13442,"ĠfarmacÃ©u":13443,"MYR":13444,"bb":13445,"mid":13446,"Ġaware":13447,"imas":13448,"Ġdesnatada":13449,"Ġzosta":13450,"ĠÃļ":13451,"Ġcontinuar":13452,"Ġnegociado":13453,"Ġcomprometer":13454,"Ġproporcionadas":13455,"Ġskimmed":13456,"Ġfrontier":13457,"Ġdoubts":13458,"ĠAviation":13459,"Ġringgit":13460,"gÃ¡n":13461,"sch":13462,"ĠtrÃ¡":13463,"ĠSome":13464,"Ġger":13465,"Ġdies":13466,"Ġtramo":13467,"Ġchosen":13468,"Ġsecciones":13469,"Ġtimetable":13470,"Ġholders":13471,"Ġincubar":13472,"TOTAL":13473,"Ġcomparative":13474,"Ġconfirmation":13475,"Ġprorrogados":13476,"ĠtecnolÃ³gica":13477,"Ġpiloto":13478,"Ġela":13479,"ĠSTA":13480,"Ġtratados":13481,"Ġze":13482,"Ġempresario":13483,"ÏģÎ±ÏĦÎ¹Îº":13484,"Ġconsideradas":13485,"Ġafectan":13486,"Ġcorrection":13487,"Ġlimitation":13488,"ĠcombinaciÃ³n":13489,"Ġexpresamente":13490,"ĠIndustries":13491,"Ġindirecta":13492,"Ġintervals":13493,"ĠCombined":13494,"ĠsistemÃ¡tica":13495,"Ġsiguiendo":13496,"Ġbehavi":13497,"310":13498,"kers":13499,"Ġaide":13500,"taform":13501,"Ġprov":13502,"ĠAID":13503,"Ġunion":13504,"Ġ360":13505,"ĠvÃ½":13506,"Ã©ral":13507,"Ã©tÃ©":13508,"isia":13509,"pose":13510,"luoro":13511,"Ã±e":13512,"Ġprocedencia":13513,"ELC":13514,"Ġculture":13515,"Ġentitlements":13516,"building":13517,"Ġmultilaterales":13518,"Ġinspector":13519,"Chapter":13520,"Ġrenovables":13521,"Ġexceda":13522,"ĠOHIM":13523,"lers":13524,"nÃ©":13525,"ini":13526,"orn":13527,"uli":13528,"otec":13529,"Ġill":13530,"Ġexpuestos":13531,"Ġ1605":13532,"Ġutiliza":13533,"apters":13534,"Ġconsiderada":13535,"Ġobjections":13536,"Ġconvenio":13537,"ĠQual":13538,"Ġdesea":13539,"Ġzoon":13540,"Ġargued":13541,"ĠPodrÃ¡":13542,"Ġsuministros":13543,"Ġobstacles":13544,"ĠconexiÃ³n":13545,"ĠImplementation":13546,"lag":13547,"Ġiz":13548,"Ġcomment":13549,"Ġcomisiones":13550,"ĠVien":13551,"Ġ315":13552,"Ġ2371":13553,"Ġtomato":13554,"Ġagrarias":13555,"Ġconcesiones":13556,"Ġherrami":13557,"Ġpronuncia":13558,"Ġfuels":13559,"tural":13560,"Ġarom":13561,"lateral":13562,"rededor":13563,"taÃ±a":13564,"iche":13565,"Ġdro":13566,"ĠMÃ©to":13567,"Ġ411":13568,"Ġhacen":13569,"lantic":13570,"Ġ1785":13571,"Î¹ÏĥÏĩÏį":13572,"Ġopciones":13573,"Ġcosm":13574,"Ġdefinitively":13575,"carbon":13576,"Ġasientos":13577,"Ġpetrol":13578,"Ġretained":13579,"ĠRegulamento":13580,"Disposiciones":13581,"Ġaccuracy":13582,"date":13583,"Ġtraders":13584,"Ġchlor":13585,"Ġdesignadas":13586,"Ġmesh":13587,"Ġregularidad":13588,"Ġluchar":13589,"Ġalternativas":13590,"Ġfacultada":13591,"Ġcomprising":13592,"ĠShould":13593,"Ġharvested":13594,"Ġejecutar":13595,"ĠLegisla":13596,"ĠBrasil":13597,"Ġinsufficient":13598,"bada":13599,"zhou":13600,"ĠsatÃ©l":13601,"Ġvid":13602,"ilst":13603,"Ġ675":13604,"Ġ750":13605,"ĠGlo":13606,"Ġsoliciten":13607,"Ġopposition":13608,"Ġ240":13609,"Ġhighest":13610,"Ġremola":13611,"Ġputting":13612,"Ġdirigida":13613,"ĠObservations":13614,"Ġferroviario":13615,"Ġfavore":13616,"Ġencaminadas":13617,"ĠÏĢÎµÏģÎ¹":13618,"lawful":13619,"Ã©ptimo":13620,"ĠMorocco":13621,"SF":13622,"blo":13623,"udas":13624,"Ġdemas":13625,"Ġtop":13626,"Ġida":13627,"Ġaspecto":13628,"fili":13629,"ĠâĢ²":13630,"Ġdescentral":13631,"ĠIndica":13632,"Ġ1049":13633,"Ġ186":13634,"Ġrecyc":13635,"Ġrepresents":13636,"Ġconsultado":13637,"ĠrealizarÃ¡n":13638,
[...]
